#version: 0.2 - Trained by `huggingface/tokenizers`
Ġ ì
Ġ ë
ì Ŀ
Ġ ê
í ķ
ë ĭ
ì Ĺ
ìĿ ´
ë Ĭ
ì ļ
Ġ í
ëĬ Ķ
ê ³
ì §
ì Ħ
ê °
ëĭ ¤
ë ¦
Ġì ĭ
ì ĸ
Ġì ŀ
ìĹ Ĳ
ë ı
ê³ ł
Ġë §
ì ŀ
íķ ĺ
ìĸ ´
ìļ Ķ
ì ĭ
ë ¡
ê ¸
ë¡ ľ
ìĦ ľ
ëı Ħ
Ġì Ŀ
ê ²
ëĭ Ī
Ġê °
ì ķ
ê° Ģ
ì ł
ì Ĭ
Ġìĭ ł
ë §
Ġì ķ
ê¸ °
ì§ Ģ
ìĿ Ħ
Ġì ł
ë į
íķ ľ
ë ĵ
Ġ Ġ
ë¦ ¬
ìĿ Ģ
Ġìŀ Ī
ì ľ
£ ¼
Ŀ ¼
´ ë
Ġì Ĺ
Ġë °
ë Ĥ
ê µ
Ġì ĺ
ë ¬
ë Ŀ¼
ëĭĪ ëĭ¤
Ġê ³
ìĹ Ń
ë ©
ë ¥
ê² Į
Ġë ĭ
Ī ĺ
ìľ ¼
ë ³
ìĭ ľ
ìĬ ¤
Ġë Ĥ
ë °
ì Ĥ
. .
Į Ģ
ë¦ ¼
ì ¹
íķ ´
ì ´
ëį °
ë© ´
Ġì Ħ
ë ŀ
¨ ¹
Ġë§ Ľ
Ġê ·
Ġì §
êµ ¬
ìĿ ĺ
ì´ Į
Ġê° Ģ
ìķ Ħ
Ġë ³
Ġìĭł ì´Į
Ġë ¶
Ġì Ĥ
ì £¼
ì§ ĳ
Ġìĭł ë¦¼
Ġì ¢
ë ¶
ì ĺ
ë¥ ¼
Ġë ¨¹
ë ł
í Ĭ
ĠìĿ ´
ìĿ ¸
ëĵ ¤
Ġì ĥ
ìŀ ¥
ëĤ ĺ
ìĹ Ī
ìĸ´ ìļĶ
Ġì Īĺ
Ġê· ¸
ì ²
ì °
ì ĥ
ìľ¼ ë¡ľ
ê ¹
Ġë ĵ
ë Ł
í ĥ
± °
ì Ľ
ë¬ ¸
Ġëĭ ¤
Ġì °
Ĩ Į
Ġì £¼
Ġì ĸ
Ġ íķĺ
ìŀ Ī
µ ëĭĪëĭ¤
¹ Ħ
Ġìķ Ħ
Ġê ²
ì¹ ĺ
ì Ļ
ë§ Į
Ġì¢ ĭ
ëĬĶ ëį°
Ġì ¹
Ķ ë
ë ĮĢ
í Ķ
Ġë ª
ĠìĤ ¬
Ġ íķ
íĬ ¸
Ġê ¸
í ĸ
Ġìĺ ¤
ëı Ļ
ëĵ ľ
Ġìĭ ľ
ìĹĲ ìĦľ
ìĬ µëĭĪëĭ¤
Ġì ļ
Ġë Ħ
Ĳ ĺ
ĠëĤ ĺ
Ġì ľ
ìŀ Ĳ
Ġë ı
Ġê³ ł
ê¹ Į
ê³ ¼
ë³ ´
ê° Ħ
Ġê µ
ĠìĦ ľ
ë ²
ê ±°
Ġë³ ´
Ġìĭłë¦¼ ìĹŃ
Ġ íķľ
¯ ¸
ìł Ĳ
ĠìĿ ´ë
ë ¹Ħ
ìĿ Į
Ġë į
Ġì Ľ
ìĻ Ģ
ìĦ ¸
ì Īĺ
Ġë§ Ī
Ļ Ķ
í İ
Ġìĭłì´Į ìĹŃ
ì ħ
ģ ¬
Ġìķ Ī
Ġë ²
Ġë ¬
ëŁ ¬
Ġë¶ Ħ
ìļ ©
í Į
Ġë ©
íķĺ ê³ł
Ġì ¶
Ġìł ķ
ë¶ Ģ
ìļ ¸
Ġ .
Ġë§Ľ ìŀĪ
Ġë§ İ
ìĿ ¼
ëį Ķ
ĠĠ ĠĠ
ë ª
ìĤ ¬
ë Ħ
ë¬ ´
Ġìł Ģ
ì ¶
Ġê¸ °
Ġìŀ Ĳ
ìĸ´ ìĦľ
Ġì ĨĮ
Ġê° Ļ
ĠìĿ ¸
ìĽ Ĳ
ê ·
ë £
ìŀ ħ
Ġë§ ¤
Ġë Ķ
íĸ Ī
ìĭ ł
ë ħ
Ġì Ļ
í ħ
ķ Į
ìĭ ¤
Ġí ĺ
ìĺ ¤
ë§ Ī
í Ħ
Ġìł Ħ
Ġëĵ ¤
ì ¦
¤ ĳ
ë¶ Ħ
ìĦ ±
Ġë ĮĢ
¡ °
í ŀ
Ġì§ Ģ
ĠìĹ Ń
ë§ Ľ
ìļ ´
íĦ °
ìĭ Ŀ
ì ĨĮ
í ĺ
ìĤ ¼
ı ¬
ìķ ĺ
ĳ Ĳ
´ Ģ
ìĥ ģ
Ķë ī
Ġê² ĥ
Ġìľ Ħ
íŀ Ī
íķĺ ê²Į
ĠìĹ ¬
.. .
ĠìŀĪ ëĬĶ
ìķ ¼
Ġë§Ľ ì§ĳ
Ġìł ľ
Ġê ¹
ìł ķ
Ġë° Ķ
Ġì ²
Ġëª ¨
Ġëį Ķ
ĠìĽ Ĳ
ìł ģ
Ġë¶ Ģ
Ġì Ī
ì§ Ħ
Ġìĥ Ŀ
ĠìĦľ ìļ¸
¸ µ
ëįĶ ëĿ¼
Ķëī ´
ìļ °
ëł ¤
Į ìĿ´
Ġì Ĭ
ìł Ħ
íĶ ¼
ëį ĺ
Ġì§ Ħ
ë ¯¸
Ġë Ĭ
ëĦ ¤
ëĭ ¹
ë ¸
íķ´ ìĦľ
Ġê ±
ë Ĳĺ
íİ ĺ
ì° ¨
Ġìķ Ĭ
í ģ¬
ëŀ ĺ
Ġë§ Į
Ġí Į
ĠìĹ Ĩ
ì§Ģ ë§Į
Ġë Ĳĺ
ìĹ ¬
ë° ¥
Ġìŀ ĺ
ëŀ ĳ
Ľ Ħ
Ġë° ©
ì Ī
ìŀħ ëĭĪëĭ¤
ĠëĦ Ī
ìł ľ
í Ĩ
ìĿ´ ëĿ¼
ìĦ ł
ë§ Ĳ
íķĺ ëĬĶ
Ġí Ļ
Ġêµ ¬
ê »
ĠìĿ ¼
Ġì¶ Ķ
ê¹Į ì§Ģ
Ġë ķĮ
íķ ł
Ġìĥ ģ
êµ Ń
Ġì ¸µ
Ġì ¡°
Ġê ±°
Ġë© Ķëī´
ĠìĬ ¤
Ġí ĸ
Ġìĺ Ī
Ġê³ µ
© ëĭĪëĭ¤
ì² ľ
Ġí Ķ
Ġí İ
ĠĠ Ġ
´ íİĺ
Ġìĸ ĳ
Ġëĵ¤ ìĸ´
ìĸ ĳ
íĥ Ģ
ë¬ ¼
Ġì£¼ ë¬¸
ĠëĬ Ĳ
ê¸ ¸
ì ½
ë¦¬ ê³ł
ľ êµ¬
ëĭ ĺ
ê¸ Ī
Ġìŀ ħ
Ġë ¹Ħ
ĠëĦĪ ë¬´
Ġëı Ħ
Ġí ĥ
Ġë ¹
Ġê³ ³
í ĻĶ
ĠìĦ ł
ĠìĹ °
ĠìĹŃ ìĤ¼
Ġë ħ
ëĵ¤ ìĿ´
ì¦ Ī
Ġì ¤ĳ
Ġ íķ´
í Ļ
Ġê ´Ģ
ë Ķ
ëł Ī
ìł Ģ
Ġê° ľ
ļ Į
Ġì¹ ĺ
êµ¬ ìļĶ
ë³ Ħ
Ġë² Ī
Ġì Ĩ
Ġí ı¬
ê² ł
ë ¹
ê ±
Ĳ ľ
ìĭ ¬
ìĥ Ŀ
Ġê³ł ê¸°
ìĽ Į
Ġìļ °
ê° ģ
ë§Ľ ì§ĳ
ìĹĲ ëĬĶ
Ġí ĻĶ
ĠìŀĪ ìĹĪ
ìľ Ħ
ëĭ¤ ê³ł
ë° ©
» ¤
Ġì¢ĭ ìķĦ
ì§ Ī
ìĦ¸ ìļĶ
Ġí Ĭ
ì ¡
Ġê³ Ħ
í Ĥ
íĥ Ŀ
ìķ Ī
ê° Ī
ë¥ ´
Ġì ´
ë©´ ìĦľ
ìĹ ħ
Ġìļ Ķ
ìĤ ´
ĩ ê²Į
Ġê·¸ ë¦¬ê³ł
íħ Į
Ġìĺ ¬
Ġëĵ ±
ĠëĤ ´
ê» ĺ
ë ¨¹
ì² ĺ
ë£ Į
Ġíİ ¸
Ġë¬ ´
ê° ľ
Ġìłķ ë§Ĳ
Ġìĭ Ŀ
Ġí ĽĦ
Ġëĭ ¨
Ġì° ¸
ìł ¸
ì§ ľ
ìĤ °
¹ ë³Ħ
ì¶ Ķ
ë ĳĲ
ëĬ ¥
ë© °
ģ ¼
ë³ ¸
ĠìľĦ ì¹ĺ
ê² ©
Ġí ģ¬
íĶ Ħ
ì ¼
Ġìĸ ´
Ġí Ĩ
ë² Ħ
Ġë° °
Ġë ¯¸
ëĦ¤ ìļĶ
ìŀ Ħ
ê· ¸
Ġë ĺ
ª ½
ëĬ ĺ
Ġì° ¾
ì Ĩ
í ĭ
Ġì¹ ´íİĺ
ìķ ħ
ì £
ìĺ Ģ
ê· ¼
Ġìŀ ¬
ĠìĦ ¸
Ġìķ Į
ĠìŀĪ ìĸ´ìĦľ
ĠìĥĿ ê°ģ
Ġë¨¹ ìĸ´
íĬ ¹ë³Ħ
íĬ¹ë³Ħ ìĭľ
ëĭ ¨
Ġë ĳĲ
Ġìĭ ¶
ĠìĦľìļ¸ íĬ¹ë³Ħìĭľ
Ġìļ ´
íĥ ķ
Ġìľ ł
ê³ł ìļĶ
ë¥ ¸
Ġë§İ ìĿ´
Ġíĸ Ī
ì ¤
ëįĶëĿ¼ êµ¬ìļĶ
Ġê° ķ
Ġì¢ĭ ìĿĢ
ìķ ½
Ġí ħ
ĠëĤ ¨
Ġê· ¼
ìħ ĺ
Ġíĺ ¸
ĠìĿ Į
ê° Ĳ
ëĬĶëį° ìļĶ
Ġë°© ë¬¸
ĠìĦł íĥĿ
ë° ľ
Ġì ½
Ġë°Ķ ë¡ľ
ìľ¼ ë©´
ĠìĹŃìĤ¼ ìĹŃ
ĠìĪ ł
Ġìĺ ģ
ì ¤ĳ
íĸ ī
ìĭľ ëĬĶ
ëŀ Ģ
Ġëı Ļ
íĶ Į
Ġëĺ Ĳ
Ġì§Ħ ì§ľ
ì£ ł
Ġëĵ ľ
ê³ µ
Ġìŀ ¥
íĮ Ĳ
ĠëĬĲ ëĤ
ĠëĶ °
Ġì ¤
Ģ ìĿ´
Ġê° Ħ
ìĹĪ ìĸ´ìļĶ
Ġìĸ ´ë
Ġê² ½
ĠìĿ´ë ł
Ġë Ĩ
ĠìŀĪ ìĬµëĭĪëĭ¤
Ġì§ ģ
ëĭ¤ ëĬĶ
Ġí Ĺ
ë¸ Ķ
íĨ µ
ìħ Ķ
ëª ħ
Ġë ¸
ë° ĺ
ì² ´
ìħ ¨
ê² ½
Ġë° ĺ
ì Ķ
ìķĦ ìļĶ
Ġë ¨
ë ĥ
Ġë Ī
¾ ¸
ê°Ī ë¹Ħ
ĠìĿ´ëł ĩê²Į
ëĤ ¨
í ı¬
ĠìĤ ´
ëĵ ł
ë¦ Ħ
êµŃ ìĪĺ
ìĹĲ ìļĶ
ìĿ¸ ëį°
ĠíĮ Į
ĸ ¡
ë¶Ģ íĦ°
ĠëĤ ´ë
ĠíĶ ¼
ëŁ °
ì ª½
ìĻ Ķ
Ġëĭ¤ ìĸĳ
Ġíķ ł
ë ´
Ġê´Ģ ìķħ
Ġì° ¨
ë² Ī
ê± ´
ëĤ ´
Ġê°Ģ ëĬ¥
Ġì ¦
ëĲĺ ìĸ´
íĭ °
Ġìĭľ ê°Ħ
Ġê ¼
ê² ĥ
íĺ ¸
Ġìĥ Ī
ĠìĤ¬ ì§Ħ
Ġíķ Ħ
Ġë¨¹ ê³ł
ìĺ ģ
ìľ¼ ëĭĪ
ĠìķĦ ëĭĪ
ê ´Ģ
Ġê´Ģìķħ êµ¬
Ġì§ ĳ
ĠìŀĪ ìĸ´ìļĶ
ë¸ Į
Ġê° Ĳ
Ġì° į
Ġì »¤
Ġì¶Ķ ì²ľ
ë° Ķ
ëĭ µëĭĪëĭ¤
ìķĦ ìĦľ
ëª ¨
íĮ Į
ë¡ Ŀ
Ġë§ Ĳ
Ġë Ŀ¼
ĠìĹ¬ ê¸°
íķĺ ê¸°
Ġìł Ĳ
ì² Ń
ëĶ Ķ
íķ ©ëĭĪëĭ¤
ê³ł ê¸°
Ġë¶ Ī
Ġí ļĮ
Ġë¨¹ ìĿĦ
Ġíķ ¨
ĠëĶ Ķ
Ġê°Ģ ê²©
Ġì¢ĭ ìķĺ
ìľ ł
Ġë° Ľ
ì° ½
Ġìĺ¤ ëĬĺ
Ġì´ Ī
µ ìħĺ
ë§ ¤
Ġìł ģ
± Ħ
ê ¶
Ġí ı
ê¸ Ģ
íĮ ħ
ê³ Ħ
Ġìļ´ ëıĻ
µ ľ
ì¹ ´
Ġìĺ µìħĺ
´ë ¬
ĠìĨ Ĳ
ëįĶëĿ¼ ê³łìļĶ
Ġëĭ ¬
ĠìĻ Ģ
ëĭ¤ ê°Ģ
ĠìĺĪ ìķ½
ì¡ ±
ë¥ ĺ
íķ ¨
ĠëĤĺ ìĺ¤
ëĭ ¬
ë Ĳľ
Ġì µľ
ĠìĤ ¼
ìĹĲ ëıĦ
í Ŀ
ìĨ į
Ġêµ Ń
ë ķĮ
ë³ ¶
ìĭľ ê°Ħ
ê² ¹
Ġíķĺ ëĤĺ
Ġëĭ Ń
Ġê¹ Ģ
ĮìĿ´ ë¸Ķ
ì ¡°
ģ Ķ
Ġíķ¨ ê»ĺ
´ë ³
ê° ķ
Ġìķ ŀ
ìł Ī
ê¹ Ģ
Ġë¬ ¼
Ġì Ń
ìĺ ¨
ìłģ ìľ¼ë¡ľ
Ġëĵ¤ìĸ´ ê°Ģ
Ġë ģ
í Ĵ
ĠíĻĶ ì§Ī
Ķ ë¡ľ
ìľĦ ê¸°
ê³ ³
ĠëķĮ ë¬¸
ĠìĿ´ ìļ©
ìĭľ ë©´
Ġê·¸ ëŀĺ
ì ¢
ë¦¬ ëĬĶ
Ġë² Ħ
ìŀ ĳ
ĠìĹ Ħ
ĠìĻ Ħ
ë£ ¨
Ġë¬ ¸
ë¦ °
¶ Ģ
Ġíĥ Ģ
ì§ ģ
ìĬ µ
êµ Ĳ
ìĦ Ŀ
í ĽĦ
Ġë§Ľ ìĿ´
ĠìłĢ ëĬĶ
ëĮĢ ë¬¸
ìĹ °
ìĪ ł
íķ ©
Ġìĭ ¤
ĠíĨ µ
Ġìłķ ëıĦ
Ġëª ħ
Ġì¹ĺ ì¦Ī
Ġë¶Ħ ìľĦê¸°
ê ¾¸
ìĹĪ ëĭ¤
Ġëħ ¸
Ġíķĺ ê³ł
ĠìĦľ ëĮĢë¬¸
íħ Ķ
Ġíħ ĮìĿ´ë¸Ķ
´ë ©
í ļĮ
Ġíĺ Ħ
ë³´ ëĭ¤
ĠìŀĪ ëĭ¤
Ġê± ¸
Ġë ´
Ġëª »
ĠìĤ¬ ëŀ
ìĪ ľ
Ġê ´
ĠëĤ ł
ë ¯
Ġë° ¥
Ġí ģ
Ġë Ĳ
ëŁ ¼
ĠìĦľëĮĢë¬¸ êµ¬
Ġê± ´
ĠíĬ ¹
ì½ ¤
ìĿ´ íĬ¸
Ġí Ŀ
Ġìĸ ¼
ĠëĶ ±
Ġë Ĳľ
Ġìķ ¼
Ġê°Ļ ìĿ´
Ġë§İ ìĿĢ
Ġë§ ŀ
ì§Ģ ëĬĶ
ìĬ¤ íĥĢ
ì² ł
Ġë§ĽìŀĪ ëĬĶ
Ġë ĥ
Ġê° Ī
Ġì£¼ ì°¨
Ġë Ń
ì ģ
Ġìł ĳ
íĤ ¤
Ġë§¤ ìŀ¥
íĺ ķ
ë¶ Ī
ĠëĤ´ë ¶Ģ
Ġê ½
Ġì² ĺ
ê² ¨
Ġëħ Ħ
ìĿ´ ëĭ¤
ĠìŀĲ ë¦¬
Ġì¢ ħ
ĠëķĮë¬¸ ìĹĲ
Ġë¶Ħ ëĵ¤
ìĹĪ ëĬĶëį°
ì° ¬
Ġëĭ ¹
ìłģ ìĿ¸
í Ĺ
Ġê·¸ ëŁ°
ë£ ¸
Ġë ¦
ĠìĨĮ ìĬ¤
Ġëĭ¤ ë¥¸
ì ¸
ìĿ´ ëĤĺ
Ķë ģĶ
Ġìłľ ê°Ģ
ĠìķĦ ì£¼
Ġëĭ¤ ìĿĮ
ê²¹ ìĤ´
Ġìĭłì´Į ìłĲ
ĠìŃ Ī
Ġí ĳ
ëĭ Ń
ĠëĦ ĺ
Ġ ..
íĨ ł
Ġê¸° ë³¸
ĠìĽ Ķ
Ġê¹ ĶëģĶ
Ġëĭ¤ìĸĳ íķľ
ĠìŀĪ ê³ł
ĠìĿĮ ìĭĿ
ëħ Ĳ
Ġì¦ Ĳ
Ġì¹ ľêµ¬
ëĵ Ŀ
Ġì¤ Ģ
íĿ ¬
ĠìĪ ľ
Ġíı ī
íķĺ ë©´
Ġê°Ļ ìķĦìļĶ
Ġìŀ ĳ
Ġê°Ļ ìĿĢ
ê¸° ëıĦ
íĸ ¥
ĠìĹĦ ì²Ń
ìĥ ī
ì¹ ´íİĺ
Ġë³´ ìĿ´
¸ ë¦¬
ĠìĦ ¤
íĸĪ ìĸ´ìļĶ
Ġê°ķ ëĤ¨
´ë© ´
ë ģ¼
ĠíĻ ķ
ì½ Ķ
Ġì¢ Ģ
ĠìĹ Ĳ
ìŀ¥ ëĭĺ
ìłĢ íĬ¸
Ġì¡° ê¸Ī
ê¶ Į
ë§ ī
ëł ¥
íĴ Ī
ĠìĤ¬ ìĿ´
íķĺ ìĦ¸ìļĶ
ëħ Ģ
íĶ¼ ìĬ¤
Ġë¦ ¬
Ġê² Į
ĠìĿ´ë ²
ëĮĢ ë¡ľ
Į Ī
ĠĠĠĠ Ġ
ëŀ ľ
íķ Ħ
Ġë¨¹ ëĬĶ
ìĿ´ ìĹĲìļĶ
ĠìŀĪ ìĸ´
ê¸ ´
Ġìķ ½
Ġê³µ ê°Ħ
´ ê¸°
Ġí ŀ
ì ±Ħ
Ġë³ ¶
ĠìĿ´ë Ł
ì° ľ
´ë¬ ¼
ëª ©
ìŀ ¬
ĠëĦ ¤
ì§ Ŀ
Ġ ...
ł Ī
Ġì²ĺ ìĿĮ
ëĭ¤ ë©´
ĠìĹ ´
Ġë° ľ
ìĿ´ ëŀĳ
Ġì¶ ľêµ¬
íĤ ¨
Ġë ĸ¡
Ġë§ ī
Ġì§Ģ íķĺ
Ġì¶Ķ ê°Ģ
ĠíĶ Ħ
ê ¼
Ġê·¼ ì²ĺ
ê¾¸ ë¯¸
í ģ
Ĳ ëŁ¬
ìħĶ ìĦľ
ëĤ ł
ë¯ ¼
íĥ ľ
ĠêµŃ ë¬¼
Ġì»¤ íĶ¼
ëĤ ľ
íķ Ļ
Ġìĺģ ìĹħ
ë³ ¼
¥ ì£¼
Ġí Ĵ
íķ´ ì£¼
ĠìĻ ¸
ĠĠĠĠ ĠĠĠĠ
ĠëĬĲëĤ Į
Ġì§Ħ íĸī
ëĥ ¥
ł ¤
ëĭĪ ê¹Į
Ŀ ½
ĠìłĢ íĿ¬
Ġëį °
± ì°½
ĲëŁ¬ ëĵľ
ìĤ Ń
í ĳ
Ġìĸĳ ëħĲ
ĠëĶĶ ìłĢíĬ¸
ìĭľ ê³ł
ìł ĳ
ìľ ¡
í ı
Ġë³ ¸
ìŀĪ ëĬĶ
ì »¤
í ģ¼
ëĭ ´
ê±° ë¦¬
´ë³ ´
Ġë² ł
íİ ¸
ë Ī
Ķ Ķ
ìĹĪ ìĬµëĭĪëĭ¤
Ġì ¼
ëĵ ¯
ĠëĪ Ī
ĠìĤ¬ëŀ Į
ê° Ļ
Ġê³ ¨
ìĹ Ķ
Ġë§¤ ìļ´
Ġë° ±
ĠìĪł ì§ĳ
Ġìĺ¬ ëĿ¼
ìĹ Ĩ
ë¦ ´
ĠëĦ ĵ
ëħ ķ
Ġì¹ ´
íĻ ĺ
ë ģ
ĠìĹ° ìĦ¸
ĠëĦ £
Ġê¸ Ģ
Ġíķĺ ëĬĶ
ìĿĮ ë°¥
Ġë§ĽìŀĪ ê²Į
ĠìŃĪ ê¾¸ë¯¸
ê¸° ìĹĲ
Ġê¼ Ń
ĠëĤĺ ìĻĶ
Ī ¬
Ġì¤Ģ ë¹Ħ
ī ¬
Ġí ľ
ĠìĤ¬ ìļ©
íĶ¼ìĬ¤ íħĶ
ì° Į
ëłĪ ìĿ´
£ ¨
Ġë ¡
ì¤ Ģ
ìĭł ë¦¼
ì¦ Ŀ
ĺ ìĿ´
ìĦ ¤
ë³ µ
ëŁ ½
ëĿ¼ ê³ł
Ġê·¸ ëĥ¥
ë³¶ ìĿ´
ëĿ¼ íħĮ
Ġë° ı
Ġíķľ ë²Ī
Ġìļ° ë¦¬
Ġë¹ ł
íķĺ ì§Ģ
ê¸ ī
ëĿ¼íħĮ ìĬ¤
ĠìĹ¬ ëŁ¬
´ë ¥
ĠëĲĺ ìĸ´
ĠìĿ ĺ
Ġíĺ ¼
ì¸ ł
ĠìĿ´ëŁ °
ĠìĹŃ ìĭľ
ĠìĨ į
Ġëĭ ´
ìĺ Ī
ì¶ ľ
· °
Ġëª ©
ĠìķĪ ì£¼
Ġë© Ķ
´ë Ĥ
Ġê·¸ëŀĺ ìĦľ
Ġê°Ģ ê²Į
Ġê³Ħ ëŀĢ
ì į
ì¦ ĺ
Ġê¸ ¸
ĠìĿ´ ëıĻ
ê¸° ê°Ģ
ĢìĿ´ íģ¬
ë° ±
Ġëĭ¤ ëħĢ
Ġë©Ķëī´ íĮĲ
ĠëĤĺ ìĻĢ
ë Ŀ½
íķĺ ìĹ¬
Ġê° ģ
Ġê°Ģ ìŀ¥
ĠìĤ¬ ìŀ¥ëĭĺ
Ġë¨ ¼
Ġê°Ģ ì§Ģ
Ġêµ Ĳ
Ġíĺ¸ ìĦł
ĠíĻ į
Ġë¶Ģ ëĵľ
¨ ìĿ´
ëħķ íķĺìĦ¸ìļĶ
ëĵ ±
Ġê¸ Ī
ì¶ ľêµ¬
ĠìĿ µ
ëħ ģ
Ġë ¿
Ģ ê¹Ģ
¤ ë¸Į
Ġì ħ
Ġíı¬ ìŀ¥
Ġì «
ì´ Ī
Ġìĭłë¦¼ ëıĻ
Ġíķ ©ëĭĪëĭ¤
ë° ķ
Ġì°¾ ìķĦ
ìĬ¤ íĬ¸
ĠìļĶ ì¦ĺ
Ġë¸ Ķë¡ľ
íķ´ ìļĶ
ìĥ Ī
Ġë³ ¼
Ġëĥ ī
ë ĸ¡
Ġë łĪ
ì²ĺ ëŁ¼
Ġë Ĵ
ĠìŀĪìĹĪ ìĸ´ìļĶ
Ġì »
Ġìĭľ ìŀĳ
ëĭĪ ëĭ¹
ë§Į ìĹĲ
ĠìĺģìĹħ ìĭľê°Ħ
ĠìŀĲ ëıĻ
Ġì¢ĭ ìĿĦ
Ġë¨¼ ìłĢ
ëĵ¤ ëıĦ
ê± ¸
ĠìŀĪ ëĬĶëį°
ë³´ ëĭĪ
Ġì² ´
ì¢ ħ
ë¹ Į
ĠëĪ Ħ
íĸĪ ëĭ¤
Ġë¹ µ
Ġì°į ìĸ´
Ġìĭľ ì¼
ĠíĽĦ ê¸°
ì§ Ĳ
.. ..
· ¨
ë ľ
¼ êµŃìĪĺ
íķĺ ë©´ìĦľ
Ġëģ Ŀ
į ëĭĪëĭ¤
Ġëª¨ ìĬµ
Ġìŀ¬ ìĥĿ
ëıĦ ë¡Ŀ
ë¦¬ ìĸ´
íĺ Ģ
Ġê´ ľ
Ġíķ´ ì£¼
Ġë¸ Į
Ġì¢ħ ë¥ĺ
Ġê° Ķ
Ġë¨¹ ê¸°
ë´ ¤
Ġíĳ ¸
ë³ Ģ
Ġìŀ ¡
Ġë§¤ ì½¤
ìĸ ¼
Ġìķ ī
ĠëĨ Ĵ
ìĹĲ ê²Į
Ġë³ Ħ
Ġëª¨ ëĳĲ
Ġê±° ë¦¬
Ġê¹Ģ ì¹ĺ
ĵ °
ê³ ¨
ĠëĬĲëĤ ĮìĿ´
ì ¸µ
Ġë§Ī ëĿ¼
ê¹ ĥ
Ġë§Į ëĵ¤
ĠìĤ´ ì§Ŀ
ìĹĪ ëįĺ
ë Ĳ
Ġì² Ń
ĠìĭĿ ìĤ¬
ĠìĨĮ ê°ľ
Ġê± ´ë¬¼
Ġì² ľ
ê² °
êµ °
Ġë ĳ
Ġì ĻĶ
ìĭł ì´Į
ĠìłĲ ìĭ¬
ĠìĺĪ ìģ
ĠìłĢ ëł
ë¹ µ
ĠíĨ ł
Ġê²½ ìļ°
ë© Ķëī´
ìĿ´ëĿ¼ ê³ł
Ġê ¶
ëł ¸
ë² ł
Ġë²Ī ì¶ľêµ¬
Ġíģ¬ ë¦¼
ë²Ħ ê±°
ì »
íķĺ ëĭ¤
ë¡ľ ê¸¸
ìļĶ ìĿ¼
ìĽ ł
ê²ł ìĬµëĭĪëĭ¤
ĠìłĢ ëħģ
ìĦ± ë¹Ħ
Ġì ¡
Ġëı Ī
Ġêµ¬ ìĽĮ
Ġë³¶ ìĿĮë°¥
ë² ķ
Ġë§Ī ìĿĮ
Ġì°¸ ì¹ĺ
¬ ìĬ¤
ëĬ Ĳ
íķĺ ëĭĪ
Ġìľ ¡
Ġìĺ¤ íĶ¼ìĬ¤íħĶ
Ġì½ Ķ
ê¸° íİ
Ġê· Ģ
íħĮ ë¦¬ìĸ´
Ġìłĳ ê¸°íİ
Ġìłĳê¸°íİ ´ê¸°
Ġë¨¹ ìľ¼ë©´
ë¦ ½
ĠëĤĺ ìĺ¨
ì° ®
Ġëĭ¤ ìĭľ
Ġë ĸ
Ġìĺ¤ ëŀľ
Ġê³ ¼
ĠìķĦ ìĿ´
Ġìĺ¬ ëł¤
Ġìĭłë¦¼ ìłĲ
ĠìĤ¼ ê²¹ìĤ´
ĠìĻĦ ìłĦ
ĠìķĦëĭĪ ëĿ¼
ë ·°
ë¶Ħ ìĿ´
Ġìĺ¤ëĬĺ ìĿĢ
ĠìĿ¸ íħĮë¦¬ìĸ´
ĠëĬĲ ê»
Ġì° ½
ëĶ ©
ìļ ±
¬ ë
Ġìĺ Ĩ
Ġìĸ´ë ĸ
Ġë¨ ¸ë¦¬
Ġê³³ ìĿ´
Ġìĥ ĲëŁ¬ëĵľ
ĠìĿ´ë² Ī
Ġê°Ģ ìĦ±ë¹Ħ
ëħ ¸
ìĦ± ìĿ´
íĸĪ ëĬĶëį°
ĠìķĦ ëĭ
ĠìĿĮ ë£Į
Ġëı ¼
ĠíĻ ĺ
Ġê°ľ ìĿ¸
± ħ
ìĬ ¹
ĠìłĢëł ´
ĠìĿ´ ìłľ
ĠëĬĲê» ´
ìĿ´ ë²Ħ
Ġê² °
íĶ Ī
Ġê·¸ ëł
Ġê´Ģ ë¦¬
ì¡ Į
ëĵ¤ ìĿĦ
Ġì¤ Ħ
Ġë³ µ
Ġì¹ ľ
ëĲĺ ëĬĶ
ĠëĨ Ģ
ĠìķĬ ê³ł
Ġë¡ ľ
ĠìĹĨ ëĬĶ
ìķĺ ìĸ´ìļĶ
ĠíķĦ ìļĶ
ì ĮĪ
ê±° ëĤĺ
£ ¸
ìŀ Ķ
Ġìĸ ¸
Ġê¸° ëĭ¤
Ġì°¸ ê³ł
ĠìŀĪ ìľ¼ëĭĪ
ĠìĤ¬ ìĭ¤
ìĶ ©
´ë¥ ¼
Ġê´ľ ì°®
Ġë§ ¥ì£¼
ĠìŀĪ ìĿĦ
ĠëıĦ ë³´
Ġê³Ħ ìĨį
ĠíĶ¼ ìŀĲ
Ġì¶ ©
Ġìĭ ¬
ĠìĿ´ë ĮĢ
ĠìĿ´ ê³³
ë° °
ĠíķĦ ëĿ¼íħĮìĬ¤
ìļ© ìĭ¤
ëĿ¼ ìĦľ
Ġê°Ģ ëĵĿ
ĠíĹ ¬ìĬ¤
Ġë¨¹ ìľ¼
íĳ ľ
Ġë§¤ ìĿ¼
ìłķ ëıĦ
Ġ íķ´ìĦľ
Ġì¢ĭìķĦ íķĺëĬĶ
Ġìŀħ ëĭĪëĭ¤
íĻ ľ
Ġì§ģ ìłĳ
´ë Ŀ¼
Ġíģ °
Ġê³ ±ì°½
Ġëı Į
ëŁ¬ ìļ´
ìĶ ¨
ì¶ ķ
ìĭ ±
ìĿ´ ê³ł
Ġë ķ
ìĻ ¸
ëı Ī
ĠëĶ° ë¡ľ
ê¼ ¬
ĠëĤĺ ëĬĶ
Ķë ĶĶ
Ġë³´ ëĭĪ
íħ ĮìĿ´
ê°Ģ ëĬĶ
ì ¿
ĠìĦ ±
Ġë¬ ´ë
ìĸ´ ì£¼
ìĬ¤ íģ¬
ĠìĨĲ ëĭĺ
Ġì ·¨
ìŀ İ
ìľ¼ ë©°
ëĵ¤ ìĿĢ
Ġê°Ģ ê¹Į
Ġëĸ¡ ë³¶ìĿ´
íķĺ ìĭľëĬĶ
Ġì¶ ľ
íĺ Ħ
Ġíĸ ¥
ĮĢ êµŃìĪĺ
Ġê³ł ìĨĮ
ĠìĿ¸ ë¶Ħ
Ġíı¬ ìĬ¤
Ķë ²
ì ī¬
´ë °
Ġìľł ëªħ
Ġìħ Ģ
Ġê¶ ģ
ĠëŃ Ĳ
Ġì¢ĭìķĺ ìĸ´ìļĶ
ĠíĬ¹ íŀĪ
Ġê½ ¤
ì¹ ¨
ë¹Ħ ìĬ¤
Ġí Ĥ
ëĪ Ī
ë§ ģ
ĠìĥĪ ìļ°
Ġê°Ģ ìł¸
ë§Ī ëĭ¤
¤ ìĸ´
ì¹ĺ ì¦Ī
ĠëĤ´ ê°Ģ
Ġê ¿
ìĺĢ ìĸ´ìļĶ
ê¸° ëĬĶ
Ġëĵ ¯
ìĦ ¼
Ġìĺ ¨
ë Ĩ
ĠëĤ ľ
ĠìĪĺ ìłľ
Ġê¸° ëĮĢ
Ġìĺ¤ëŀľ ë§ĮìĹĲ
Ġë³´ ê¸°
ë ¨
ê°Ģ ì§Ģ
ī ½
ë° Ģ
Ġìĭľ ìĽĲ
ëĿ¼ ìĿ´
ĠìľĦì¹ĺ íķľ
ĠëĲ ł
íķ ´ë³´
Ġí Ľ
ìĸ µ
Ġíķĺ ì§Ģë§Į
Ġë¹ ¨
ìĺĪ ìļĶ
Ġê ¾¸
Ġê²ĥ ìĿ´
Ġìŀħ êµ¬
íĸĪ ëįĺ
Ġìķ¼ ì±Ħ
Ġì§Ģíķĺ ì²ł
ëĦ Ī
Ġìĸ¼ ë§Ī
ĠëĦ¤ ìĿ´ë²Ħ
ĠìĭĿ ê°Ĳ
ê²Į ìļĶ
ĠëĴ ¤
íĸĪ ìĬµëĭĪëĭ¤
Ġì¹ĺ íĤ¨
ë´ Ĳ
Ġê¼ ¬
ĠìŀĲ ìĦ¸
ë¥´ ê²Į
ìĥ ¤ë¸Į
ĠìłĦ ë¬¸
ĠíĮ Ĳ
ĠìĦ¸ íĬ¸
ë¡ ł
ìĹĲìĦľ ëĬĶ
Ġíķ Ń
Ġìĸĳ ìĿ´
Ġì£¼ ë³Ģ
ĠëĲ ©ëĭĪëĭ¤
Ġë§Ī íı¬
Ġì§Ģ ê¸Ī
Ġìłľ ê³µ
Ġê³ł ë¯¼
Ġëį° ìĿ´íĬ¸
ìĿ¸ëį° ìļĶ
ê° Ķ
ëħ Ħ
ĠíĻĶ ìŀ¥
Ġì¹ľ ìłĪ
Ġí ļ
Ġê³ł ë¥´
ĠìĭĿ ëĭ¹
Ġë ľ
Ġë¸Ķë¡ľ ê·¸
ĠìĹĨ ìĿ´
Ġì ±Ħ
ìĭ ¶
Ķë £¨
ìĹĨ ìĿ´
ëĤĺ ìļĶ
ĠíĴ į
ī ìŀ¥
Ġì§Ģ ëĤĺ
Ġì¸µ ìĹĲ
Ġíħ Į
Ġì ĵ°
ë¬ ´ë
Ġê´ ĳ
ĠìĦľ ë¹ĦìĬ¤
ĠìĿ´ ìĥģ
Ġë§Į ì¡±
ĠíļĮ ìĽĲ
Ġí Ī¬
Ġìĥģ íĥľ
ìĪľ íĻĺ
Ġíŀ ĺ
ĠìĦ ¼
Ġë© ´
ĠìŀĲ ì£¼
Ġì§ģ ìĽĲ
ĠìłĦ ì²´
ĠíĹ Ī
Ġë³ ´ë©´
ì°Į ê°ľ
Ġìĺ¤ íĶĪ
ĠëįĶ ìļ±
Ġí ĭ
ë³´ ê³ł
ê»ĺ ìĦľ
ĠëĤĺìĺ¤ ëĬĶ
ë© Ķ
ìŀĪ ìĸ´ìĦľ
Ġë¨¹ìĸ´ ëıĦ
ê¸° ë¡ľ
ĠëŃ Ķ
ĠìħĢ íĶĦ
Ġë§ µ
ìĪľ ëĮĢ
Ġë ¯
ìķĺ ëĭ¤
ëł ¨
ĠìĪ Ļ
íķ ĳ
Ġë° Ģ
ĠìĬ¤ íĥĢ
ìħ¨ ìĸ´ìļĶ
ë ĳ
Ġê¹ ¨
Ġíĳ¸ ì§Ĳ
ìį ¹
ìĿ µ
ĠìĿ´ë ¯¸
Ġë¿ Į
Ġíı¬ìĬ¤ íĮħ
ĠìĪľ ëĮĢ
ì§Ģ ë§ī
ë¦¬ ê°Ģ
ëįĶ ëĭĪ
ĠëĤ¨ ë¶Ģ
ĠíĮĮ ìĬ¤íĥĢ
Ġê·¸ëŀĺ ëıĦ
Ġë²ł ìĿ´
Ġìŀ Ħ
ë¡ ±
ĠìĨĮ ì£¼
ìĨĮ ìĬ¤
ĠíĻķ ìĿ¸
ëľ »
ĠëĬĲ ëģ¼
ìĿ¸ ì§Ģ
Ġêµ īìŀ¥
ìĭĿ ëĭ¹
íĻĶ ìłĲ
Ġìłģ ëĭ¹
Ġì« Ħ
Ġë £¸
ì° ¸
ê±° ëĵł
ì ³
Ġì Ķ
Ġì§ ľ
ë ĸ
ë¦ ĩ
Ġìµľ ê³ł
ìĭłë¦¼ ìĹŃ
ĠìķĦëĭ Į
ìĹĲìĦľ ëıĦ
Ġíİ ĺìĿ´
Ġì¢ Į
Ġëª ¸
Ġë³´ ê³ł
ĠìľĦ ìĹĲ
» ìŀİ
ì¼ Ģ
ëŀ Ĳ
ìĽĮ ìĦľ
ĠíĻĶìŀ¥ ìĭ¤
ì§ ¸
Ġë³ Ģ
ëŁ ī
Ġìļ´ ìĺģ
Ġê·¸ëŁ° ì§Ģ
Ġëĭ¤ëħĢ ìĻĶ
Ġêµīìŀ¥ íŀĪ
Ġìĭ ¸
Ġì£¼ ìĨĮ
Ġì´ Ŀ
ĠìłĢíĿ¬ ëĬĶ
ì¹ ´ë
Ġë§İ ìķĦìĦľ
ĠëĶ° ëĿ¼
Ġê¶ģ ê¸Ī
Ġì¢ĭ ê³ł
Ġê·¼ ëį°
Ġê²½ ìĿĺ
ì° ©
Ġë°ĺ ì°¬
ìĦ ¯
į ¼
Ġì£¼ë¬¸ íķľ
ëĪĪ ìį¹
Į ĵ
ĠìĿ¼ ëĭ¨
ê¸° ë¥¼
Ġë° ķ
ë² ½
ĠëĤ¨ë¶Ģ ìĪľíĻĺ
Ġëª¨ ëĵł
ëĭ µ
Ġê¹ »ìŀİ
ì»¤ íĶ¼
ìĺ ¬
Ġìŀ¬ ë£Į
Ġìķ ł
ĠìľĦì¹ĺ íķ´
ì¢ ĭ
Ġì¼ ĢìĿ´íģ¬
Ġë§ĪëĿ¼ íĥķ
ê±°ëĵł ìļĶ
Ġëı¼ ì§Ģ
Ħ Ī
íħĮìĿ´ íģ¬
ìŀ¥ ìĿ´
Ġêµ¬ ìĦ±
Ġì ª½
ĠíĶ Į
ĠëĨ ĵ
¤ íĬ¸
ë§Ľ ìĿ´
ĠìķĮ ëł¤
Ġê±´ ê°ķ
ĠìĹ°ìĦ¸ ë¡ľ
ê ´
ĠìķĪ ëħķíķĺìĦ¸ìļĶ
Ġíĸ ī
Ġíķ´ ìļĶ
Ġì´Ī ë°¥
ĠëŃĶ ê°Ģ
ĠëĲĺ ëĬĶ
Ġì¦ Ŀ
ë° Ľ
ĠìĻ ľ
Ġì ĮĪ
Ġëª ĩ
Ġìłľ ëĮĢë¡ľ
Ġì¢ĭìķĦ ìļĶ
Ġëĳ ĺ
Ġíķ Ļ
ê¹Į ìļĶ
Ġì¶ľêµ¬ ìĹĲìĦľ
ìĪł ì§ĳ
Ġë¨¹ ìĹĪ
íĥ ģ
íķ ´ë
ĠìľĦ íķ´
Ġì¡° íķ©
ĠëĺĲ íķľ
ì§Ģ ë¡ľ
ìĿ´ëĿ¼ ëĬĶ
ìĬ¤ íĦ°
ëŀ įëĭĪëĭ¤
ĠìĤ °
ìłĦ ìĹĲ
Ġìĸ´ ìļ¸
Ġìļ´ëıĻ ìĿĦ
Ġê°Ī ë¹Ħ
Ġìĺ¤ ëŀĺ
Ġìłľ ìĿ¼
ĠëĶ° ëľ»
Ġë§Ī ì§Ģë§ī
Ġë° ĳ
íĬ Ģê¹Ģ
íĹ ĺ
ëį ķ
ë¦¬ ë¥¼
ì¶Ķ ì²ľ
ķ ìĸ´
ìĦ¸ ê¶Į
ë°± íĻĶìłĲ
ĠìķĬ ìĿĢ
ìª½ ìĹĲ
Ġìĥ ī
´ë¬ ´
Ġìĭľì¼ ľ
Ġë° ĸ
ì¹ ¼êµŃìĪĺ
ëĵ¤ ê³¼
ë§Į íģ¼
ëĤĺ ëĬĶ
ìĽ Ķ
ĠìĨĮ ê³łê¸°
Ġë°Ķ ìĤŃ
Ġê±° ìĿĺ
Ġìŀ Ķ
ìĽ Ģ
Ġê² ¨
ìŀĲ ë§Ī
Ġê³łê¸° ì§ĳ
ì¡ ´
Ġê°Ļ ëĭ¤
ĠìłĦ ìĹĲ
íĻ ©
ìł¸ ìĦľ
¿ į
ê¹ ¨
íĥ Ħ
Ġë³´ ìĹ¬
ĠìĽĲ ëŀĺ
Ġë´ Ĳ
ĠíĤ ¤
Ġíķĺ ë©´
ĠíĸĪ ëĬĶëį°
Ġìķ½ ê°Ħ
ë³ ĳ
Ġë¶Ħ ìĸĳ
ĠìĿ¼ ë°ĺ
ê´ ĳ
ìŀĲë§Ī ìŀĲ
ĠĠĠĠ ĠĠ
ì¤ Ħ
Ġìŀ ł
ëł¤ ê³ł
Ġê² Ģ
ĩ ¼
Ġìĭ¶ ìĿĢ
ĠìĤ¬ìĿ´ ëĵľ
ëĵ¤ ìĿĺ
Ġìļ ©
ĠìĽ ¨ìĿ´
Ġë¶Ħ ëĵ¤ìĿ´
Ġì½ ©
ì§Ģ ëıĦ
Ġë³´ìĿ´ ëĬĶ
ĠìĺĪìģ ĺ
ë¦½ ëĭĪëĭ¤
Ġë¶Ģ ë¶Ħ
Ġë°° ëĭ¬
ì§Ģ ê³ł
ĠíĻį ëĮĢ
Ġì į
ĠìĿ´ ìľł
íı¬ ì°¨
ª ¨
ë İ
ĠìĿ Ģ
Ġë§¤ ìļ°
ĠëĮĢ íķĻ
ĠìŀĪìĹĪ ëĭ¤
ĠìĿ´ë² ¤íĬ¸
ìłĲ ìĿ´
Ġë¨ ¸
ìķĦ ì£¼
Ġì£¼ ë§Ĳ
ëĥ Ĳ
Ġì¶Ķì²ľ ëĵľ
ëı ħ
ĠìĥĪ ë¡ľ
ëĸ ¼
í Ī¬
ìĿ´ ê°Ģ
ĠìŀĪ ëĬĶëį°ìļĶ
ìĤ¼ ê²¹ìĤ´
ĠìĥĿê°ģ ë³´ëĭ¤
Ġìĺ¬ëĿ¼ ê°Ģ
Ġë§Īíı¬ êµ¬
Ġê° ĸ
íķ´ ëĵľ
Ġë§Ľ ìĿĦ
ĠìĿ´ë Ĥ
¼ Ī
ŀ ĺ
ìĿ´ ìĸ´
ĠìķĦ ëŀĺ
Ġì¦Ĳ ê¸¸
ĠíĺĦ ëĮĢ
Ġë¶Ħëĵ¤ ìĿĢ
ë¹Į ëĶ©
ìĿ´ ëĬĶ
ëĲĺ ê³ł
íģ °
ĩ ´
íķ´ ìķ¼
íĬ ¼
ĠìķĪ ìĹĲ
ì¼ ĢìĿ´íģ¬
ĠíĹ ¤
ìķĺ ëĬĶëį°
ê³µ ê°Ħ
Ġëĭ¬ ëĭ¬
ê¹Ģ ì¹ĺ
ì° į
Ġëª¨ ìŀĦ
ĠíĻ ľ
ĠíĬ Ģê¹Ģ
Ġíģ ´
ê¼¬ ì¹ĺ
Ġì§ Ī
Ġë³ ĳ
Ġì¡ ´
ĠíĮĲ ë§¤
£ Į
Ķë£¨ ìĬ¤
Ġì ¿
íķĺ ìĭľ
Ġë¶ Ļ
ëł Į
Ġê¸° ë¦Ħ
ë³¸ ìłĲ
ìĺĢ ìĬµëĭĪëĭ¤
Ġê³¨ ëª©
Ġê³łë¥´ ëĵľ
ëı Į
ëĭĪ ìĬ¤
ĠíĸĪ ìĸ´ìļĶ
ĠëĤĺìĻĢ ìĦľ
ĠëĤ¨ë¶ĢìĪľíĻĺ ë¡ľ
ĠëĬ ĺ
Ġë§Į ìĽĲ
ĠíĬ ¸
ĠìĽ¨ìĿ´ íĮħ
Ġì ĮĢêµŃìĪĺ
ì§Ģ ìļĶ
Ġê°Ģ ëĬĶ
ìķĪ ëħķíķĺìĦ¸ìļĶ
Ġìĭľê°Ħ ìĿ´
Ġê·¼ì²ĺ ìĹĲ
Ġë§Įëĵ¤ ìĸ´
ĠìĹ ħ
ĠìĬ¤ íħĮìĿ´íģ¬
Ġë¯¸ ìļ©ìĭ¤
Ġìľłëªħ íķľ
íĥ Ī
Ġë¬´ë £Į
íķ ı
Ġíķ ©
Ġíķ «
Ġëª¨ ë¥´
Ġíİ¸ íķĺê²Į
Ġë ļ
ê³ ±ì°½
Ġë§Ľ ëıĦ
ë¬´ ë¦¬
ĠëĤ´ë ł¤
ì ¥
íķĺ ëĬĶëį°
Ġë©Ķëī´ ê°Ģ
ģ ìĭ±
Ġì¤Ģë¹Ħ ëĲĺìĸ´
ħ ¸
ê· ¹
íģ¬ ë¦¼
Ġìķŀ ìĹĲ
ëİ ħ
¯ ¤
ë ĺ
íķĺ ìĭł
Ġì² «
ê²ł ëĭ¤
íĹ ¤ìĸ´
Ġë³ ´ëĤ
Ġê²ĥ ëıĦ
Ġë©Ķëī´ ëĬĶ
ĠìĹŃìĤ¼ ëıĻ
Ġíķł ìĿ¸
Ġíıī ìĿ¼
Ġíľ ĺ
ëĤĺ ë¬¼
íĬ¸ ëłĪ
Ġì º
Ġë© Ķëī
ìĭ¬ íŀĪ
ëĶĶ ìĺ¤
ĠìĤ¬ëŀ ĮìĿ´
Ġê½ ĥ
Ġì ī½
Ġë¨¹ ìĿĢ
Ġë¯¸ ë¦¬
ë³¶ ìĿĮ
Ġê°Ħ ëĭ¨
ë§ ¨
Ġëĸ ł
ê ½
ìĭ ¸
ê² ¬
ìĬ¤ ëŁ½
Ġë§ĽìŀĪ ìĸ´ìĦľ
ì¤ĳ ìĹĲ
ëĭ Ŀ
ë§ ¥ì£¼
ĠìĿ´ ë¦Ħ
íı ī
Ġë¶Ģëĵľ ëŁ½
ë¬´ ì§Ģ
ë§ Ŀ
ìľ¼ ìĭł
ì£¼ ìĸ¼
Ġíĺ ķ
Ġìĸ´ ëĬĲ
Ġê·¸ ëŁ¬
ĠíĮ Ķ
Ġíİ¸ ë¦¬
Ġëģ ĵ
Ġìĭľì¼ °
í ľ
íķĺ ë©°
ëª °
Ġê·¸ ëŁ¼
Ġì¹ ¼êµŃìĪĺ
íİ Į
ĠëĮĢ íķľ
Ġíĥ Ħ
Ġëħ ¹
Ġì¤ĳ ê°Ħ
Ġëľ ¨
ı ĺ
ìķ Į
ĠìĪĺ ìĹħ
® ë°¥
ëĿ¼ ëĬĶ
Ġì¤ĳ ìļĶ
ê²ĥ ëıĦ
Ġê°Ĳ ìŀĲ
ĠìĿ´ ê±°
ì¤ ĺ
Ġë¬¼ ë¡ł
Ġíĺ¼ ë°¥
Ġìĭł ìĦł
ìĭľ ìĦ¤
ë° ĶëĶĶ
Ġì£¼ ë°©
Ġëª °
ê¹Į ìĬ¤
ĠíĴ Ģ
¬ë ¿į
ĠìķĦ ì§ģ
Ġìŀ¥ ìĨĮ
Ġë¦¬ ë·°
ìķ ł
ìĬ ¬
ë¨ ¸
ì³ Ĳ
ëĭ ¥
ëį° ìļĶ
Ġë´ ī
ê°Ļ ìĿĢ
Ġë² ½
Ġë§Į ëĤĺ
Ġíĥ ľ
ĠìĥĿê°ģ ìĿ´
ê³Ħ íĥķ
Ġë§ŀ ì¶
ĠìĹ´ ìĭ¬íŀĪ
íķ¨ ìĿ´
¾ Į
ĠìĿ¸ ê·¼
êµ° ìļĶ
ë³ ´ë©´
ìĶ Ģ
Ġì£¼ì°¨ ìŀ¥
ĠìĦ¤ ì¹ĺ
ĠêµĲ íĨµ
ì¥ ¬
ìĿ´ ìĹĪìĸ´ìļĶ
Ġíķľ ëĭ¤
ĠìķĪ ê²½
Ġëı ħ
Ġë¶Ģ ëĭ´
Ġë¹Ħ ì£¼ìĸ¼
Ġë´ ¤
ĠìĨį ëĪĪìį¹
í ļ
ê³ ¡
ê° Ŀ
íķĺ ìĭ¤
íĬ¸ ëĭĪìĬ¤
ìĤ¬ ë¦¬
ë¸ Ķë£¨ìĬ¤
ì¹´ ì¸ł
ĠìłķëıĦ ë¡ľ
Ġìŀĳ ìĿĢ
ëģ Ĺ
ĠíļĮìĽĲ ëĭĺ
Ġí Ħ
ìĥ µ
Ġìĭłë¦¼ìĹŃ ë§Ľì§ĳ
ĠíĥĢ ìŀĦ
íı °
Ġì¼ Ģ
ì£¼ ì°¨
Ġë§Ī ëĬĺ
Ġê¸° ë¶Ħ
Ġë¶Ģ ìľĦ
ĠìĥĿ íĻľ
ìĿ´ëĿ¼ ìĦľ
Ġíķľ ìŀĶ
ĠíķŃ ìĥģ
ìķ ¤
ê°Ģ ë£¨
ĠìķĦ ìī¬
Ġíĺ¼ ìŀĲ
Ġì¶© ë¶Ħ
ë¡ľ ëıĦ
ìĿĦ ëķĮ
ìŀĪ ê³ł
ĠìĨ Ķ
ĠëĦ¤ ìĿ¼
Ġë§¤ì½¤ íķľ
Ġì° ©
ìŀħ êµ¬
Ġê¹ Į
ĠìŃĪê¾¸ë¯¸ ë¸Ķë£¨ìĬ¤
Ġê·¸ëł ĩ
Ġê·¸ëł ĩê²Į
Ġê¹¨ ëģĹ
Ġì«Ħ ê¹ĥ
ë¦ Ń
ìľ¼ë¡ľ ëıĦ
ìĿ´ ìĹĪ
íķĺ ìĭľë©´
ìĺĢ ëĭ¤
ìģ ĺ
ë©Ķ ë¦¬
ìĪĺ ê°Ģ
ĠëĲľ ëĭ¤
Ġìĺ¤ íĽĦ
ĠìĦľ ê°ķ
ĠëĶ ¸
ìķĺ ìĬµëĭĪëĭ¤
Ġìĥģ ëĭ´
Ġíĥ Ī
Ġê°ĢëĬ¥ íķľ
Ġë§Ĳ ìĶĢ
Ġíĭ °
Ġê²½ìĿĺ ìĦł
Ġê²¨ ìļ¸
Ġë§Į íģ¼
Ġë°© ë²ķ
ĠëıĦ ì°©
Ġìĸ¸ ìłľ
Ġìĭłë¦¼ ë¡ľ
Ġë¨¹ ìľ¼ëĭĪ
ĠìĪĺ ëıĦ
ĠëĮĢ íĳľ
ê°Ģ ëĬ¥
ĠìĹ ¼
Ġì² ł
Ġì ī¬
ìª½ ìľ¼ë¡ľ
Ġë©Ķ ìĿ¸
Ġì·¨ íĸ¥
Ġíļ ¨
Ġì½© ëĤĺë¬¼
ìķ Ĭ
Ġê°Ļ ìĬµëĭĪëĭ¤
Ġê¹ĶëģĶ íķľ
ĠìĬ¤íĥĢ ìĿ¼
Ġë Įĵ
Ġëĵ ¬ë¿į
Ġì¹ĺ ë£Į
ì¡± ë°ľ
Ġì¢Į ìĦĿ
ĠíĺĦëĮĢ ë°±íĻĶìłĲ
ëį° ìĿ´íĬ¸
ë¨¹ ëĬĶ
Ġë§ĪìĿĮ ìĹĲ
Ġë ¥
Ġë§ĽìŀĪ ìĹĪìĸ´ìļĶ
Ġê³łê¸° ë¥¼
ê·¸ ëĭĪ
Ġìł Ī
Ġê± ±
ê´Ģ ë¦¬
ì§Ģ ë¥¼
ĠíĶ¼ ë¶Ģ
Ġë¨¹ìľ¼ ëŁ¬
ĠìŀĪ ëĭ¤ê³ł
ĠëĭŃ ê°Īë¹Ħ
ì ©
ĠíĮ ¨
ìĹ¬ ìĦľ
Ġìŀ¬ ë¯¸
ëģ Ī
ĠìĺĪìģ ľ
ë¡ Ń
ĠìŀĪ ëĭ¤ëĬĶ
ìŀĪ ìĸ´ìļĶ
íĨ ¡
íķĻ êµĲ
ìĸ´ ê°Ģ
ìĽ ĥ
Ġëį ľ
ë¨¹ ê³ł
ëĭŃ ë°ľ
Ġìĸ´ëĸ ¤
Ġì¿ ł
ì ¯¤
Ġë³´ íĨµ
Ġìŀ¥ ë¯¸
ë°ĺ ì°¬
ìĬ¤ ëŁ¬ìļ´
Ġê°Ģ ìĦľ
Ġëĵ¤ìĸ´ ê°Ħ
ĠìŀĪìĹĪ ìĬµëĭĪëĭ¤
ĠëĶĶ ìŀĲ
ĠíĹ¬ìĬ¤ ìŀ¥
ë ¿
Ġì ±ħ
Ġì ĩ¼
ìŀ ĸ
ê² ¼
ĠìŀĪ ìľ¼ë©°
ì¹ ľ
ì¹ ł
Ġëĵ¤ìĸ´ ìĺ¤
Ġíķ´ ìķ¼
ĠíĺĦ ìŀ¬
Ġê°ķëĤ¨ ìĹŃ
Ġëķ ¡
Ķë² Ī
ĠìĦ¤ ëªħ
ĩ´ ê·¼
½ ķ
ê° ĳ
ë¦ ¿
ĠìľĦì¹ĺ íķĺê³ł
Ġê±± ìłķ
ìĬ¤ ëŁ¬
íĥĢ ìļ´
Ġê³ĦëŀĢ ì°ľ
Ġê°ľìĿ¸ ìłģìľ¼ë¡ľ
ìĸ ¸
Ġëĭ «
íĬ¸ ë¥¼
ìĤ¬ ì§Ħ
ĠëĭŃ ë°ľ
ì´Ī ë°¥
ì¹´ë ħ¸
Ġì½ ĺ
Ġë¬¸ ìłľ
ĠìłĢëł´ íķľ
ĠëĮĵ ê¸Ģ
ìĸ´ ëıĦ
ĠìŀĪ ëĭµëĭĪëĭ¤
Ġìĭłì´Į ë¡ľ
Ġìľ ¼
ĠìĨĮ ê¸Ī
Ġì¹ĺ ìķĦ
Ġëĭ¨ ê³Ħ
ëĲ ©ëĭĪëĭ¤
Ġë§ĽìŀĪ ìĸ´ìļĶ
ĠìŀĲ ì²´
ĠìŀĪìĹĪ ëĬĶëį°
ìľĦ ì¹ĺ
ì Ń
ë© ĺ
êµ¬ ëĤĺ
ĠìĿ´ ê²Į
ĠìĿ´ ê±´
Ġìĭľ íĤ¤
Ġëĭ¨ ì²´
Ġê·Ģ ìĹ¬
Ġìĺ Ľ
êµ¬ ìĿ´
ìŀ¥ ìĿ¸
ìŀ¥ ìĨĮ
íĻ Ķë²Ī
ĠíĬ Ģ
Ġë¬´ íķľ
ìĨ ¡
Ġëĭ¤ìĸĳ íķĺê²Į
ë©Ķë¦¬ ì¹´ëħ¸
íĻĶë²Ī íĺ¸
ìķ Ļ
ìĥ ĲëŁ¬ëĵľ
Ġìĥģ ìĬ¹
Ġì°¾ ëĬĶ
ĠíĨµ íķ´
ê½ ĥ
Ġì ¾Į
ìŀ ¡
ìĭ Ń
Ġê³³ ìĿĢ
ê²ł ìĸ´ìļĶ
ħ ëĭĪëĭ¤
ìĹ ĩ
ë¦¬ ìĬ¤
ĠìłĦ íĻĶë²Īíĺ¸
ì¹´ ë¡±
Ġì²ľ ìĽĲ
Ġê¿ Ģ
ĠìĿ´ëĤ ł
Ġì£¼ ê±°
Ġê³ł ê¸ī
Ġì§Ģ ìĹŃ
ìĿ´ ì§Ģ
ë§Į íķľ
Ġì¹ ¼
ëıĻ ìķĪ
Ġìĭľ ê·¸ëĭĪ
Ġë§Ī ëł¨
Ġíĳ ľ
ìĭłì´Į ìĹŃ
ĠìĶ ¹
Ġê· ľ
Ġìĥģ ëĭ¹
Ġë²Ħ ê±°
ëıĦ ë¡ľ
ìĬ Ī
íķ´ ëıĦ
Ġíķĺ ë£¨
ĠëĤł ìĶ¨
ĠëıĮ ìķĦ
Ġìŀ¥ë¯¸ ë§¨
Ł ¬
ì§Ģ ê°Ģ
Ġê¸° ìĸµ
ĠìľĦ íķľ
ë¹ Ľ
ìĶ ¬
Ġê°Ĳ ìĤ¬
Ġë²Īì¶ľêµ¬ ìĹĲìĦľ
ĠìŀĪ ëıĦë¡Ŀ
Ġë§Ī ë¬´ë¦¬
ë¶Ģ ë¶Ħ
Ġê³łê¸° ê°Ģ
ë¨¹ ë°¥
Ħ ë¦¬
Ġê³ł ì¶Ķ
Ġíĺ ¹
ĠìķĬ ëĬĶ
ìį ¨
º ¼
ëĭ ī
Ġìĭ ±
íĬ ľ
Ġë²Ħ ìĦ¯
ëı ¼
ì´ ī
Ġíķĺ ê¸°
Ġíķľ ìŀħ
ê· ľ
Ġíı¬ ì°¨
Ġëĭ¤ìĿĮ ìĹĲ
ĠìĻ¸ ê´Ģ
ëĨ ĵ
íķĺ ì§Ģë§Į
ë¦¬ íķĦ
Ġì¦Ĳ ê¸°
ĠëĪĪ ìĹĲ
Ġë¸Ķë¡ľ ê±°
Ġì¾Į ìłģ
ëŀ Į
ĠìĿ´ ìķ¼
ìĿ¸ ê°Ģ
ĠìķĬ ìķĺ
ĠìķĮ ìķĦ
Ġê°Ģê²© ìĿ´
íĳ ¸
¨ ìĸ´
ëĭ¤ ë³´ëĭĪ
íķľ ëĭ¤
Ġëĵ ł
Ġìĭľ ìĪł
ëª ¬
ëł¤ ìĦľ
Ġìĺģ ìĥģ
Ġìŀĳ ìĦ±
ĠìĹ´ ê³ł
Į ëĵľ
ìĬ ¨
ìĻ ķ
íĻ į
´ëĤ ĺ
ëĵ ¬
ìĪ Ļ
ëĸ¡ ë³¶ìĿ´
ìĹĪ ê³ł
Ġëĭ¤ ëĵ¤
Ġê² ī
Ġì¡° ìļ©
ĠìĺĨ ìĹĲ
ìĿ´ ì£ł
Ġê° ĳ
Ġíķĺ ìĿ´
ìĤ¬ ë¹Ħ
Ġê³µ ê°Ĳ
Ġë©Ķëī ´ë¥¼
Ġë§ĽìŀĪ ìĸ´
Ġì¡° ëªħ
ë§ ¥
ìĭľ ìĹĲ
Ġê°Ģ ë©´
ì£¼ ëĬĶ
Ġìĭłë¦¼ ë¡ľê¸¸
Ġìĥ ¤ë¸Į
Ġë§ĽìŀĪ ê³ł
ì¼ ľ
ì¹ ¼
ëıĻ ìĤ°
ë³´ ëĬĶ
Ġìĭłë¦¼ìĹŃ ìłĲ
Ġë² Į
Ġë§¤ ë¬¼
ìĪ Ģ
ëĤ´ ìĤ°
Ġëĥ Ħ
Ġë§Ľ ìĿĢ
Ġëĭ¤ ìĿ´ìĸ´
Ġê³µê°Ħ ìĿ´
Ġê¸Ī ë°©
ë¦¬ ì§Ģ
ëĤ ¬
ìĬ¤ íħ
ĠìŀĲ ìĹ°
ëł¤ ìļĶ
ê²ł ì§Ģë§Į
ìħĶ ìķ¼
ĠìĹ¬ ìĦ±
Ġì§ģìĽĲ ë¶Ħ
ì²ľ ëıĻ
Ġì£¼ë¬¸ íĸĪìĸ´ìļĶ
Ġë¬´ ìĹĩ
Ġê°Ħ ìŀ¥
ìĺģ ìĥģ
ĠíļĮ ìĭĿ
Ġë°Ľ ìķĦ
ì°¸ ì¹ĺ
Ġíĸī ë³µ
¯ ë¶Ī
Ġê³ ģ
ë¶ ģ
Ġì° °
ĠíĻ Ģ
ĠìĿ¼ ìļĶìĿ¼
Ġíģ¬ ê²Į
Ġìłĳ ê·¼
¬ë ½ķ
ĠìķĬ ìķĦìĦľ
Ġë¬¸ ìĿĺ
Ġë¦¬ íķĦ
ëĲ ł
Ġì¢ĭ ëĭ¤
ëĦ Ľ
ĠëĤ¨ ìŀĲ
Ġìĸ´ë ł¤
ĠëĦĵ ìĿĢ
Ġì» ¬
ë²ł ìĿ´
ĠìŀĪ ê²Į
ê²ł ì£ł
ĠíİĺìĿ´ ì§Ģë¡ľ
ĠìłĢ ëıĦ
ìĭł ìĿ´
íĶĦ ëĿ¼
Ġë°° ê°Ģ
Ġíľ ´ë¬´
Ġëª© ë¡Ŀ
Ġê°Ģê¹Į ìļ´
Ġìĭľê·¸ëĭĪ ì²ĺ
Ġí Ģ
Ġê³ ±
ì£¼ ìĦ¸ìļĶ
ìŀĲ ë¦¬
ĠëįĶ ë°ĶëĶĶ
ĠìĹ¬ê¸° ìĦľ
Ġìķŀ ìľ¼ë¡ľ
ĠìĤ¬ëŀĮ ëĵ¤ìĿ´
Ġë¯ ¼
ë ģĶ
Ħ ¤
ëĿ¼ ë©´
ĠìķĪ ëĤ´
ĠíĻķ ìĭ¤
ì» ¨
ĠìŀĪ ì§Ģë§Į
ìĻĢ ìĦľ
Ġìĭłì´ĮìĹŃ ë§Ľì§ĳ
Ġë¹ ¼
Ġë¨¹ìĸ´ ìķ¼
ìħ¨ ëĭ¤
ĠìĹ¬ê¸° ëĬĶ
ì¡° ê±´
ĠìŃ ī
ìķ ¡
ĠìĪĺ ìļĶ
Ġì° Ĳ
ĠìķĦ íĮĮ
ĠìŀĲ ê·¹
ĠìĻ ķ
ĠìķĬ ìķĦ
ĠìĹĨ ìĸ´ìĦľ
Ġê±°ë¦¬ ìĹĲ
ë§Į ëĳĲ
ëĵľ ë¦¬
Ġìĭľ ìĦ¤
ìĭĿ ìľ¼ë¡ľ
Ġêµ¬ ê²½
Ġì¢ĭìķĺ ëĭ¤
Ġê¹ĶëģĶ íķĺê³ł
ê¹ĥ ì§ĳ
» ê²Į
ìĿ´ ì§Ģë§Į
ĠìĤ´ íİ
ĠëĲľ ìŀ¥
ĠíĦ °
Ġìŀ¥ë¯¸ë§¨ ìĪĢ
ĠëįĶë°ĶëĶĶ íķı
ì «
ëıĦ ê°Ģ
ĠëĮĢ ê¸°
Ġìĸ´ë ĶĶ
ëĶĶ ìĸ´
Ġë¶Ģëĵľ ëŁ¬ìļ´
Ġë°ĳ ë°ĺì°¬
ëĬĶ ì§Ģ
ĠëĤ ®
ĠëĦ ī
ĠìĽ Į
ìĺ¤ ìĬ¤íģ¬
Ġê²ĥ ìĿĦ
Ġë¶Ģ ì¡±
ĠìĬ¤ íĦ°
ì½ ĺ
ê¼ ¼
¬ ìĺģ
ë¡ľ ëĬĶ
Ġì£¼ ë¨¹ë°¥
ìŀĲ ê¸°
Ġë© Ģ
Ġì¢ĭìķĦ ìĦľ
ĠëıĻ ìĺģìĥģ
ĠêµŃë¬¼ ìĿ´
ĠíĤ¤ ìĺ¤ìĬ¤íģ¬
ì ıĺ
ê¹ Ŀ
ëĦ ī
ìĽĲ ë£¸
ĠëĦī ëĦī
ë³ ´ë
Ġê²ĥ ìľ¼ë¡ľ
Ġë¶Ģ ì¶Ķ
ĠëıĻ ìķĪ
Ġê°Ħ íĮĲ
ìħĶ ëıĦ
ëłĪìĿ´ íģ¬
ìŀĸ ìķĦìļĶ
ì£¼ ìĭľ
ĠìķĦ ë©Ķë¦¬ì¹´ëħ¸
ìĨ Ĳ
Ġì§ģ ìŀ¥ìĿ¸
ĠëĨĴ ìĿĢ
ì ±ħ
Ĭ ìĿĢ
Ġë§ ĺ
Ġìĭł ê¸°
Ġì£¼ ìĭľ
ĠìĿ¼ ë³¸
ĠíħĮìĿ´ë¸Ķ ìĿ´
Ġìĭł ì¶ķ
Ġê°ľ íĨµ
Ġíģ¬ ë¡ľ
íķĦ ëĿ¼íħĮìĬ¤
Ġê°Ģì§Ģ ê³ł
ëĺ Ĳ
Ġìķ ħ
Ġìĺ ¥
Ġìĭłì´Į ë§Ľì§ĳ
Ġë¨¹ ìĹĪìĸ´ìļĶ
íĥ ±
Ġíķĺ ëĭĪ
Ġë§İ ìķĦ
Ġë§Į ëĳĲ
ĠìĤ¬ìĿ´ ì¦Ī
Ġë°ľ ê²¬
Ġì» ¨
Ġìĥ¤ë¸Į ìĥ¤ë¸Į
í Ģ
ë¯¸ ìļ©ìĭ¤
ĠëķĮ ëĬĶ
Ġê¼ ¼
ĠíĶĦ ë¡ľ
Ġë°± ìĪľëĮĢ
ĠìĹ°ìĦ¸ ëĮĢ
ĠëĴ ·
Ħë¦¬ íĭ°
ì ĵ°
íķ Ń
íķĺ ëĭ¤ê³ł
ëŀ Ħ
ĠëĤĺ ëĪ
Ġë§Ī ìĭľ
Ġë§ĽìŀĪ ëĭ¤
Ġìľł ì§Ģ
Ġê°Ĳ ìĦ±
ĠëĤ´ë¶Ģ ëĬĶ
Ġìĸ´ëĸ »ê²Į
Ġì ı
ìĿ´ ë©´
ĠìĦ ŀ
Ġìĥ ¤
ì¹ĺ íĤ¨
Ġìĺ¤ ë¥¸
Ġìĺ¤ ëİħ
Ġë¶Ī íİ¸
Ġìµľ ê·¼
Ġê°ģ ì¢ħ
ìĸ´ ëĤĺ
Ġê·¸ ëĮĢë¡ľ
Ķë ¸
ĠìĺĪ ìłķ
ëĶ °
Ġìļ° ë¦¬ëĬĶ
Ġë¬´ ì¡°ê±´
ĠìĿĺ ìŀĲ
Įëĵľ ìľĦì¹ĺ
Ġì ±
Ġëĭ ´ë°
Ġëį ķ
Ġë§ĽìŀĪ ìĹĪëĭ¤
Ġêµ¬ ë§¤
ĠìľĦì¹ĺ ëĬĶ
ì¤ įëĭĪëĭ¤
ĠíķĦ ìĪĺ
ĠìĻĢ ìĦľ
Ġë§¤ìļ´ ë§Ľ
ĠëĤĺìĻĶ ìĸ´ìļĶ
ìĹ ¼
ĠìĤ¬ ëŀĳ
ìłĲ ìĿĢ
Ġë§İ ê³ł
Ġì¡ ±
Ġë¬´íķľ ë¦¬íķĦ
Ġë³´ ìĮĪ
ìļ´ ëį°
Ġë¹Ħ ë¹
ê ¿
íķĺ ëĤĺ
íĶ¼ íĶĮ
Ġê³µ ê¸ī
ë¯ Ģ
Ġë§ī êµŃìĪĺ
ìĥĪ ìļ°
ì¿ ł
ĠìĦľê°ķ ëĮĢ
í į¼
Ġìĭłì´Į ë³¸ìłĲ
Ġíķ ´ë
íħ Ĳ
ĠìłĦ ìļ©
Ġëĵ¤ ìĸ´ìĦľ
Ġíİ¸ ìķĪ
íĴ į
Ġìĭ¤ ëĤ´
Ġë°¥ ì§ĳ
ì¸ ¡
Ł ģ
ëĵľ ëĬĶ
ë² ¼
ëĥ ī
ìĬµ ëĭĪëĭ¹
Ġë¸Į ëłĪìĿ´íģ¬
Ġê°Ģìł¸ ëĭ¤
Ĳ ë§Į
Ġì £
Ġë Ŀ
ëĿ¼ ìĬ¤
Ġì§Ģ ëĤľ
Ġìĸĳ íĮĮ
Ġì´ ī
ĠíĸĪ ëĭ¤
Ġê¸Ģ ìĹĲ
Ġë©Ķ ë°Ģ
ëĤĺ ê²Į
Ġë§¤ ëł¥
Ġë§Ľì§ĳ ìĿ´
ê¸¸ ëŀĺ
Ġíķ´ ëıĦ
ìķĪ ì£¼
Ġë¶Ī íĮĲ
ĠëıĪ ê¹ĮìĬ¤
Ġíľĺ íĬ¸ëĭĪìĬ¤
ĠìĤ¬ ìĹħ
ĠìķĬ ìĿĦ
ĠëĲĺ ê³ł
Ġì¤ĳ êµŃ
Ġíŀĺ ëĵ¤
Ġëĭ« ê¸°
Ġìĭłë¦¼ ìĦł
Ġíķĺ ìĭľ
ĠëĬ ¦
ìĿ´ëĿ¼ ë©´
Ġê³µ ë¶Ģ
ëĭ Ĳ
ê°Ģ ëĿ½
Ġíķĺ ëĬĶëį°
ì¹ĺ ê³¼
Ġêµ ¿
Ġê¸° ë¶ĦìĿ´
Ġìŀħ ë§Ľ
íģ Ĳ
ĠìĪĺ ê°Ģ
ì½ ©
Ġê°ľ ìĿĺ
Ġëĵľ ëĶĶìĸ´
Ġê°ĢëĬ¥ íķ©ëĭĪëĭ¤
ĠìĻĢ ìĿ¸
Ġë²Ħ ìĬ¤
ì»¤ ë¦¬
Ġìĥģëĭ¹ íŀĪ
ìĹ ´
Ġê³Ħ ëĭ¨
ĠìķĮ ê³ł
ĠìĤ¬ì§Ħ ìĿĦ
ĠìĻĢ ìĤ¬ë¹Ħ
ĠëĦ£ ìĸ´
Ġê³łìĨĮ íķľ
ĠìĭľìĽĲ íķľ
Ġë¿Į ëł¤
Ġìį ¨
ìĬ ´
Ġìĸĳ ëıĦ
Ġìĸ´ ê¹¨
ĠëĳĲ íĶ¼
Ġê¹ĶëģĶ íķĺê²Į
Ġë¹¨ ë¦¬
íķĺ ëĭ¤ê°Ģ
Ġìĺ ·
ëĵľ ë¦Ħ
Ġê¸° êµ¬
ĠìłĦ íĻĶ
ëĦ¤ ìĿ¼
Ġë°Ľ ê³ł
ĠìĹ¬ëŁ¬ ë¶Ħ
ī ´
ĠìĿ´ ìłĦ
ë¬´ ìĭ¤
ĠìĽĲ íķĺëĬĶ
Ġêµ¬ ì¡°
Ġë¹Ħ êµĲ
Ġì§ĳ ì¤ĳ
ë°Ķ ë¡ľ
Ġëªħ ë¬¼
Ġë¹ł ë¥´ê²Į
ĠìĿ´ë²Ī ìĹĲ
íĬľ ëĶĶìĺ¤
ĠíĢ Ħë¦¬íĭ°
Ġì± Ļ
ì ĩ
ĠìŀĪ ìĿĮ
ĠìĹ ĺ
Ġëĭ µ
Ġì§ ±
ìĿ¸ ìĿ´
Ġê³łê¸° ëŀĳ
ë³ĳ ìĽĲ
ë§ ŀ
ìĺ¤ ëĬĶ
Ġë¹ Į
Ġìļ° ëıĻ
Ġê´ĳ ê³ł
ĠìĪĻ ìĦ±
Ġë¶ĢëĵľëŁ½ ê³ł
Ġë§ŀì¶ °
íķ ´ë³
ĠìŀĪ ê¸°
ĠìĿ´ ê²ĥ
ê¹ Ĳ
íĬ¸ ë¡ľ
Ġêµ ½
Ġìĭłì´ĮìĹŃ ìĹĲìĦľ
Ġëĵ± ìŀ¥
ĠìĦ¸ íĮħ
Ġê°ķëĤ¨ êµ¬
ĠêµĲ ìłķ
Ġë³Ħ ë¡ľ
Ġëĸ ¨ìĸ´
ĠëĶ°ëľ» íķľ
ìĹ Ħ
ìĸ´ ìļ©
ëĤ Ļ
ìŀĪ ëĭ¤
ĠëĤĺ ì¤ĳìĹĲ
Ġëį ®ë°¥
ĠìĻ ¼
ĠìłĦ íĺĢ
ĠìĹŃ ìĦ¸ê¶Į
Ġì¢ĭìķĺ ëįĺ
ĠìŀĲë¦¬ ê°Ģ
ĠíķĺìĿ´ ë³¼
Ġìĭł ê²½
ĠìŀĪ ìľ¼
ìĿĺ ëıĦ
ë² ¨
Ġìĭłë¦¼ìĹŃ ìĹĲìĦľ
Ġíķľ êµŃ
Ġê²ĥ ìĿĢ
Ġê³µ ê¸°
Ġì§ĳ ìĹĲ
Ġì§ĳ ìĹĲìĦľ
ëŀľ ëĵľ
Ġëĭ¤ëħĢìĻĶ ìĸ´ìļĶ
ìĥģ ìĿ´
ëĭĺ ìĿ´
Ġë°Ľ ìĿĦ
ĠíĥĢ ìŀħ
ĠíĿ ¡
ĠìķĦíĮĮ íĬ¸
Ġëĭ´ë° ±
íķĺ ëŁ¬
ëł ĩê²Į
ĠìĬ ¬
Ġì¶Ķ ìĸµ
ĠíĿ ĳ
ĠíĽ ¨
Ġìłģëĭ¹ íŀĪ
Ġì¹ ´ë
Ġë§Ľì§ĳ ìľ¼ë¡ľ
Ġê³µ ì§Ģ
ë¹ ł
Ġìļ° ìĦł
ĠëĤ´ ëıĪ
Ġëĭ¤ìĿ´ìĸ´ íĬ¸
Ġê³ģ ëĵ¤
Ġê¸ ī
ë³´ ëĭ¤ëĬĶ
Ġë§Ī ì¹ĺ
íĥĢ ìŀĦ
Ġíķ´ ëĭ¹
ëłĪ ìĬ¤
ìħ¨ ëĬĶëį°
ê°Īë¹Ħ ì°ľ
ĠìĤ¬ìŀ¥ëĭĺ ìĿ´
Ġë¶Ģëĵľ ëŁ¬
ĠìĿ´ëĮĢ ìĹŃ
Ġì¿ł íĤ¤
ĠìĺĽ ëĤł
Ġì ĵ
Ġë° ¤
ìĭľ ì£ł
êµ¬ ë§Ī
ĠìĿ´ ìĸ´
Ġì¢ĭ ìĬµëĭĪëĭ¤
Ġì¹ ¨
ìłĦ ì²ł
Ġê²Ģ ìĥī
Ġì¡± ë°ľ
ì§ ķìĸ´
íķľ ëį°
ìĽ ĢìĿ´
ìļ° ìĬ¤
íĶ¼ ìŀĲ
Ġì´ ¬ìĺģ
ĠìĨĮìĬ¤ ê°Ģ
Ġìī½ ê²Į
Ġì´ī ì´ī
ĠíľĺíĬ¸ëĭĪìĬ¤ íĶ¼íĶĮ
´ ¤
ìłģ ìĿ´
íĻ ķ
Ġì°¾ ìľ¼
Ġìľ¡ ìĪĺ
Ġì°½ ì²ľëıĻ
ĠëĥĦ ìĥĪ
ì ĮĢêµŃìĪĺ
ë¦¬ ëĭī
ëŀ ¨
ìłķ ë³´
ë°© ë¬¸
ĠìĦ¸ ëĮĢ
ê°Ĳ ëıĻ
ë´¤ ëĬĶëį°
ĠìĨĶ ì§ģ
Ġí ĩ´ê·¼
ìĿĺ ìĽĲ
ëįĶ êµ°ìļĶ
ĠìĹĨ ê³ł
ë´ ī
ë²Ī ì§¸
ì¹´ ìķ¼
ĠìĪĺìłľ ë²Ħê±°
Ġë´Ĳ ëıĦ
ë »
Ġë ¼Ī
Ġëį Ķë¸
Ġì£¼ë¬¸ ìĿĦ
íĭ Ģ
Ġë¨¹ê³ł ìĭ¶
ĠëĦĵ ê³ł
Ġì¢ħë¥ĺ ê°Ģ
Ġìĸ¼ë§Ī ëĤĺ
Ġê¼¼ ê¼¼
ĠíĽ¨ ìĶ¬
ì§Ģ ìķĬ
ĠìŀĪ ëįĺ
ì£¼ íĥĿ
ìŀĲ ì¹´ìķ¼
ì¶ ĺ
Ġë§Į ëĵł
ĠìĹ° ê²°
ĠìļĶ ë¦¬
Ġíľ ´
ìĦ¼ íĦ°
ĠëĶ¸ ê¸°
ê º¼
ì§ ķ
ëĿ¼ ëĸ¼
ìŀ¥ ìĿĦ
Ġì° ľ
ìĻ ģìĭ±
ĠëĤĺ ìĦľ
ë³´ ìĦ¸ìļĶ
Ġë§Ī ì¹´ë¡±
ĠìķĬ ê²Į
ê°Ĳ ìĿ´
ĠìĥĪ ë²½
ëĭŃ ê°Īë¹Ħ
ĠĠĠĠĠĠĠĠ ĠĠĠĠĠĠĠĠ
ë¦´ ê²ĮìļĶ
ĠìĺĪìģĺ ê²Į
Ġíļ¨ ê³¼
ĠìĽĮ ëĤĻ
ìĿ´ ë©°
ĠìŀĪ ëįĶëĿ¼êµ¬ìļĶ
Ġìĭłì´Į ìĹĲìĦľ
Ġëĵ± ëĵ±
ìĺĢ ëĬĶëį°
Ġë¸ Ķ
ķìĸ´ ë¹µ
ë¡Ń ê²Į
ìŀ ī
ë¬ ´ëĤĺ
Ġê°Ģ ê¹Ŀ
ìĹĪ ëĬĶëį°ìļĶ
Ġê¸° ì¤Ģ
ĠìĹ° ìĸ´
íķĺë©´ìĦľ ëıĦ
Ġê³ł ê°Ŀ
ë² ħ
Ġì¸µ ìľ¼ë¡ľ
ë¨¹ ìĿĦ
Ġìĸ´ë ł
ĠëĿ¼ ë©´
ë¶Ī ê°ĲëıĻ
Ġì§ Ń
Ġìĺ¤ ìłĦ
ĠìĹ° ëĿ½
íħĮ ìĿ¼
Ġëĵ± ìĿ´
ì¼ ĢìĿ´
ĠìŀĦ ëĮĢ
Ġë°ĸ ìĹĲ
Ġìĩ¼ íķĳ
ìĿ´ ëĵľ
ê² ģ
ìłĲ ìĿĦ
ì¦ Ļ
Ġìĭ¤ ìłľ
ĠìĨĲëĭĺ ìĿ´
Ġë§Īëł¨ ëĲĺìĸ´
ê°Ģ ìĦľ
ëĵ¤ ìĹĲê²Į
ĠìķĦ ë¬´ë
ì¹ĺ ë¯¸
Ġì¢ĭ ëįĶëĿ¼êµ¬ìļĶ
ĠìĿ¸ ìĥĿ
Ġì¤ĳ ìĭ¬
Ġìĺ¬ ë¦¬
Ġê°Ģê²© ëıĦ
ë³¶ ìĿĮë°¥
Ġë¶ĦìľĦê¸° ê°Ģ
Ġê±¸ ìĸ´
Ġê¸°ëĭ¤ ë¦¬
Ġê¾¸ ì¤Ģ
íľ ´
Ġëªħë¬¼ ê¸¸
ìĿ´ ìķ¼
ìĹĪ ì§Ģë§Į
ĠìĹĨ ìĿĦ
ë¨¹ ìľ¼ë©´
Ġíģ¬ ë¦¬ìĬ¤
Ġìĸ¼ íģ°
Ġì¹ľêµ¬ ê°Ģ
Ġë§ī ë¶Īê°ĲëıĻ
ĠíķĦìļĶ íķľ
ĠíĽ Į
Ġë¯ ¿
Ġí į¼
ĠëĦĪ ë¬´ëĤĺ
ĠìŀĪìĹĪ ê³ł
ĠëĬĲëĤ Ħ
ĠìĹĦ ë§Ī
ĠìĸĳëħĲ ìĿ´
Ġë° Ķë
Ġìĥ ĮëĵľìľĦì¹ĺ
ëĦ Ĳ
Ġì§Ģ ëıĦ
ĠìĹŃ ìĤ¬
ĠìĹ¬ ë¦Ħ
ĠìĹ¬ ìĿĺëıĦ
Ġìĥģ ê°Ģ
Ġìĸ´ ì©
Ġë¨¹ìĸ´ ë³´
Ġë°©ë¬¸ íķľ
Ġì¶Ķê°Ģ ë¡ľ
ĠìĹ°ìĦ¸ ë¡ľê¸¸
ĠíĻį íķ©
ĠìĭĿê°Ĳ ìĿ´
ê³ ¤
Ġìĭ «
Ġë° ĶëĶĶ
ìĬ¤ ê°Ģ
ë¦¼ ì²ľ
ì¹ ľêµ¬
ì§ĳ ìĿ´
Ġì£¼ ëĬĶ
ĠëĤ´ ìļ©
ĠìŀĲë¦¬ ìĹĲ
Ġë ½
ìĿ´ ëıĦ
Ġë° Ŀ
ĠìĿ´ íĽĦ
ĠëĮĢ ë¶Ģë¶Ħ
Ġìłľ ì£¼
Ġìĥģ íĻ©
ĠëıĦ ë¦¼ì²ľ
ĠìłĢíĿ¬ ê°Ģ
Ġëĳ ĺìĿ´
ĠìķĦìĿ´ ìĬ¤
ì ī½
Ģ ëĵĿ
ìĹŃ ìĤ¼
ìľ¼ ë©´ìĦľ
ë° ¤
Ġê°Ģ ì¡±
Ġê·¸ ë¦ĩ
ìŀĪ ìĬµëĭĪëĭ¤
ĠìķĦ ë¬´
Ġëª¨ ëĵ¬
ĠìķĦëĭĪ ê³ł
Ġë¬¸ íĻĶ
íģ ´ë
ë¹Į ëĿ¼
ĠíĹ¤ ìĦ¼
Ġëĵł ëĵł
ëıĦ ë¦¬
ìľ¼ë¡ľ ëĬĶ
íĺ ¼
ê²¨ ìĦľ
Ġê·¸ëŁ° ëį°
ĠìĿ´ìķ¼ ê¸°
ë¶Ħ ìĹĲ
ê» ı
ĠëıĦ ìĭľ
ĠëıĻ ëĦ¤
ĠìĥĪ ì½¤
Ġë¶Ħëĵ¤ ëıĦ
ê°Ļ ìĿ´
ë ļ
Ġìĭ ¹
ìĭľ ì¼ľ
ìŀĪ ìĸ´
Ġê³ł ê¹ĥì§ĳ
ĠìĿ¸ íĶĦëĿ¼
ìĺ¤ íĶ¼ìĬ¤íħĶ
ĠìĬ ¹
Ġëĵ¤ìĸ´ ê°Ķ
Ġì½ ľ
ĠëĺĲ ëĬĶ
íķĺê¸° ëıĦ
ĠíĶĦ ë¦¬
Ġëĥī ìĤ¼
ĠíĪ¬ ìŀĲ
ì¢ĭ ìĿĢ
ŀĺ ëıĦ
Ġì¡´ ë§Ľ
ĠìĹ¼ ìĥī
ë ķ
Ġë £¨
êµ¬ ê°Ģ
Ġìĭłë¦¼ ë§Ľì§ĳ
íĥ ĳ
ĠëĤĺ ìĺ
ë³Ħ ë¡ľ
ëª¨ ìŀĦ
ìĭłìĿ´ ìıĺ
ĠíĻķìĭ¤ íŀĪ
ë¯Ģ ë¡ľ
ĠëįĶë¸ Ķ
Ġíģ¬ë¦¬ìĬ¤ ë§Ī
ìĬ ·
Ġì§ ¬ë½ķ
Ġë³´ ëĭ¤
ĠìĿ´ë ¥
ìĦ¸ íĬ¸
ĠìĿ¸ ìĬ¤íĥĢ
íĸĪ ê³ł
ĠìľĦ íķ´ìĦľ
ĠíĮ Ķë¡ľ
ĠìĬ¤ íĬ¸ëłĪ
ĠìĺĪ ìłĦ
Ġì¤ĳ ìĹĲ
ĠìĤ¼ ìĤ¼
Ġëĵ¤ìĸ´ê°Ģ ë©´
ìĹ° íŀĪ
´ëĿ¼ ë§¤
ì¿ ¼
ìĬ¤íĦ° ëĶĶ
ĠíĻľ ìļ©
Ġìº Ĳ
ì¹ Ń
Ġë¨¹ ìĹĪëĬĶëį°
ìŀ¥ ìĹĲ
Ġìĺ¤ ëĬĶ
Ġìĺ¤ ì§ķìĸ´
ĠìĿ´ë £¨
ĠìĨĮ ìĭłìĿ´ìıĺ
ĠëĮĢ ë°ķ
Ġíĸ Ħ
ĠìĻĦ ìĦ±
ĠíĨµ ì¦Ŀ
Ġëĭ´ ìķĦ
ĠëıĦë³´ ë¡ľ
ĠìĿ´ê³³ ìĿĢ
Ķë² ł
ìĭŃ ëĭĪëĭ¤
Ġê°Ģ ëģĶ
ĠìķĦ ë§Ī
Ġë¶Ħ ê±°ë¦¬
Ġìłķ ë³´
ìķ¼ ëģ¼
ĠìĦľìļ¸ ìĭľ
ĠíĬ ¹ë³Ħ
ĠíĨ ¡
ĠíĹ ¤ìĸ´
Ġë§Ĳ ê³ł
Ġë³¸ ìłĲ
Ġìļ°ë¦¬ ê°Ģ
Ġë¬´ìĹĩ ë³´ëĭ¤
ĠëĤ´ëıĪ ëĤ´ìĤ°
í Ī
ìĿ´ ê¸°
ìĸ´ ìł¸
Ġìĭł ìĽĲ
ì² Ļ
Ġíķĺ ë©´ìĦľ
íĦ ¸
ĠìĦł ìĥĿ
ĠìļĶ ëłĩê²Į
Ġê°Ħ ìĿ´
ĠìĻĦ ë²½
Ġëªħ ëıĻ
Ġê½ ī
Ġê°ĻìĿĢ ëį°
ĠëĨĢ ëŁ¬
Ġíģ´ ë¦¬ëĭī
íļ į
ĠìķĦë¬´ë ŀĺëıĦ
ì ·¨
Ł ì§ĳ
ì§Ģ ì§Ģ
ëŀ į
Ġìĭłì´Į ìĹĲ
ĠìĪ ¯ë¶Ī
ĠíĻ Ī
Ġì´Ī ì½Ķ
ê¶ Ī
Ġíıī ìĨĮ
Ġì¹´ ì¸ł
ëŀ Ļ
ìŀ¥ ìĿĢ
ìĭł ëĭ¤
Ġë§Ľì§ĳ ìĿĦ
ĠìĥĿ ê¸´
ìĥĿ íĻľ
Ġê·¼ ìľ¡
Ġê°Ģê²© ìĿĢ
Ġì¢ĭìķĺ ìĬµëĭĪëĭ¤
Ķë¡ľ ëĤĺ
ĠìłĦì²´ ìłģìľ¼ë¡ľ
ì ĮĢ
ìĭľ ê¸¸
Ġíķĺ ìĭľëĬĶ
Ķë ª¨
Ġë§Ī ìĤ¬
ĠìĿ¸ ê¸°
Ġëĵ¤ ê³ł
ìķ¼ ì§Ģ
Ġë©Ķëī´ ëıĦ
ĠëıĻ ìŀĳ
íĮĮ ìĬ¤íĥĢ
Ġì½Ķ ìĬ¤
êµ ´
ìĹŃ ìĦ¸ê¶Į
ê¹ Ķ
Ġëĭ¤ ëĭĪ
Ġíķ ´ë³´
ĠìĽĲ ë£¸
Ġë¹Ħ ìĬ·
íĻ Ķë
Ġíİ¸ ìĿĺ
íķ¨ ìĿĦ
Ġê·ľ ëª¨
ëĤĺ ê³ł
íĻĶ ê°Ģ
ëĳĲ ë¶Ģ
ëŁ° ì¹ĺ
Ġë¶Ļ ìĸ´
Ġê·ĢìĹ¬ ìļ´
Ġë¹Ħë¹ Ķ
ì£¼ ê³ł
Ġêµ °
Ġìłķ ê¸°
ë¥´ ëĬĶ
Ġë°° ë¶Ģ
Ġìĭľê°Ħ ìĿĦ
ĠìĿ´ìļ© íķł
Ġëħ¸ ëŀĺ
ĠìĻ¸ ë¶Ģ
ĠíĻĺ ê²½
Ġê´ľì°® ìĿĢ
ë©´ ìłģ
ëł ģ
ìĻ Ħ
Ġë³´ ìŀħëĭĪëĭ¤
íĮ ĮìĿ´
ë§Ī ì°¨
ìĭĿ ìĿĦ
Ġê³³ ìĿĦ
Ġíı¬ ëıĦ
Ġê°ķ ì¶Ķ
ĠíĥĢ ê³ł
Ġëª© ìĤ´
Ġëĥī ìŀ¥
Ġìľ¡ ì¦Ļ
ìĿ´ ìĹĲ
Ġë§ ¨
Ġìł ĬìĿĢ
ëĿ¼ ëıĦ
ëŀ «
ë¬¸ ìĹĲ
Ġë³´ ëĬĶ
ĠìĹ¬ ìľł
ĠëĲĺ ë©´
Ġë°© íĸ¥
ĠìĬ¤ ì¿¼
Ġíı¬ íķ¨
ë¹ Ĺ
ĠìĻĢ íĶĮ
Ġìµľ ìĥģ
Ġìŀł ìĭľ
ìĩ Ħ
ìĿ´ ëĭĪ
Ġê³ §
Ġë¨¹ ìĹĪëĭ¤
Ġì° ¬
ĠìķĦ ìī½
Ġë§İ ìķĺ
ìĤ¼ ê³Ħíĥķ
ìłķ ìĿĦ
Ġê³³ ìĹĲ
ìĽĮ ìļĶ
Ġëĭ¨ ë¬´ì§Ģ
Ġìĭ¶ ìĸ´ìĦľ
ĠëıĻ ì¹ĺë¯¸
Ġìµľ ëĮĢ
ĠìĹĲ ìĦľ
íģ ´
íĥĪ ì¶ľ
ìĬ¤ëŁ½ ê²Į
Ġìĸ´ëł µ
Ġíģ¬ë¦¬ìĬ¤ë§Ī ìĬ¤
ëĭ¤ ëĭĪ
ì§Ģ íĦ¸
Ġê°Ģ ë³
Ġìĸ ĩ
Ġíķĺ ì§Ģ
Ġê³ł êµ¬ë§Ī
ê±° ìļ´
Ġë§Ī ìļĶ
ìĭĿ ìĿ´
ìĤ¼ ê²¹
ĠìĹĨ ìĸ´
Ġìĥģ íĴĪ
ĠëıĦ ëĦĽ
Ġëĵ± ìĿĺ
Ġíı Ń
Ġë²Ħ íĦ°
ĠíĿ Ķ
ĠëĤĺìĻĶ ìĬµëĭĪëĭ¤
Ġëĭ¤ëħĢ ìĺ¨
ìĭłì´Į ìłĲ
ĠìĦ¼ ìĬ¤
íĬ¸ëłĪ ë¹Į
Ġìĥ¤ ìĽĮ
Ġì±Ļ ê²¨
ìĭľ ìŀ¥
ìĬ¤ íĨł
íĬ¸ ê°Ģ
ĠìĹ¬ ëĵľë¦Ħ
ë¥´ ê³ł
Ġìĸ´ë ¬
ĠìĨĮê°ľ íķ´
ìĦ±ìĿ´ ëĦ¤
Ġê¾¸ ë©°
ĠìħĢíĶĦ ë°Ķ
ìľ ¨
ë° ĸ
ëĮĢ ê°Ģ
Ġê°Ļ ìķĦìĦľ
Ġëª¨ ìĸĳ
Ġíĥ ķ
Ġì½ Ķë¡ľëĤĺ
ĠìĿ´ëŁ ¬
ĠëĲľìŀ¥ ì°Įê°ľ
ëıĦë¦¬ íĥķ
ìĿ´ ëĦĪ
ê°Ģ ëĵĿ
ĠìĿ´ ìŀĲì¹´ìķ¼
ëĤĺ ìĦľ
ĠìĻ ģìĭ±
ĠëĮĢ ìĦ±ìĿ´ëĦ¤
ĠìĦł íĺ¸
ì¶Ķ ê°Ģ
Ġíĺ¸ ìłĲ
ì¤ĳ ìķĻ
ĠìĤ¼ ê³Ħíĥķ
ĠìĿĮìĭĿ ìĿĦ
ĠëĿ Ħ
Ġë ģ¼
Ġë Ł¬
ĠìŀĪ ëĦ¤ìļĶ
ĠìĦľìļ¸ ëĮĢ
ë²Ħ íĦ°
Ġìĺ¤ëĬĺ ëıĦ
Ġëĵ¤ìĸ´ê°Ģ ìĦľ
ĠìĿĮìĭĿ ìĿ´
Ġìķī ìķĦ
ĠíĴį ë¶Ģ
Ġê°Īë¹Ħ ì°ľ
Ġì¶©ë¶Ħ íŀĪ
Ġê°Ģë³ į
ìĿ´ ìĬ¤
ëĵ¤ ë¡ľ
ĠìķĪ ìĭ¬
Ġì£¼ë¬¸ íķĺë©´
Ġìŀ¬ ë°©ë¬¸
Ġìĭ¶ ìĿĦ
Ġíŀ Ī
Ġë§ĪëĿ¼ ìĥ
íķĺ ìļ°ìĬ¤
Ġê°Ģ ìļ´ëį°
Ġë¨¹ ìĿĮ
ì¹ĺ ê°Ģ
ĠĠĠĠ ĠĠĠ
ë¬´ ì¹¨
Ġì§Ģ ìĥģ
Ġìłľ íĴĪ
Ġë¶Ģ ëıĻìĤ°
ìłĦ ë¬¸
ĠíĻĶ ë©´
ĠëĳĲ ë¶Ģ
Ġìĺ¤ëĬĺ ìĿĺ
ĠìĹĲ ìĬ¤
Ġê²Į ëĭ¤ê°Ģ
Ġì¶ľêµ¬ ë¡ľ
ĠíİĺìĿ´ ì§Ģ
ĠìĥĪë¡ľ ìļ´
ìĬ¤íħ ľ
Ġíģ¬ë¡ľ íĶĮ
Ġìĸ´ë¬ µ
ëŀ ©
ìĦ¸ ìļ©
íĮ ¨
Ġìłķ íĻķ
ĠëĮĢ ë¡ľ
ëĦ¤ ì¦Ī
ì½ ľ
ĠìĹ° ëĮĢ
ĠìŀĲë¦¬ ë¥¼
Ġìķī ìķĦìĦľ
Ġëĳĺ ëŁ¬
ì¤ĺ ìķ¼
ìĹ ½
ĠìŀĪ ìľ¼ë©´
Ġê°Ģ ë³´
ĠìķĦ ìĤŃ
ë³´ ìĮĪ
Ġê± ·
ĠìĿ¼ ìĿ´
ì°ľ ëĭŃ
ĠíĶĦ ëĿ¼ìĿ´
ìĽł ìĸ´ìļĶ
ĠìłĦë¬¸ ìłĲ
ëĤ ´ë
Ġì¢ĭ ê²Į
Ġíķ ´ë¬¼
ĠëĤĺ ë¦Ħ
Ġë§ĽìŀĪ ëĭ¤ê³ł
ĠëĮĢ ì¤ĳ
ìļ´ ëıĻ
ëĭĺ ìĿĺ
Ġíı¬ íĨł
ì¤ ¬
Ġëĵľ ìħĶ
ĠëĿ¼ ëĸ¼
Ġëĭ¹ ë©´
íĹ ¤
Ġê¸°ë³¸ ìľ¼ë¡ľ
Ġì°½ ê°Ģ
ëĭµ ê²Į
ĠíķĻ ìĥĿ
ĠëĶĶìŀĲ ìĿ¸
Ġëįķ ë¶ĦìĹĲ
ĺ ìĸ´
ł Į
ìĿ´ ì¦Ī
ê°Ģ ìļĶ
ë¦¬ ìĹĲ
ëŀ ¬
ìĺ ¥
Ġì£¼ ìĿĺ
ĠìĿ¸ ìĩĦ
ìļ´ ëĵľ
ëįĺ ëį°
ê·¸ ëŀ¨
Ġì¦ ī
Ġë¬¼ ìĸ´
ê³³ ìĹĲ
ĠìĤ¬ìĿ´ ìĹĲ
Ġì°¸ê³ł ë¡ľ
Ġì¹´ë łĪ
ìĿ´ ìĦľ
ì§Ģ ê²Į
ìĹŃ ìĹĲìĦľ
Ġìĸ ĺ
ĠìķĦ ì¹¨
Ġìĺ¤ ë©´
ê³¼ ëĬĶ
ìĤ¬ ê°Ģ
ìĤ¬ ë¥¼
ĠìĥĿ ê²¼
Ġìŀħ ìķĪ
ĠíĻĶ ìĿ´íĬ¸
ĠìĹ¬ê¸° ìĹĲ
êµĲ íĨµ
ĠíĿ Ĳ
Ġë³Ħ ë¹Ľ
Ġë¡ľ ìłľ
Ġë³´ëĤ ´ê¸°
ê°Ģ ë©´
ë° Į
Ġë¶ ķìĸ´ë¹µ
Ġê·¸ ë¦¬
Ġëĭ¤ íĸī
ĠìķĦ ëĬĶ
ì¹ĺ ëĬĶ
Ķë ĦĪ
ê· ł
ĠíĮ ĮìĿ´
ĠìĹĨ ëĭ¤
ĠëĲĺ ê²Į
íĤ ¬
ëĭ¨ ìľ¼ë¡ľ
ĠëĿ¼ ìĬ¤íĬ¸
íĸ¥ ìĿ´
Ġë§ī ì°½
ĠíĶĦ ëłĪ
ĠìĿµ íĺĢ
Ġì²´ íģ¬
ë¬´ë ĦĪ
ĠìĦľë¹ĦìĬ¤ ë¡ľ
Ġë§ĺ ìĹĲ
íķľ ëĭ¤ê³ł
ĠìłĦ ìĦ¸
Ġìĭ¶ ìĹĪëĬĶëį°
Ġë¶Ī ê°Ģ
Ġë§İìĿĢ ëį°
ĠìĿ´ëıĻ íķĺê¸°
ì» ¬
Ġì£ ½
ìķ ŀ
Ġë¨¹ ìĹĪìĬµëĭĪëĭ¤
Ġë¨¹ ìĹĪëįĺ
íĬ Ģ
ìĽĲ ìĿ´
Ġë°Ķ ëĭ¥
Ġê± ´ë
Ġìĸĳ ê¼¬ì¹ĺ
Ġë¹Ħ ë²¼
Ġê³łê¸° ëĬĶ
Ġìŀ¬ ë°Į
ĠëĦ£ ê³ł
ĠìĨĮê°ľ íķ´ëĵľ
Ġì¤ĳìļĶ íķľ
Ġë²Į ìį¨
Ľ °
Ġìŀ ĩ
ìĸ´ ìķ¼
ĠìĿ ½
ĠìĿ Ħ
Ġìķ Ļ
Ġê°Ģ ê¸°
Ġíķĺ ëĦ¤ìļĶ
Ķë £¸
Ġê¸ ´
ìŀĲ ê°Ģ
ĠëĲĺ ìĹĪ
Ġìŀħ ì£¼
Ġìŀħ ìŀ¥
Ġë°©ë¬¸ íĸĪ
Ġëħ¸ ìĦł
ĠìĤ¬ìŀ¥ëĭĺ ê»ĺìĦľ
ĠìĻĶ ìĸ´ìļĶ
Ġìĺ¬ëł¤ ìĦľ
Ķë²ł íģĲ
Ġëĥīìŀ¥ ê³ł
Ġë© Ķëª¨
Ġêµ¬ ìļ´
íĭ ±
Ġê²½ ìłĦì²ł
ĠëĤĺìĺ¤ ê³ł
Ġëĵ¤ìĸ´ê°Ģ ëĬĶ
ĠëĤĺìĻĢ ìļĶ
ëľ ¨
Ġë¹¨ ê°Ħ
Ġëĭ¬ëĭ¬ íķľ
Ġê »
ëĭ¤ ë³´ë©´
Ġë³ ´ëĿ¼ë§¤
Ġì£¼ íĥĿ
ì¶ ©
ĠìĿ¸ íķ´
Ġì² ¨
íĶ¼ ë¶Ģ
íĶĦ ë¡ľ
Ġì»¤ íĶĮ
Ġë§ŀ ê²Į
ìģ ľ
ĠëĤĺìĻĶ ëĭ¤
ĠìĹŃìĭľ ëĤĺ
Ġëĥī ë©´
ëĭµ ëĭĪëĭ¹
ĠìĤ¼ìĤ¼ ëĭ¹
ĠìĹ¬ ìŀĲ
Ġì£¼ë¬¸ íķĺê³ł
Ġíĥ ±
ìĤ° ëıĻ
ĠíĸĪ ìĬµëĭĪëĭ¤
ê³łê¸° ì§ĳ
Ġë°Ľ ìľ¼
Ġë§¤ìŀ¥ ìĿ´
Ġìŀĳ ìĹħ
íķ´ì£¼ ìĦ¸ìļĶ
Ġëª¨ìĬµ ìĿĦ
ĠìĦ¼ íĬ¸ëłĪë¹Į
ë²łìĿ´ íĦ°
ìĿ´ ë¥¼
ëŀ Ń
Ġì£¼ ìĦ¸ìļĶ
Ġìĭľ ê¹Įì§Ģ
ĠìĿ´ë Ŀ¼
ë£ ¹
ë¯¸ ìĹĦ
Ġë¹ Ī
ê¶ ĮìĿ´
Ġëĭ¬ ì½¤
ĠëĤł ìĿ´
Ġë§ŀ ëĬĶ
ë°ķ ìĬ¤
ëł¸ ìĸ´ìļĶ
ĠìĦ¼ íĦ°
Ġë³´ëĤ ´
ëıĦ ìĿ¸
ì£¼ ìħĶìĦľ
ì¹ĺ ë£Į
Ġìĺ¤ íŀĪ
ĠìĿ¸ ìĥģ
Ġë°© íĥĪì¶ľ
Ġì£¼ë¬¸ íĸĪëĭ¤
Ġì¢ĭìķĦ íķ´ìĦľ
Ġëĵ± ìĿĦ
ĠíĸĪ ì§Ģë§Į
ëĥ ł
ĠìĻĦ ë£Į
Ġì¹ĺì¦Ī ê°Ģ
ĠìŃĪ ìĤ¼
Ġíŀ Ļ
ë´¤ ìĸ´ìļĶ
ĠìĭĿìĤ¬ ë¥¼
Ġíĺ¹ ìĭľ
Ġì»¬ ëŁ¬
Ġë§ĪìļĶ ëĦ¤ì¦Ī
Ġë Ľ°
íķĺ ëįĶëĿ¼êµ¬ìļĶ
ë¦¬ ëıĦ
ëĤ Į
ëĿ¼ ìĿ¸
íķ´ ì§Ģ
íĬ ¹
Ġê·¸ ë¦¼
íĬ¸ ëĤ¨
ĠìĽ Ģ
ëª ½
ĠìĨĮ íĴĪ
ĠëĮĢ íķ´
Ġìŀĺ ëĿ¼
ĠìĿ¼ íĴĪ
Ġì°¾ ê¸°
ĠìĤ´ ìķĦ
Ġì« ĢëĵĿ
ìĬ¹ ì²ł
ë´Ĳ ìļĶ
Ġë¥ ¼
Ġìĺ¤íŀĪ ëł¤
Ġê°Ģ ìķ¼
ĠìĿ´ ìģĺ
ĠìĪĺ ìĪł
ìħ ī
íĸĪ ì§Ģë§Į
ë§Ī íĨł
ĠëĤĺìĺ¤ ëĬĶëį°
ĠíķĺëĤĺ ìĶ©
Ġë°¥ ìĿĦ
ê°Ļ ìķĦìļĶ
Ġê³¨ ëĿ¼
ëģ Ħ
Ġìĸ´ìļ¸ ë¦¬ëĬĶ
ë¬´ëĦĪ ë¬´
Ġë »
íķĺ ìĭľê³ł
ì§Ģ ìĹĲ
ëĤ ©
Ġë§Ľ ë³¼
Ġìĸ ¹
Ġê³ł ìĭľ
ĠìķĪ ìª½
ĠìĿ¸ ìłķ
Ġë°Ķ ëŀįëĭĪëĭ¤
Ġê±° ìĭ¤
Ġê±° ê¸°ìĹĲ
Ġë¨¹ìĸ´ ë³´ê³ł
Ġëħ¸ ê³ł
ì½Ķ ìĬ¤
Ġê²Į ìĭľ
Ġë¸Į ëŁ°ì¹ĺ
Ġê¿ Ķ
¥ ì§ĳ
´ íĳ¸
µ íħĮìĿ¼
Ġë ŀ
Ġë ·°
ëĭ¤ ë¦¬
Ġë§ Ŀ
íķĺ ëĭ¤ëĬĶ
Ġìķ Ķ
Ġê°Ģ ê³ł
Ġë§¤ ì£¼
ëįĶëĿ¼ ëıĦ
Ġê´Ģ ìĭ¬
Ġì§ģ ì§Ħ
ìĺģ ì£¼ì°¨
ê¶ ģ
ìĹĨ ëĬĶ
Ġë¸Į ëĿ¼
ĠìĿ¸íħĮë¦¬ìĸ´ ê°Ģ
Ġì±Ħ ìĨĮ
ĠíĬ¸ ëłĪìĿ´
Ġê¹Į ì§Ģ
íĪ ¼
Ġì° Į
ìŀĪ ê²Į
ìĪĺ ëıĦ
Ġë¶Ħ ìĿ´
Ġë© ĭ
ĠëĮĢ íĺķ
Ġêµ¬ ë¹Ħ
Ġë¹Ħ íķ´
ĠìŀĪìĹĪ ëĬĶëį°ìļĶ
Ġë¯¸ ëĭĪ
ì£ ½
ĠëĶ° ëĿ¼ìĦľ
ĠíĮĮ ìĿ¸
Ġê°Ģê²© ìĹĲ
ëķĮ ë¬¸ìĹĲ
ĠìĨĮìĬ¤ ìĹĲ
ëł¥ ìĿ´
ìĤŃ ë©´
Ġë²ł íĬ¸ëĤ¨
ĠíĨł íķĳ
ëĳ ĳ
Ġë°ķ ìĬ¹ì²ł
Ġëļ Ŀ
Ġìĭ± ìĭ±
Ġì¹´ì¸ł ìĹħ
ì Łģ
ë¡ Ģ
Ġê· ¹
Ġê·¸ ëķĮ
ì¹ĺ ë¥¼
Ġë§ĽìŀĪ ìĹĪ
Ġë¶Ģ íĦ°
ĠìĺĪ ìłĦìĹĲ
ëĶ Ķë£¸
Ġëĭ¨ ê³¨
Ġë°° ê³ł
ë¸Į ëŀĢ
ëĶĶ ìłĢíĬ¸
íļĮ ìĭĿ
ĠëĦĺ ëĤĺ
ĠìĽĶ ìĦ¸
Ġìķ½ ìĨį
Ġì²´ íĹĺ
ì« Ħ
ìĸ´ ë¥¼
ë§ İ
´ë ł¤
Ġìĥ ´íĳ¸
Ġíķĺ ê²Į
ìŀĪ ëĬĶëį°
ëª »
Ġíĺ ľ
Ġì§Ģ ìĿ¸
Ġìłľ ëª©
ë¯¸ ê°Ģ
íķł ëķĮ
Ġì¡° ê°ľ
Ġìļ° ìĪĺ
ì¼ ĵ
Ġìĭľê°Ħ ìĹĲ
Ġë°Ľ ëĬĶ
Ġëĭ¬ ëĿ¼
Ġíģ ´ë
ĠíĿ ¥
Ġê¶ Į
Ġê²° ìłķ
ë°° ì¶Ķ
ĠìķĮëł¤ ëĵľ
Ġê°ĲìĤ¬ íķ©ëĭĪëĭ¤
Ġë°Ķë Ģ
ĠíĶĦë¦¬ ë¯¸ìĹĦ
íķĺ ìħĶìĦľ
ëį ¸
ëĮĢ ìĹĲ
ê±° ìĹĲìļĶ
ìĪĺ ë¡Ŀ
Ġê°Ļ ìķĦ
ĠìĻ ł
ĠìŀĪìĹĪ ëįĺ
ĠìŀĪëĭ¤ ë©´
ĠëĬĲê»´ ì§ĢëĬĶ
Ġê°ĳ ìŀĲê¸°
ĠìĬ¤íĦ° ëĶĶ
ë¸ĮëŀĢ ìĬ¤
ê³ł ë¦¬
ë¦¬ ìĸ¸
Ġë³´ ìĭľë©´
Ġíķľ ìª½
Ġë§Ī ìĭľê³ł
ĠìĻ ĢìĿ´
ìĦ± ìĿĦ
ĠìĹ¬ ê¸´
ëįĶëĿ¼ êµ¬
ë§Ĳ ìĿ´
Ġì¸µ ìĿĢ
íĻĶ ë¡ľ
ĠëĳĲ íĪ¼
ĠíĮĮ ëĬĶ
ìĻĶ ìĸ´ìļĶ
Ġë°ľ ìĥĿ
Ġë©Ķëī´íĮĲ ìĿĦ
Ġíı¬ìŀ¥ ë§Īì°¨
ìĽł ëįĺ
Ġì¹¼ ì¹¼
ĠëĤĺìĺ µëĭĪëĭ¤
Ġê°Ģë³į ê²Į
ë¡ ¤
Ġìł ¤
Ġì§ §
Ġë¶ ģ
ĠìĤ¬ ë¬´ìĭ¤
Ġìĭľ íĤ¨
Ġíķľ ìļ°
ĠìĽĲ ìŀ¥ëĭĺ
Ġì§Ħ íķľ
Ġì§Ħ ë£Į
ĠìĦł ë¬¼
ëłĪ íİĺ
ë¹ Ļ
Ġìĭ¶ ëĭ¤
Ġì°¨ íĻį
ìľ¼ëĭĪ ê¹Į
ĠëĦ£ ìĸ´ìĦľ
ìĬ¤íĬ¸ ë¦¼
Ġê·Ģ ìĹ½
ĠìķĦëĭ Ĳ
ì¡Į ìĸ´ìļĶ
Ġëķ Ĳ
Ġê°Ħëĭ¨ íķĺê²Į
ĠìĭłìĦł íķľ
Ġê³ģëĵ¤ ìĹ¬
ìĦľ ìļ¸
Ġìĭľ ìĬ¤íħľ
ë¶Ħ ëĵ¤ìĿ´
ĠìĹĨ ìĬµëĭĪëĭ¤
Ġê³³ ìĿ´ëĿ¼
Ġë¯¸ ëıĦìĿ¸
ìĨ Ķ
ĠìĪł ìĿĦ
Ġëĵľ ë¦¬
ĠíĬ¹ ìĿ´
ĠìĽĶ ìļĶìĿ¼
Ġì§Ģíķĺ ì¸µ
ĠëĶĶìłĢíĬ¸ ë¬¸
Ġê¸Ī ìķ¡
Ġëı¼ì§Ģ ê³łê¸°
Ġê¾¸ì¤Ģ íŀĪ
íķĺ ëĦ¤ìļĶ
ê¸° ë¦Ħ
íķľ ê²Į
ë© ´ë
ëł ¹
Ġë§¤ ë§¤
ĠìľĦ ìĥĿ
ĠëĦĪ ë¬´ëĦĪë¬´
Ġìĥģ íģ¼
ĠëıĦ ìłĦ
Ġëħ ¼
Ġë²Ī ì§¸
Ġë°° ë¶Ī
ĠëĤ¨ ìĿĢ
Ġìŀ¥ ìłĲ
Ġëģ Į
Ġëĥ ł
Ġê½¤ ëĤĺ
ĠìĿĢ ê·¼
ìŀħêµ¬ ìĹŃ
ĠëĤłìĶ¨ ê°Ģ
ĠíĨ¡ íĨ¡
ĠëĮĢì¤ĳ êµĲíĨµ
ë ĩ
íķĺ ê±°ëĤĺ
ëıĦ ë¥¼
ëį ©
ëį ®ë°¥
ĠëĤ Ļ
Ġë¨¹ ìŀĲ
ëł ī
Ġì£¼ ìĭł
Ġì£¼ ìħĶìĦľ
ĠëĤĺ ìĺ¬
Ġìĭłë¦¼ìĹŃ ìĪłì§ĳ
Ġìĭłì´ĮìĹŃ ìĹĲ
Ġìłķ ë¦¬
íŀ Į
Ġì§Ģ ìĨį
ìķĺ ëįĺ
ìłķ ìĭĿ
Ġë¶Ģ ë¶ĦìĿ´
ĠìĺĪ ìĥģ
íĻĶ ë¥¼
ëĶ ±
Ġì°į ìĸ´ìĦľ
ĠëĿ¼ ë©ĺ
ĠëĶĶ ì§ĢíĦ¸
ì¹´ ìĺ¤
ĠëĤĺìĺ¤ ê¸°
ĠëĬĲëĤĮ ìĿĺ
Ġì¹´ íħĮ
Ġì²Ń ìĨĮ
Ġíĳ¸ì§Ĳ íķĺê²Į
Ġìķħ ëıĻ
Ġì°ľ ëĭŃ
ë°ĸ ìĹĲ
ë ¼Ī
íķĺ ìĿ´
íķĺ ì£ł
ë¦¬ ìķĦ
ĠìŀĪ ëįĶëĿ¼ê³łìļĶ
ìĬ¤ íĪ¬
ë§Į ìĿĺ
Ġìļ ¸
ìĿĮ ìĭĿ
Ġê¸° ëĬ¥
ĠìĥĿ ë§¥ì£¼
Ġìĥģ ì¶Ķ
Ġë¯¸ ëĤĺ
Ġì¹´íİĺ ë¥¼
íĺ¸ ìłĲ
ë¶Ī ê³łê¸°
Ġë¶Ħëĵ¤ ìĹĲê²Į
Ġëĭ¹ ìĹ°íŀĪ
Ġë¿ Ĳë§Į
Ġê³¼ ìĿ¼
Ġíĸ¥ ìĿ´
Ġì£¼ë³Ģ ìĹĲ
ĠëĨĵ ìĹ¬
Ġë§Īì§Ģë§ī ìľ¼ë¡ľ
ì¥¬ ìĸ¼
Ġìľ¼ ë¡ľ
ĠìĹĺ ë¦¬
ĠíĻįíķ© íĥķ
Ġì¹´íħĮ ê³łë¦¬
ëĤ ¸
ë¥ ł
ì£¼ ë©´
ì£¼ ìĭľê³ł
ì§ĳ ëĭĪëĭ¤
Ġê·¸ ë£¹
Ġìĭłë¦¼ìĹŃ ìĹĲ
íĸĪ ëĭµëĭĪëĭ¤
ë¶Ħ ëĵ¤
ĠìĬ Ī
Ġê±° ìļ¸
ĠìĬ¤ ìĭľ
Ġì£¼ë¬¸ íĸĪìĬµëĭĪëĭ¤
Ġê³Ħ ìĭł
Ġê³Ħ íļį
ìĺĢ ëįĺ
ĠëĤ¨ íİ¸
Ġì¢ħë¥ĺ ëıĦ
ĠìĨĲëĭĺ ëĵ¤ìĿ´
ĠìłĦì²´ ê¸Ģ
ĠìĦ¤ì¹ĺ ëĲĺìĸ´
íĢ ĺìĸ´
ĠìĦłìĥĿ ëĭĺ
ëłģ íĥķ
Ġìµľìĥģ ëĭ¨ìľ¼ë¡ľ
ì¤ĳìķĻ ìĦł
Ġëħ¸ê³ł ìĤ°ëıĻ
Ġì°¨íĻį ë£¸
Ġì ĮĢ
ìľ¼ ëĤĺ
Ġì¹ µíħĮìĿ¼
Ġë³´ ëĭĪê¹Į
Ġë§Ī ìĭ¤
ìĭ¤ ìĿ´
ĠìĹ¬ íĸī
Ġíİ Į
Ġë¹Ħ ì¥¬ìĸ¼
Ġì¢ĭìķĦ íķĺìĭľëĬĶ
ë´ Ħ
íķĺê¸° ìĹĲ
ĠíļĮ ìĤ¬
Ġëĭ¹ ìĿ¼
ĠëıĪ ì¹´ì¸ł
ìĥ¤ë¸Į ìĥ¤ë¸Į
ìĽĢ ìĿĦ
ĠëĶĶìŀĲ ìĿ´ëĦĪ
ì º
Ġì¢ ģ
ëł Ģ
Ġëĭ¤ ë¥´
ë² Į
ĠìķĪ ìłĦ
ĠìķĬ ëıĦë¡Ŀ
ë¹ Ī
Ġìĸ´ ìļ°
ê·¸ ëłĪìĿ´
Ġì¶Ķì²ľ íķ©ëĭĪëĭ¤
Ġì²ĺìĿĮ ìĹĲ
ĠëĬĲëĤĮ ìĿĦ
Ġë¹µ ì§ĳ
ĠëĨĴ ìķĦ
ĠíĻĺ ìŀĲ
ĠëĮĢíķĻ ìĥĿ
Ġì²ł íĮĲ
ë» Ĳ
ìĬ¤íĪ¬ ëĶĶìĺ¤
ìļĶ ë¦¬
ëį° ìĿ´
ĠìĤ ¶
ĠìĿ´ íĻĶ
ĠìĿ´ë ª¨
íħ ĮìĿ´ë¸Ķ
ë§Ī ëĿ¼
Ġê¹ Ķ
ĠìĿ¼ ì°į
Ġë¬´ ìĬ¨
ĠíĽĦ ìĹĲ
ĠëıĻ ìĥĿ
íĶĮ ëŀĢ
Ġìłģ íĺĢ
Ġë²Ħ ê±°ë¦¬
ĠëĦ£ ìĸ´ì£¼
Ġê°Ķ ëĬĶëį°
Ġë¨¹ìľ¼ ë©´ìĦľ
Ġê³łìĨĮ íķĺê³ł
ë´Ĳ ìķ¼
Ġì¹ľìłĪ íķĺê²Į
Ġì¶Ķì²ľëĵľ ë¦½ëĭĪëĭ¤
Ġë³ĳ ìĽĲ
ìŃ Ī
ĠìŀĳìĦ± ìĿ¼
ëĥī ë©´
ĠìĻ¼ ìª½
ìŀ ĺ
Ġìĭł ì²Ń
íķľ íħĮ
Ġì£¼ ë¥ĺ
Ġì¢ĭ ê²ł
ìĪĺ ìľ¡
Ġë¶Ħ ë¦¬
ĠìŀĲ ìľł
Ġë¶Ģ íĥģ
Ġìĥģ ê¶Į
ĠìĿĮ ìķħ
ê³µ ìĽĲ
Ġê°Ĳ ì¹ł
ĠëĲ Ĳ
Ġíŀ Ĳ
ë²ł ë¦¬
ĠìĪĻ ì£¼
ĠìŀĦ íĶĮëŀĢ
Ġìłĳê·¼ ìĦ±ìĿ´
į ½
Ġë łĮ
ê³ ±
ĠìĤ¬ ëĿ¼
ĠëĤĺ ëıĦ
Ġë¶Ħ ìłķëıĦ
ëįĶ ìĬ¤íĥĢ
ĠëĮĢ ìĭł
Ġì¡° ë¦¬
Ġíı¬ ìĿ¸
ĠìļĶ ê±°
ĠìĦ¸ íĥģ
Ġë¶ĦìľĦê¸° ëıĦ
Ġì¹´ ì¹´ìĺ¤
Ġê²½ìļ° ê°Ģ
ĠìĽ¨ìĿ´íĮħ ìĿ´
ĠìĨįëĪĪìį¹ íİĮ
Į ¤
ë¦ İ
ë¡ľ ìļ´
ê°Ģ ê¸¸
Ġêµ ³
ĠìĿ´ë ķĮ
Ġë°Ķ ëĿ¼
ĠìĥĿ íģ¬ë¦¼
ĠëĬ Ķ
ĠëķĮ ëıĦ
ĠìĹ° ë§Ĳ
Ġëĵ± ë¡Ŀ
ĠëıĻ ìĭľìĹĲ
Ġëĵľ ëĬĶ
Ġê±¸ ìĸ´ìĦľ
ĠëŃ ĺ
Ġì¦Ĳ ê²¨
Ġíĭ Ģ
Ġì½ĺ ì¹ĺì¦Ī
Ħ¤ ìļĶ
ĠíĸĦ ë²Ħê±°
Ġê º
ìĿ´ ëĦ¤ìļĶ
ë¦¬ ë·°
ë¥ ´ë©´
ì° Ķ
ĠìķĦ ìĭľ
Ġíķ ¸
ĠìŀĲ ìĭł
ĠìŀĲ ê¾¸
ë§Ī íĬ¸
ìĥģ ìĿĦ
Ġê¹ ľ
íĨ ¤
Ġì¶Ķ ìļ´
Ġê³³ ìĿ´ìĹĲìļĶ
íĶĦ ëłĪ
Ġë¨¹ìĸ´ ë³¸
êµĲ ìłķ
Ġëĭ¹ ê³¡
Ġì¹ľêµ¬ ëŀĳ
ĠíĨł ë§ĪíĨł
ì³ ¤
Ġë´ī ì²ľ
Ġíĥľ ê·¸
ĠëĤĺëĪ ł
ìĿ´ ìĹĪëĭ¤
Ġí ģ¼
ĠìĪĺ ì§Ģ
ĠìķĦ ê¸°
Ġë³´ ëĵľ
ìĪĺ ìļĶ
ëŁ¬ ìĦľ
Ġë§ĽìŀĪ ìĹĪëįĺ
Ġëª¨ ë°ľ
Ġì§Ħ ìĭ¬
ì²ľ íŀĪ
ĠíĸĪ ëįĺ
ĠëĤ¨ ê²¨
ê°Ĳ ìĿĦ
ĠëĪ Į
ĠíĮĮ íĭ°
Ġì°¨ ëıĮ
ê¹Ģ ë°¥
ĠíħĮìĿ´ë¸Ķ ìĹĲ
Ġì¹´ ìļ´
Ġì²ľ ì²ľíŀĪ
ĠìłĲìĭ¬ ìĭľê°Ħ
ĠëĨĢ ëŀĲ
ĠíħĮ ëĿ¼ìĬ¤
Ġíĳ¸ì§Ĳ íķľ
Ġêµ¬ìĦ± ëĲĺìĸ´
Ġê±´ê°ķ íķľ
Ġë¸ĮëłĪìĿ´íģ¬ íĥĢìŀĦ
ë°Ķë¡ľ ìļ°
ª ¼
Ġíķĺ ìĭ¤
ĠìķĦ íĺĦ
ĠëĤĺ ê°Ģ
Ġê³ł ê³ł
Ġë³´ ìĦ¸ìļĶ
ìĪĺ ë¥¼
Ġê°Ļ ìķĺìĸ´ìļĶ
ìĪ ¯
Ġê±° íķ´
Ġë²Ī íĺ¸
Ġì°¾ ìľ¼ìĭł
ëĭ¬ ì½¤
ìłĪ ìĿ´
Ġë¶ĦìľĦê¸° ë¥¼
ĠíĬ¹ ì§ķ
ĠìĹ¬ëŁ¬ ê°Ģì§Ģ
ĠëĬĲê»´ ì§Ģ
Ġê²° ìłľ
ĠìĥĪìļ° íĬĢê¹Ģ
Ġì¶Ķì²ľëĵľ ëł¤ìļĶ
Ġëļ ľ
ë¬´ì§Ģ ê²Į
Ġìĺ¤ë¥¸ ìª½
ĠíĶĦëĿ¼ìĿ´ ë¹Ĺ
ĠìĿ´íĻĶ ìĹ¬
Ġì Įĵ
Ġë Ł
ê°Ģ ê²©
ì§Ģ ìĸ´
ìĬ¤ ë¥¼
Ġìĭłë¦¼ìĹŃ ì¹ĺê³¼
ĠìķĪ ëĲĺ
Ġê¸° ì¡´
Ġê±° ì£¼
ĠëıĦ ìĽĢìĿ´
ĠìĨ ¡
Ġíħ Ĳ
ĠëĿ¼ ëĬĶ
ìľł ìĿĺ
Ġì´Ī ìĹŃìĦ¸ê¶Į
Ġìķ¼ ë¬´ì§Ģê²Į
ë§ī êµŃìĪĺ
Ġë¨¸ë¦¬ ë¥¼
Ġìĸ¸ ëĭĪ
ĠíĹĪ ë¦¬
Ġìłģëĭ¹ íķľ
Ġíĺķ íĥľ
ĠìŀĲì²´ ê°Ģ
Ġì¹´ìļ´ íĦ°
ìĹ ´ê¸°
ëĬ ĳ
Ġìķ ķ
ê¸° ê³ł
Ġê³ł ëł¤
ĠëĮĢ ë¹Ħ
Ġë§Į ëĵľëĬĶ
ĠìĬ¤ íİĺ
ĠìĬ¤ íĬľëĶĶìĺ¤
Ġìŀħ ì§Ģ
Ġê³³ ìľ¼ë¡ľ
ĠìĹ° ìĬµ
Ġì¢ĭìķĦ íķĺëĬĶëį°
Ġìĭ¶ ìĸ´
ë´ ħëĭĪëĭ¤
Ġê¹Ģ ë°¥
ëĵ¯ ìĿ´
ĠëłĪ ëª¬
Ġíģ¬ë¦¼ ì¹ĺì¦Ī
ĠíĤ ¹
Ġë²łìĿ´ ì»¨
íķ´ë ´¤
ĠìĤ° ì±ħ
íģ° ê°Īë¹Ħ
ĠíļĮìĽĲëĭĺ ëĵ¤
ëģĪ íķľ
ĠëªħëıĻ ì¹¼êµŃìĪĺ
Ġê» į
Ġì°¾ìľ¼ìĭł ëĭ¤ë©´
¯ ëį°
ìĿ´ ìĹĪìĬµëĭĪëĭ¤
Ġê² ¸
ĠìĿ¸ ê¸°ê°Ģ
ìĨĮ ë°Ķ
ĠëĲĺ ìĹĪìĬµëĭĪëĭ¤
ĠìĺĪ ë»Ĳ
Ġìŀħ ìĹĲ
Ġê³Ħ ìĭľ
Ġë°©ë¬¸ íķ´
Ġìłģ ìļ©
ĠíĺĦ ìŀ¥
Ġì¹ľêµ¬ ìĻĢ
Ġì§ľ ìŀ¥
Ġë³Ģ ê²½
ĠíķĻ êµĲ
Ġìį °
ĠìĪĺìĹħ ìĿĦ
Ġëª° ëŀĲ
Ġìı Ļ
· Ķ
¹ ê¶Ī
ìĿ´ ìĺĪìļĶ
ê¸° ìĹĲëıĦ
Ġë³ ´ë
Ġì£¼ ë¡ľ
ĠìķĦ ëĬĳ
Ġíķ ´ë³
ĠëĤĺ ìĿĺ
Ġëı ĭ
ëŁ¬ ìĬ¤
ĠëĮĢ íķ´ìĦľ
ĠìķĬ ëĤĺìļĶ
ĠíĮ ¥
ĠíĻ ©
ë¬¼ ìĿ´
Ġê³łê¸° ìĻĢ
ë¨¹ ìĸ´
ìŀĦ ëĮĢ
ĠìĹ¬ê¸° ê°Ģ
ĠíĨµ íģ°ê°Īë¹Ħ
Ġì¢ħ ì¢ħ
Ġì¹ľêµ¬ ëĵ¤ê³¼
ëł¥ ìĿĦ
Ġë°ľ ëĿ¼
Ġë¹ł ì§Ī
ĠìĪľëĮĢ íĥĢìļ´
Ġíķ© ë¦¬
ĠíĥĢìŀĦ ìĬ¤íĬ¸ë¦¼
Ġì°¾ìľ¼ ìĭľëĬĶ
ëĭ¤ ë¥¸
Ġê°Ģ ìĿĦ
ìĿ¸ ëĭ¤
ìĿ¸ ëĵľ
ìĤ¬ íķŃ
ëĦ ·
ĠíĮ ¬
ìĦł ìĿĦ
Ġë¬´ ë¦İ
Ġë°©ë¬¸ íķ´ìĦľ
Ġê°Ĳ ëıĻ
Ġìĸ¼ êµ´
ĠìĹĲ ìĸ´
Ġë°± ê¹Ģì¹ĺ
ì» ·
ĠëĤĺìĺ¨ ëĭ¤
ĠíĪ¬ ë£¸
ĠíĶĮ ëłĪìĿ´
Ġíĺķ ìĦ±
Ġì¾Įìłģ íķľ
ĠìķĻ ë²ĦíĦ°
ìĺ ·
ìŀ¥ êµŃ
ì² ´ë
Ġë§İ ìĬµëĭĪëĭ¤
íķł ìĪĺ
Ġìĸĳ ë°°ì¶Ķ
Ġëĵ¤ìĸ´ ê°Ī
Ġë¹Ħ ìĭ¸
ĠëıĦ ë¡ľ
íĻ Ģ
ĠìļĶ ê¸°
Ġì°¾ ê³ł
ĠëĳĲ ë²Īì§¸
Ġìľł ëıĻ
ĠëĤ¨ ìķĦ
ĠìĨĲ ìĿ´
ĠíķĺëĤĺ íķĺëĤĺ
Ġë´ Ħ
Ġìħ ĭ
Ġìŀ¡ ê³ł
Ġìŀ¡ ìķĦì£¼
ëĨ Ģ
ĠíļĮìĽĲ ê¶Į
Ġíı¬ìĬ¤íĮħ ìĿĢ
Ġê²½ìĿĺ ì¤ĳìķĻìĦł
Ġìĺ¤ëŀĺ ëĲľ
ĠìĿ´ìľł ê°Ģ
Ġëª©ë¡Ŀ ìĹ´ê¸°
ĠìĤ´íİ ´ë³´
² ê¸¸
Ġê° ĵ
ìĭľ íĤ¤
ì£¼ ìĭľëĬĶ
Ġê·¸ ë§Įíģ¼
Ġëĭ¤ ê°Ģ
Ġì¢ĭ ëįĶëĿ¼ê³łìļĶ
Ġì¹ Ń
Ġìļ ķ
Ġë§ĽìŀĪ ìĿĦ
íŀĪ ëĬĶ
ĠìĬ¤ ì½ĺ
ĠìĦ¸ ìĥģ
Ġìĺģ íĻĶ
ìħ¨ ìĬµëĭĪëĭ¤
ĠëĿ¼ ê³ł
ĠíļĮ ìłĦ
Ġê°Ģê²© ëĮĢ
Ġìłģ ìłĪ
ĠíħĮìĿ´ë¸Ķ ëıĦ
ĠëĤł ì¹ĺ
Ġìķ¼ ìĻ¸
ĠëĤ´ë¶Ģ ìĹĲ
ĠìĨĮìĬ¤ ëıĦ
Ġëĭ¤ìĿĮ ìĹĲëĬĶ
Ġë³´ìĿ´ ê³ł
ëĵ¯ íķľ
ëł¸ ëĭ¤
Ġë§µ ì°Ķ
íľ ´ë¬´
Ġë§ĲìĶĢ ëĵľ
Ġíĺ¹ ìĿĢ
Ġê³µê°Ĳ íķľ
ĠíŀĲ ë§ģ
Ġì ¸
Ġë ī´
ìĿ´ ìĹĪëĬĶëį°
Ġìĭł ë°ľ
ë¥ Ń
ì§ĳ ìĿĦ
ëĵ¤ ìĸ´
Ġìĸ µ
Ġíķĺ ëĭ¤ê°Ģ
íĬ¸ ëĬĶ
Ġíķľ ëģ¼
ĠìłĦ ë¶Ģ
ĠìķĬ ì§Ģë§Į
ĠëķĮ ë§Īëĭ¤
Ġëĺ ĳ
ĠìłĲ ìłĲ
ĠíķĺëĤĺ ëıĦ
ĠëĤ´ë¶Ģ ê°Ģ
Ġíĳ ¹
Ġë¡ ¤
Ġê°ģ ê°ģ
Ġëª¨ìĬµ ìŀħëĭĪëĭ¤
ĠìĿ´ë²Ī ìĹĲëĬĶ
Ġì»¨ ìħī
Ġë§ĪìĤ¬ ì§Ģ
Ġíı¬ëıĦ ëª°
Ġíĥ± ê¸Ģ
ĠìĽĢ ì§ģ
Ġê¿Ķ ë°Ķë¡ľìļ°
Ġíķ¸ ëĵľ
Ġê±°íķ´ ì°¸ì¹ĺ
·Ķ íİĺ
ī Ĳ
íķĺ ëįĶëĿ¼ê³łìļĶ
ìĭ ¹
ì§Ģ ë©´
ĠìŀĪ ì£ł
ĠìĹ ī
ë¥ ´ë¥
Ġì§ ł
ĠìĿ´ ìĽĥ
Ġì£¼ ìĿ¸
ìĿĮ ìĿ´
ìħ ľ
Ġë¬ µ
ĠìķĬ ìķĦìļĶ
ê¹Įì§Ģ ëĬĶ
Ġê³³ ìĹĲìĦľ
ĠìĹŃìĤ¼ ìłĲ
Ġíķ´ ìĤ°
ĠëĤ¨ ëħĢ
Ġê²½ íĹĺ
ĠëĭŃ ê³łê¸°
ĠìĪľ ê°Ħ
ĠìķĪì£¼ ê°Ģ
Ġì°¾ìķĦ ê°Ģ
ê±¸ ë¡ľ
Ġë¸Į ëŀľëĵľ
Ġìĭ¬ ì§Ģìĸ´
Ġëķ ħ
Ġì¤ĳê°Ħ ìĹĲ
Ġì¹ĺë£Į ë¥¼
Ġê³µê¸° ë°¥
ĠíĽĮ ë¥Ń
Ġìĸ´ìļ° ëŁ¬
íķľ ì§Ģ
ĠìĪĺ ëĤ©
Ġìĺ¤ ìĭľëĬĶ
ë² Ķë¡ľ
ĠìķĪ ìľ¼ë¡ľ
Ġë¶Ħ ìĭĿ
ìĺ¤ ë©´
ĠìłĦ íĨµ
ê» į
ĠìĬ¤ íĶĦ
Ġê³µ ìĺģì£¼ì°¨
ë¬¼ ìĿĦ
Ġê·¼ì²ĺ ìĹĲìĦľ
Ġë°± ë²Ķë¡ľ
ê³¨ ëª©
Ġë§Įì¡± ìĬ¤ëŁ¬
ê´ĳ ê³ł
ëı¼ ì§Ģ
Ġì¡°ìļ© íķľ
ĠíĮĮìĿ¸ ìķł
ĠìĹĺë¦¬ ë²łìĿ´íĦ°
ìĿ´ ëŀįëĭĪëĭ¤
Ġìŀ Ķë
ê² Ģ
ìĹĪ ëĭµëĭĪëĭ¤
ì° °
Ġëĭ¤ ë¥´ê²Į
ĠëĤĺ íĥĢ
Ġë§ĽìŀĪ ëįĶëĿ¼êµ¬ìļĶ
ëª ¸
ĠìĿ¸ ì¦Ŀ
ĠìķĬ ìķĺìĸ´ìļĶ
ë°¥ ì§ĳ
Ġíķ´ ê²°
ìķĪ ê²½
ĠìĥĿê°ģ ëĤĺëĬĶ
Ġë¸ Ķë£¨
Ġê´ľ íŀĪ
Ġë²Īì¶ľêµ¬ ë¡ľ
Ġë¥ ´ë
Ġë¨¹ìĿĮ ì§ģ
ìļ ķ
ì§ ¤
Ġìł ĵ
ĠëĤ ¬
íķ´ ì§Ħ
ë³´ ë¦¬
Ġë§İ ìķĦìļĶ
ìŀħ ëĭĪëĭ¹
Ġê³łê¸° ëıĦ
Ġê³Ħ ìĤ°
Ġìĸ´ ë¦°
Ġìĸ¼ ë¥¸
Ġìķ¼ ëĵ¤
Ġì²Ń ê²°
ì¡Į ëĭ¤
Ġì¡´ ìŀ¬
ëĭĲ ëĿ¼
Ġë¯¿ ê³ł
ĠíĹ¤ìĦ¼ ëįĶìĬ¤íĥĢ
Ġì½ľ ëĿ¼
Ġê³ °
ìĭľ ë¯¸
íķ´ ì§ĢëĬĶ
Ġìĭłë¦¼ ìĹĲìĦľ
Ġë¨¹ ëĭ¤ê°Ģ
Ġìĺ¤ íĶ¼ìĬ¤
ĠìłĢ ìĿĺ
ĠìĨĮ ë¬¸
Ġê¹ į
ĠëĲĺ ìĹĪìĸ´ìļĶ
ĠìĿ¼ ìĥģ
ĠíĶ ½
ĠëıĦ ìĻĢ
Ġê°ľ ë°ľ
Ġìĸ´ ì°Į
Ġì°į ê³ł
ìĨį ëĪĪìį¹
Ġíģ Ĳ
Ġê²Į ìŀĦ
ĠíĴ Ī
ëĲ Ĳ
Ġì¶© ìłĦ
Ġê°ĢëĵĿ íķľ
ë¨ ¸ë¦¬
Ġíļ Łì§ĳ
ëĳ ¥
Ġì«Ħ ë©´
ĠìĹ°ìĦ¸ë¡ľ ê°Ģê¸¸
Ġë§ŀì¶ ¤
ê¿ Ī
ĠìĨĶì§ģ íŀĪ
Ġìĺ¬ë¦¬ ë¸Į
¸ Į
ê°Ģ ê°Ģ
ìĭľ ëĭ¤
Ġëĵ £
ìĪĺ ì¦Ŀ
ëĲĺ ë©´
Ġëĵ¤ìĸ´ ìŀĪ
Ġì¹ĺ ê³¼
ìĤ´ ìĿ´
Ġëĵľ ìĭ¤
ë²Ī ìĹĲ
ĠíĽĦê¸° ë¥¼
Ġì¢ħë¥ĺ ìĿĺ
Ġê¹Ģì¹ĺ ì°Įê°ľ
ìĽł ëĭ¤
Ġë§ĪìĿĮ ìĿ´
ëĬĲ ëĿ¼
Ġëı¼ ìļĶ
Ġê²° êµŃ
Ġë¬´ë ł¤
Ġê¾¸ ëįķ
Ġìŀħêµ¬ ìĹĲ
ĠíħĮ ë§Ī
Ġíŀĺ ëĵł
Ġê°ĸ ì¶Ķ
Ġìĸ¸ìłľ ëĤĺ
ĠìĬ¤íĦ° ëĶĶë£¸
Ġìĭ¤ìłľ ë¡ľ
Ġìĭ« ìĸ´
Ġë°ķìĬ¹ì²ł íĹ¤ìĸ´
ĵ ¨
ìĦ ¬
ìľ¼ ìĭ¤
Ġì§ Ĳ
Ġë¨¹ ê²Į
ìŀĲ ë©´
Ġê¸° ê³Ħ
ĠìŀĲ ëŀĳ
ĠìĿ¸ íĦ°
Ġíĺ ĳ
ìĺ¤ ëİħ
Ġìłľ ë¡ľ
Ġì¡° ê°ģ
íĥĢ ìĽĮ
Ġê³³ ê³³ìĹĲ
Ġëĭ¨ ì§Ģ
Ġìĭ¶ ìĸ´ìļĶ
ĠìķĦëĭĪ ì§Ģë§Į
ĠìłķëıĦ ìĿĺ
ĠíĿ ĺ
ĠëĲľ ëĭ¤ê³ł
ĠìĿĮìĭĿ ìłĲ
ĠìĹ´ ì°¨
ë°ķ ìĿ´
ĠëłĪ íĬ¸ë¡ľ
Ġì²Ń ìķ½
Ġë³µ ì¸µ
Ġì§Ģê¸Ī ìĿĢ
ĠìĮĪ ìŀ¥
ê¸° ìĻĢ
ì§Ģ ìĹŃ
Ġë° Ķë²łíģĲ
.. ...
ëŀ µ
Ġë§Ľ ìĿĺ
êµ¬ íķĺê³ł
ìķĦ ìĽĥ
ĠìĿ´ ê²ĥëıĦ
ìĥ ·
íĶ ĮìĿ´
Ġë² ķ
Ġë¬ »
Ġëĵ¤ ìĹĪìĸ´ìļĶ
Ġì£¼ë¬¸ ìĿĢ
ĠìķĮ ìķĺëĬĶëį°
ë²Ī íĺ¸
ĠìĤ¬ì§Ħ ìĿĢ
ĠíĺĦ ê´Ģ
Ġê³µê°Ħ ìĿĦ
íĻĺ ê²½
Ġë³Ħ ë¯¸
Ġë°ĸ ìĹĲìĦľ
ĠíĬĢ ê²¨
Ġìłĳê·¼ ìĦ±
ĠìķĬìķĦ ëıĦ
íķ´ë³ ¼
Ġë¸Ķ ëŀĻ
Ġëĥł ëĥł
¨ ¸ë¦¬
Ġì ıĺ
ìĭ ¼
ê² Ĳ
íķľ ìŀĶ
ĠìŀĪ êµ¬ìļĶ
Ġë° ¸
Ġê·¸ ëŀ¬
ĠìķĦ ê¹Į
Ġì¹ ł
ëĵľ ë¥¼
ëĵľ ë¦½ëĭĪëĭ¤
ë² Ķ
ìĪĺ ìłľ
ĠëĮĢ ì°½
ìļ° ëıĻ
ĠëĲĺ ë©´ìĦľ
Ġêµ¬ ë¶Ħ
Ġêµ¬ ìĦ±ìĿ´
Ġë©Ķëī´ ëĵ¤ìĿ´
Ġíĸ ĩ
Ġê°ľ ìĽĶ
Ġì¹´íİĺ ê°Ģ
Ġíĺ¸ íħĶ
ĠìĻ¸ ìĹĲëıĦ
Ġì» ·
Ġê²° ê³¼
Ġì°¸ê³ł íķĺìĦ¸ìļĶ
ĠìĦ± ê³µ
Ġì¦Ŀ ê°Ģ
íĹ¤ ëŀĢ
Ġë°ĶëĢ Į
ĠìķĦëĭĲ ê¹Į
ëĿ¼ íģ´ë
ë¥ ´ë
ìķĦ íĬ¸
ì£¼ ë¡ľ
ì£¼ ìħ¨ìĸ´ìļĶ
ĠëĤĺ ìģĺ
ìĻĢ íĶĮ
ìĪĺ ëĬĶ
ìĤ¬ ì¶ľ
ì¶ °
ìĺ¤ ëįĶ
ìłķ ìĿ´
ĠìĬ¤ íģ¬
Ġê³³ ìĿ´ëĭ¤
íĤ ¹
Ġíİ¸ ìĿ´ëĿ¼
íĶĦ íĥĳ
Ġíħ ĮìĿ´
ìĿ¸ëį° ëıĦ
íĮĮ íĭ°
ĠëĶĶìłĢíĬ¸ ì¹´íİĺ
Ġë³¸ ê²©
ìĺĪ ìķ½
ì» µ
Ġê¸°ëĭ¤ ë¦¬ëĬĶ
ìĬ¤íģ¬ ë¦¼
Ġê¿ Ī
Ġì±Ħ ìĽĮ
Ġëĭ¤ëħĢìĻĶ ìĬµëĭĪëĭ¤
Ġë°ĳ ìĹĲ
Ġëıħ íĬ¹
ìŃ ī
Ġì°¾ëĬĶ ëĭ¤ë©´
ĠìĿ´ëŁ¬ íķľ
Ġê²Įìĭľ ë¬¼
Ĳ ģ
ŀ Ń
ëĭ¤ ìļ´
íķĺ ëĭĪê¹Į
ĠìĿ´ ìłķëıĦ
Ġì£¼ ìħ¨ìĸ´ìļĶ
Ġíķĺ ë©°
Ġíķĺ ëįĶëĿ¼êµ¬ìļĶ
Ġìĺ¤ ê³ł
ë³´ ìĿ´
ê±° ëĿ¼
ìĪĺ ìĪĺ
Ġì§Ģ ìłĲ
ë§Ľ ìĿĦ
Ġê¹ Ĭ
Ġë°Ķ ëŀĮ
Ġë°Ķ ëĭĲëĿ¼
Ġê³µ ìĤ¬
ìľĦ ìĹĲ
Ġë¬´ ê²Į
Ġìĸ´ ë§Ī
Ġì°¾ ìĿĦ
Ġì°¨ ë¡ľ
Ġì°į ìĿĢ
Ġê±´ ì¡°
ĠíĬ¹ ìľłìĿĺ
Ġë¡ ¯ëį°
Ġìĺ¤íĶ¼ìĬ¤íħĶ ìĿĢ
ë¨ ¼
Ġìļ´ìĺģ ìĭľê°Ħ
ĠìĿ´ìľł ëĬĶ
ĠìĿĢ ìĿĢ
Ġìĺ¬ëĿ¼ê°Ģ ë©´
Ġë²½ ë©´
ĠìķĪê²½ íħĮ
ĠëĤ¨ìŀĲ ì¹ľêµ¬
Ġìĭľê·¸ëĭĪì²ĺ ëŀ©
ĠìķĬìĿĦ ê¹Į
ëļ ľ
ìŃĪ ê¾¸ë¯¸
ëĿ¼íģ´ë ŀŃ
ì ĩ¼
í ĩ´ê·¼
ê¸ ĭ
Ġë§Ľ ìĹĲ
ì§ĳ ìĿĢ
ëĦ ĺ
ĠìłĦ ì²ł
ë¶Ħ ëĵ¤ìĿĢ
Ġì£¼ë¬¸ íĸĪ
ĠëıĦ ìĭ¬
ëĵ¤ìĿ´ ëŀĳ
Ġìļ° ìľł
ĠìļĶ ëŁ°
ĠìĪł ìķĪì£¼
Ġëĵľ ìĭľë©´
ĠíĮĮ ìļ´ëĵľ
Ġì°¨ ëŁī
ĠìĤ¬ì§Ħ ìĿ´
Ġë°Ľ ìĿĢ
Ġë°¥ ëıĦ
Ġë³¶ ìķĦ
Ġì»¤íĶ¼ ë¥¼
ĠëĪĪ ìĿ´
ì¤Ģ ëĭ¤
Ġëĥī ëıĻ
ĠëłĪ ìĿ¸ëĵľ
ëıĪ ê¹ĮìĬ¤
ĠíĬ¹íŀĪ ëĤĺ
ĠìĦ¸íĬ¸ ë©Ķëī´
ĠíķŃ ìłķ
ĠíħĮ íĹ¤ëŀĢ
Ġìª½ ìĹĲ
Ġìĸ¸ìłľ ëĵł
Ġìŀ¬ë¯¸ ê°Ģ
ĠìĹ°ëĿ½ ì²ĺ
Ġìłķê¸° íľ´ë¬´
Ġíı¬íĨł ì¡´
ĠëĿ¼ìĬ¤íĬ¸ ìĺ¤ëįĶ
Ġë¯¸ëĤĺ ë¦¬
ĠëĤłì¹ĺ ìķĮ
Ġë°±ë²Ķë¡ľ ê¸¸
ìĤ¬ì¶ľ ëĺĲ
ë Ĵ
ìĸ Ģ
íķĺ ëįĺ
ë¡ ¯
ê°Ģ ìĬ¤
ê°Ģ ëłĪ
ìĬ¤ íĬľëĶĶìĺ¤
Ġë¨¹ ìĸ´ìĦľ
ëĮĢ ì°Įê°ľ
ë³´ ê¸°
Ġë³´ ìĭ¤
ë¶Ģ ëıĻìĤ°
ìĿ¼ ìĿ´
Ġê¸° ê°Ħ
ìķ¼ ëĵ¤
Ġë¶Ģ ìĤ°
ĠìĿ¼ ëĮĢ
Ġê±° ê¸°
Ġíĥ Ŀ
Ġê³³ ìŀħëĭĪëĭ¤
Ġíı¬ ê°ĢëłĪ
ê²ł ëĦ¤ìļĶ
Ġëĭ¨ íĴĪ
ìĺĢ ê³ł
ĠìĺĪìķ½ ìĿĦ
ì§ģ íķľ
Ġëħ¸ íĬ¸
Ġê·¸ëŁ° ê°Ģ
Ġìĭłì´ĮìłĲ ìĿĢ
Ġê¸°ë³¸ ì°¬
ĠìĪľ ëĳĲë¶Ģ
ĠìĿµ ìĿĢ
ĠìĻĶ ìĬµëĭĪëĭ¤
Ġì§ĢëĤĺ ê°Ģ
Ġë²łìĿ´ ì»¤ë¦¬
Ġì´Ŀ íıī
Ġìª½ ìľ¼ë¡ľ
ĠìķĮìķĦ ë³´
ĠíĬ¹ë³Ħ íķľ
Ġë§ĪëĿ¼ìĥ ¹ê¶Ī
ĠëłĪìĿ¸ëĵľ ëŀį
ë Ń
Ġê°Ģ êµ¬
Ġìĭłì´Į ëį°ìĿ´íĬ¸
ìŀĲ ë¥¼
ìķĺ ëĬĶëį°ìļĶ
ĠëĲĺ ëĬĶëį°
Ġìŀĺ íķĺëĬĶ
ê·¸ ë¦ĩ
ĠìķĮ ê²Į
ĠëĳĲ ê°ľ
Ġì½ ķ
ê±´ ì§Ģ
Ġìłĳ ìĭľ
ĠêµŃë¬¼ ìĹĲ
ĠëĦĵ ìĸ´ìĦľ
ĠìĿ´ë²Ī ìĹĶ
ĠìĪĺìłľ ë¹Ħ
Ġê¼¬ ì¹ĺ
ĠíĥĦ ìĤ°
ĠìłĪ ëĮĢ
ë¿ Ĳ
ĠëĤĺëĪ Ħ
ĠëłĮ ì¦Ī
íķĺ ìħ¨
ëĿ¼ íĶ¼
ìĭľ ê¸°
ìĬ¤ íĢĺìĸ´
ê¹ ĢìĿ´
ëŁ ´
Ġì¢ĭ ëĭ¤ê³ł
Ġìĺ¤ ìħĶìĦľ
Ġìĭľ ë¶ĢíĦ°
Ġë³´ ê´Ģ
Ġë§Ī ì¹¨
ĠìķĪ ëĤ
íĮ Ķ
Ġë§İ ëĭ¤
ĠìŀĪëĬĶ ì§Ģ
ì§Ħ ëĭ¤
ĠìĥĿ ìĥĿ
ĠìĬ µ
ì°¨ ìĿ´ì¦Ī
ĠìĿ¼ ë¶Ģ
ëĭĺ ëĵ¤
Ġìĺ¬ ë¦¬ê³ł
Ġìĸ´ ìĤ¬ì¶ľëĺĲ
Ġë°° ì¶Ķ
ì¤ĳ ê°Ħ
íķĺê¸° ìĹĲëıĦ
ĠìłĲ ìĿĢ
Ġë¶Ħëĵ¤ ê»ĺ
ĠëĬĲëĤĮ ìľ¼ë¡ľ
ìĭłë¦¼ ìłĲ
Ġì» µ
Ġê°Ķ ëĭ¤
ĠìŀĲìĦ¸ íķľ
Ġê´ĳ ìĸ´
Ġì§ģìĽĲ ë¶ĦìĿ´
Ġë¬´ë£Į ë¡ľ
ĠìĿ¸ê·¼ ìĹĲ
Ġì¼Ģ ìĸ´
Ġë©Ģ ë¦¬
ĠìĥĪì½¤ ëĭ¬ì½¤
Ġêµ¬ë¹Ħ ëĲĺìĸ´
ĠìĻł ì§Ģ
ë³´ë¦¬ íĬ¼
ľ ©
ê³ł ì¶Ķ
ìł ł
Ġë§Ľ ëĤĺ
ì£¼ ìĭľë©´
Ġìĭłë¦¼ ëį°ìĿ´íĬ¸
Ġíķ ĳ
ĠìķĪ ìłķ
ĠìĿ¸ ëıĦ
ĠìłĦ ë§Ŀ
Ġë§Į ëĵľ
Ġì£¼ë¬¸ íķ´ìĦľ
ĠíĬ ¸ë¦¬
Ġë°° ì¹ĺ
ĠëĳĲ ê°Ģì§Ģ
Ġë°©ë¬¸ íķ´ë³´
ĠìĪł ìĿ´
íı¬ ìŀ¥
ĠìłĲ ìĿ´
Ġë¶Ī êµ¬íķĺê³ł
ìłĪ ìŀĦ
íĽĦ ëĿ¼ìĿ´
´ë© Ķ
Ġëĭ¹ ê·¼
Ġê¸°ë³¸ ìłģìľ¼ë¡ľ
ëª© ìĤ´
Ġê³¨ ëŀĲ
Ġë°± ëħĦ
ĠëĴ¤ ìĹĲ
ĠëĴ¤ ë¡ľ
Ġì¡°íķ© ìĿ´
ëĥĲ ê³ł
Ġê°ĦíĮĲ ìĿ´
íħĲ ëį°
ĠëĮĢë¡ľ ë³Ģ
ĠìķĦê¸° ìŀĲê¸°
ĠìŀĶë ľ©
Ġë°ķìĬ¹ì²łíĹ¤ìĸ´ ìĬ¤íĪ¬ëĶĶìĺ¤
ì§ ±
Ġíķĺ ëĭ¤
Ġíķĺ ëĬĺ
ëĮĢ ë°©
Ġë³´ ìĿ¼
Ġì¶ ķ
ĠìĨĮ ìļĶ
ĠìłĦ ì£¼
Ġëĵ¤ ê¹¨
ĠìĽĲ ëĳĲ
ëĲĺ ìĹĪ
ìĿ´ëĿ¼ ëĭĪ
Ġê³µ ìľł
ì²ľ ìĽĲ
Ġì¤ĳ ëıħ
Ġìĺ¬ íķ´
Ġë¬´ ì²Ļ
ĠíĮĮ ì±Ħ
ĠíĶ¼ íĭ°
Ġê°ĢëĬ¥ íķĺëĭ¤
ê²ĥ ìĿ´
ëĶĶ ìħĺ
Ġëĭ¬ ëł¤
´ë© °
ĠëĦĺ ìĸ´
ĠìĦ¤ ëłĪ
ĠìĹĲ ê·¸
ìľ¡ ìĭĿëĭ¹
ëľ ¸
Ġíķ´ì£¼ ìĦ¸ìļĶ
Ġë§Įëĵ¤ ìĸ´ì£¼
ĠìĿ´ìłľ ëĬĶ
ĠëĮĢíķĻ ê°Ģ
ĠìĹħ ë¬´
Ġëĭ¨ì²´ ìĦĿ
ĠìĤ´íİ ´ë³
Ġë£¨ íĶĦíĥĳ
Ġìķ¼ëĵ¤ ìķ¼ëĵ¤
Ġì Łģ
Ġìŀ Ĭ
ìĸ´ ë¨¹
ë© Ķëī
ë° į
ì§ĳ ìĹĲìĦľ
ìĿ¸ ê±°
Ġê·¸ ëıĻìķĪ
Ġëĭ¤ ë§Į
Ķë ĥ
Ġë³´ ìĿ¸ëĭ¤
ĠìĽ ĥ
Ġë§ĽìŀĪ ëįĶëĿ¼ê³łìļĶ
ë§Ī ì¹´
ĠìłĦ ë°ĺ
ìĥģ íļĮ
Ġìŀĺ ëª»
Ġì£¼ë¬¸ íķł
Ġíģ¬ ê¸°
ĠìĦ¸ ë¸ĮëŀĢìĬ¤
ê°Ĳ ìŀĲ
Ġëĵľ ìĭľëĬĶ
Ġìŀ¥ êµ°
ĠíĮĮ ë³´ë¦¬íĬ¼
Ġì¢ĭìķĺ ê³ł
Ġì²ĺ ëŁ¼
Ġë¹ł ë¥¸
ĠëĲĺìĸ´ ìŀĪ
Ġê°ģ ìŀĲ
Ġë¿ Ĳ
ĠìļĶì¦ĺ ìĿĢ
Ġê´Ģë¦¬ ë¥¼
Ġìµľê³ł ìĿĺ
Ġìŀł ê¹Ĳ
ĠëĬĺ ìĸ´
ê°ĳ ëĭĪëĭ¤
Ġì¡´ë§Ľ íĥ±
Ġíģ´ë ŀĺ
ĠìķħëıĻ íı¬ì°¨
Ġë°¸ ëŁ°
ìĹ £
ëıĦ ìĤŃë©´
ëĭĪ ê°Ģ
ê°Ģ ë¥¼
ìł ĵ
Ġìĭł ê·ľ
ìľ¼ ëŁ¬
ìĭľ ëįĶëĿ¼êµ¬ìļĶ
ì¹ ¸
ì£¼ ë¬¸
ìĥ ¤
Ġì¢ĭ ê²łëĭ¤
Ĳĺ ìĸ´
ĠìĨĮ íĻĶ
íĸĪ ìĿĦ
ìĺ¤ ê³ł
ìĺ¤ ëĬĺ
íĺ ľ
Ġìłľ ê±°
ĠìĹĨ ìĸ´ìļĶ
ĠìĹĨ ì§Ģë§Į
Ġìĸĳ ê½ĥ
Ġë¹Ħ ìĭ¼
Ġê°ľ ë³Ħ
ì§Ī ìĿ´
ĠìļĶ ì²Ń
Ġìĸ´ ìłľ
Ġìĺģ ìĪĺì¦Ŀ
ĠëĤĺìĺ¤ ë©´
Ġê¹Ģ ê°Ģë£¨
Ġê±´ ì¶ķ
Ġìĸ¼ ê·¸ëłĪìĿ´
Ġì¹ľêµ¬ ëĬĶ
Ġì¡°ê¸Ī ìĶ©
Ġìĺ¬ëĿ¼ ê°Ħ
ĠìĻĶ ëĭ¤
ĠíĨł ìļĶìĿ¼
Ġì°½ ë¬¸
Ġê³łë¯¼ íķĺëĭ¤ê°Ģ
ĠìĬ¤íĥĢ ë²ħ
ë³¶ìĿĮ íĥķ
ĠíĮ¨ íĭ°
Ġìĵ ´
Ġê¼¼ê¼¼ íķĺê²Į
ĠìĿ´ë£¨ ìĸ´
ĠíĮĮìĿ¸ìķł íĶĮ
ĠíħĮìĿ´ íģ¬
® ¤
Ġì ³
íķĺ ìĺĢìĬµëĭĪëĭ¤
êµ ¿
ìĭľ ëĤĺìļĶ
Ġìĭłë¦¼ ìĹĲ
Ġì£¼ ê³ł
Ġíķĺ ëįĶëĿ¼ê³łìļĶ
ĠìĦľ ë¡ľ
ìĦ¸ ëĮĢ
ĠìĿ¸ ìĽĲ
Ġë°Ķ ëĤĺ
ĠëĲĺ ì§Ģ
ìĹ¬ íĸī
íĨ ±
Ġì£¼ë¬¸ íĸĪëĬĶëį°
Ġì¤ĳ ìĹĲìĦľ
Ġê°ľ ë°©
ĠëĤ´ ë¦¬
Ġëĭ¤ìĸĳ íķĺê³ł
ìĺģ ìłĲ
Ġë´ ħëĭĪëĭ¤
Ġë§ŀ ìĿĢ
Ġê°Ī ìķĦ
ĠìĦ¤ ê³Ħ
ëģ¼ ë¦¬
ĠëłĪ ìĬ¤íĨł
Ġê¶ģ íķ©
Ġëĵ¯ íķľ
ĠíĮĲë§¤ íķĺê³ł
Ġëģĵ ìĹ¬
Ġíĥķ ìĪĺìľ¡
ĠìĿ´íĻĶìĹ¬ ëĮĢ
Ġê¹į ëĳĲ
Ġëħ¸íĬ¸ ë¶ģ
ì ı
ì ĵ
ë¦ ī
ĠìķĦ ë¦Ħ
Ġë³´ ê¸Ģ
Ġíķľ ë§Ī
Ġìłķ ìĭł
Ġê°Ļ ëĦ¤ìļĶ
ë§Ī ëĬĺ
ë§Ľ ëıĦ
ìĨĮ ê³±ì°½
ìłĦ ê³¨
ìĸĳ ëħĲ
ì½ Ķë
Ġíĥ ģ
ë©´ìĦľ ëıĦ
Ġë°° íĽĦ
Ġì½ ĶëĦĪ
ĠëĤ´ë Ĥ
Ġëĭ¤ìĿĮ ìĿĢ
Ġëĭ¤ìĿĮ ìĹĶ
Ġë³¶ ìĿĮ
Ġì§Ħíĸī íķĺê³ł
íı Ń
ĠìķĦìĿ´ ìĬ¤íģ¬ë¦¼
´ëĿ¼ ê³ł
Ġë°Ģ íģ¬
Ġì«Ħê¹ĥ íķľ
Ġê¸°ìĸµ ìĿ´
ì«Ħ ê¹ĥ
± ĥ
Ġí ĮĢ
ĠìĿ ĳ
ëĿ¼ ìĽĮ
ĠìĦ Ń
ì£¼ ìĭł
ĠìĪĺ ìłĢ
ì² ´ë¥¼
Ġíķĺ ê²łìĬµëĭĪëĭ¤
ĠëĦ Ĳ
Ġìĭłë¦¼ìĹŃ ì¹´íİĺ
Ġë§Ī ê°Ĳ
ĠìĨĮ ê°Īë¹Ħì°ľ
ĠëĮĢ ì²´
ĠìĽĲ ì¡°
ĠëĲĺ ëĬĶëį°ìļĶ
ìĦł ìĥĿ
ê» ĳ
Ġìĥģ íĺ¸
Ġíİ ĺ
ìĸĳ ê¼¬ì¹ĺ
ĠìĹ° íĥĦ
ìłĢ ëħģ
Ġê°ľ ìĦł
Ġíģ¬ ê³ł
ê³µ ë°©
ĠìĤ´ ìĿ´
ë°Ķ ìĤŃ
Ġìłģ ìĸ´
Ġëħ¸ ë¦ĩ
Ġìĸ¼ ìĿĮ
ĠëĲľ ëĭµëĭĪëĭ¤
Ġë§¤ìŀ¥ ìĹĲìĦľ
ĠìĨĮìĬ¤ ëĬĶ
ĠìĨį ìĿ´
Ġì°įìĸ´ ë¨¹
ìĿ´ë²Ħ ìĦ¯
Ġìĭ¬ íĶĮ
Ġê°Ģê¹Į ìĽĮìĦľ
ĠìŀĲìĦ¸ ë¥¼
Ġë³´ë©´ ìĦľ
Ġìĭ¸ ìĦľ
Ġëı¼ì§Ģ ê°Īë¹Ħ
ĠìĿ´ë¥ ¸
ĠíĮĶë¡ľ ìĽĮ
ĠíĮĶë¡ľ ìŀī
ĠìĭłìĽĲ ìĭľìŀ¥
Ġëĭ¤íĸī íŀĪ
Ġê±´ë ĦĪ
ĠìŀĦíĶĮëŀĢ íĬ¸
ĠëŁ °
ĠìĬ¤íİĺ ìħľ
ë§Īì¹´ ìĦ¸
ìķ Ķ
ìĭľ ëĬĶëį°
ìĬ¤ íĤ¤
ĠìĪĺ ëĭ¤
Ġíķĺ ëŁ¬
ëĮĢ ê°Īë¹Ħ
Ġíķľ ìĭĿ
Ġë§İ ìķĺìĸ´ìļĶ
ìĦ± ìĿĺ
ĠìĹŃ íķł
ë¸ Ĳ
Ġë¹ Ľ
Ġìļ° ìĤ¼ê²¹
ìķĪ ê¸¸
Ġíİ¸ ìĿ¸ëį°
Ġëĭ¨ ëıħ
ëĳĲ ê³ł
Ġë¨¹ìĸ´ ë´¤ëĬĶëį°
Ġê°ķ ìĤ¬
Ġìĺģ íĸ¥
Ġë°ĺ ë³µ
Ġë¶Ī ê³łê¸°
ĠíĿ ¬
ĠíĿ °
Ġë§ŀ ìĿ´
ĠìĨĮìĬ¤ ë¥¼
Ġë¹ł ìł¸
ĠìĿĺ ë£Į
ĠëĪĦ ë¦´
Ġìķī ìĿĦ
Ġê²½ìļ° ìĹĲëĬĶ
ĠìŀĲìĦ¸ íŀĪ
ĠìĨĶ ìĨĶ
ĠìĿ´ëĤł ìĿĢ
ëŀĦ ê¹Į
ì¿ł íĤ¤
ĠëĬ¦ ìĿĢ
ĠìĬ¤íĦ°ëĶĶ ì¹´íİĺ
Ġíķ´ìĤ° ë¬¼
ìĿ´ ê¸°ëıĦ
ê¸° ë§Į
Ġë§Ľ ëĤľ
ĠìĿ´ ìĸ´ìĦľ
ĠìķĦ ìĭľì£ł
Ġì¢ĭ ìĿĮ
Ġìľ ¤
ë³´ ê¸Ģ
ĠìķĪ ìª½ìĹĲ
Ġë¶Ħ ëªħ
ìļ© ìľ¼ë¡ľ
Ġë§ĽìŀĪ ìĿĮ
Ġê¸° íĥĢ
ëįĺ ì§Ģ
Ġë§Į ìĦĿ
ì²ľ ì§ĳ
Ġìĸĳ ê°Īë¹Ħ
íĥĢ ë¡ľ
ìłĢ ê²ĥ
Ġíģ¬ ëłĪíİĺ
Ġíģ¬ ëĿ¼íģ´ëŀŃ
íĺ¸ ìĦł
Ġì¶Ķì²ľ íķĺëĬĶ
ĠíħĮìĿ´ë¸Ķ ë§Īëĭ¤
Ġë§¤ìŀ¥ ìĿĢ
Ġì¦Ĳ ê±°ìļ´
ĠíĶĦ ëŀľ
Ġë²ł ìĬ¤íĬ¸
ëĵ± íķĻêµĲ
Ġì²´ íĺķ
ĠëĪĦ ê°Ģ
Ġë¨¹ê¸° ë¡ľ
Ġê·Ģ íķľ
Ġê°ĢìĦ±ë¹Ħ ê°Ģ
ìłķëıĦ ë¡ľ
ĠìĿ´ë²¤íĬ¸ ëıĦ
Ġìĭľì¼° ëĬĶëį°
Ġì¤ĳê°Ħ ì¤ĳê°Ħ
Ġê°ĲìŀĲ íĬĢê¹Ģ
ĠëĳĺìĿ´ ìĦľ
ĠëĽ° ìĸ´
Ġì°Į ê°ľ
Ġê»į ëį°
ĠëłĪìĬ¤íĨł ëŀĳ
ìĿ´ ìĥģ
ìĸ´ ìļ¸
ê°Ģ ê²Į
ìĭľ íĶ¼
ìĬ¤ ìĿĺ
ëĤĺ ë©´
ê¹ ¥
ëŁ Ń
Ġìĭłì´ĮìĹŃ ë¯¸ìļ©ìĭ¤
ê· Ģ
ìĨĮ ê°Ģ
ìĨĮ íķľ
Ġë°Ķ ê¹¥
ĠëįĶ íķ´
ĠìĥĿ ìĿ¼
ìļ° ê³ł
ìłĦ íŀĪ
ìĪ ¯ë¶Ī
ìłľ ë¥¼
Ġë¹Ħ ë¡¯
ê± ´ë¬¼
Ġëĵ± ìĭ¬
Ġì°¸ ìĹ¬
ĠëĳĲ ë¦¬
ĠìĹŃìĤ¼ìĹŃ ìĹĲìĦľ
ìħĶ ìļĶ
ĠíļĮ ë³µ
ê³Ħ ëŀĢ
ë¥ĺ ìŀ¥
ĠíĨµ íķ´ìĦľ
ì¸ Ħ
Ġì¼ ĢìĿ´
ĠìķĪì£¼ ë¡ľ
ì¢ħ ë¥ĺ
Ġëª¨ìĬµ ìĿ´
ĠìłĢëħģ ìĹĲ
´ë° Ľ
ĠìĿ´ëĤ ´
ë¿ Ĳë§Į
Ġìľ¼ ëľ¸
ĠìĭľíĤ¤ ë©´
ĠíļĮìĭĿ ìŀ¥ìĨĮ
Ġì°° ëĸ¡
Ġíİ¸ìķĪ íķľ
ĠìĿ´ê²ĥ ìłĢê²ĥ
ĠëĥĦìĥĪ ê°Ģ
Ġë½ ĳ
Ġìłĵ ê°ĢëĿ½
Ġë³´ê¸Ģ ë³´ê¸Ģ
¨ ¸
² Ħ
¶ Ħ
Ġìĺ ®
ìĬ¤ ë¡ľ
ìķĦ ëħ¸
ëĤĺ ë²ł
ì² ¨
ĠìĦľ ìĦľ
Ġë© ´ë°
Ġëĵ¤ ìĹĪëĭ¤
Ġì§Ģ ë°©
ëĦ¤ ìļ©
ĠìĹĨ ëĬĶëį°
ĠëķĮ ê°Ģ
Ġì¡° ìłĪ
Ġì°¸ ìĪ¯
Ġì§ģ íĻĶ
ë¸Ķ ë¡ľ
Ġë°ĺ ë¯¸
ê±´ ëį°
Ġë¨¹ìĿĦ ìĪĺ
ëĲľ ëĭ¤
íĿ ¥
ĠíĨµ íĨµ
Ġê°Ī ë¦Ń
ĠíĻĺ ìĥģ
Ġì¶ľ íĩ´ê·¼
ìĿµ ìĬ¤
ì¢ĭ ê²Į
Ġíķ« íĶĮ
Ġê°Ħëĭ¨ íķľ
Ġì«Ħê¹ĥ ì«Ħê¹ĥ
Ġìĵ ¸
Ġì§Ń ì§¤
ìĹŃìĤ¼ ìĹŃ
ĠìµľëĮĢ íķľ
Ġíķ©ë¦¬ ìłģìĿ¸
ĠìĹī ëį©
ĠíķŃìłķ ìĤ´
ê² ¸
ë¦¬ ë¹Ħ
ëĤ Ń
ĠìĦ Ŀ
ìĿ¸ ëĵ¯
ë³´ ìĿ´ëĬĶ
ê°Ħ íĮĲ
Ġë§Ī ë²¨
ĠĠĠĠ ĠĠĠĠĠ
íĦ ±
ë¶Ħ ìľĦê¸°
ìļ° ëĭĪ
ĠëĲĺ ìĹĪëĭ¤
ĠëĲĺ ê²łìĬµëĭĪëĭ¤
ĠìļĶ ìĥĪ
Ġë¯¸ ëŀĺ
Ġë¨¹ìĸ´ ë´¤
ë§¤ ìļ´
ĠíĥĢ ì½Ķ
ĠëħĦ ëĮĢ
ĠíĻĺ ìĬ¹
íĺĦ ëıĻ
Ġì§Ģíķĺì²ł ìĹŃ
Ġìĥģíĥľ ë¡ľ
Ġë°Ģ ë¦¬ìĸ¸
Ġìķł íĶĮ
Ġëĵ¤ìĸ´ìĺ¤ ë©´
Ġë¬¸ìłľ ê°Ģ
ĠìĶ¹ ëĬĶ
ĠìķĬìķĺ ì§Ģë§Į
Ġì¤ĳêµŃ ì§ĳ
Ġëĭ¹ê³¡ ìĹŃ
ĠìĿ¸íĦ° ëĦ·
ë Į
Ġë Ŀ½
ìĿ´ ìĸ´ìĦľ
ì§ ¬ë½ķ
ëĭ¤ ê¸¸
ĠìŀĪ ê³łìļĶ
ĠìĿ´ ìģľ
Ġì£¼ ìĭľëĬĶ
Ġìĸ »
ì¹ĺ ê³ł
Ķë Ħ¤ìļĶ
ĠìĤ¬ ì£¼
íĬ¸ ëıĦ
Ġìĭľ ìĹĲ
Ġíķľ ê°ĢëĵĿ
ĠìĽ ¨
Ġë§ĽìŀĪ ìĬµëĭĪëĭ¤
ĠìĪ ¨
ĠìĥĿ ê¸°
Ġë©Ķëī´ ë¡ľ
ĠíĻĶ ëł¤
ĠìĥĿê°ģ ìĿĦ
ĠëĳĲ ê»ĺ
Ġê°ķ íķľ
Ġì°¨ ë¥¼
Ġê°ĢëĬ¥ íķĺê³ł
ëª¨ ìĬµ
ê°ķ ìłķ
Ġìķŀ ìĹĲìĦľ
Ġëģ Ĭ
Ġë¬¸ ìĿĦ
Ġëħ¸ ëł¥
Ġì²ĺìĿĮ ìĹĲëĬĶ
ĠìĤ¬ëŀĮ ëĵ¤
ĠëĤĺìĻĶ ëĬĶëį°
Ġíģ¬ë¦¼ ìĿ´
Ġì¡ ¸
Ġìľ¡ íļĮ
ĠìłĢëł´ íķĺê²Į
Ġê´Ģë¦¬ ë¹Ħ
ì¢ĭ ìķĦ
Ġëıħ ìĦľ
ëŀĦ ëĿ¼
Ġìľ¡ì¦Ļ ìĿ´
Ġìĸĩ ìĿĢ
Ġë³Ħë¹Ľ ìĭł
Ġëķħ ì½©
Ķëĥ ī
Ġê º¼
ìļ ¤
ëĭ¤ ëĭ¥
Ġë§ ¡
ìĬ Ĳ
Ġê°Ģ ìĬ´
Ġë¨¹ ì§Ģ
ëł Ĳ
Ġì£¼ ìħ¨
ĠìķĦ ë¬´ë¦¬
Ġìĺ¤ ëŀ«
ĠëĤĺ ë¬´
ĠìķĪ ìª½ìľ¼ë¡ľ
ĠìłĢ ê¸°
íĸĪ ëĬĶëį°ìļĶ
ĠìłĦ ë¶ĢíĦ°
íĦ° ê°Ģ
Ġìłľ ë²ķ
Ġëª¨ ëª¨
ìł¸ ìŀĪ
ë²Ħ ìĬ¤
Ġìĺģ ìĸĳ
Ġìŀ¥ ëĤľ
Ġìĸ´ë Ķ
ê²ĥ ê°Ļ
Ġì¹ĺì¦Ī ë³¶ìĿĮë°¥
ĠêµŃë¬¼ ìĿĦ
ì¦Ŀ ê¸Ī
ĠëłĪ ìĬ¨
Ġìŀ¡ ìķĦ
Ġì½Ķ ìĸ´
ê´ĳ ìĦĿ
Ġê·¸ëŁ¬ ëĤĺ
Ġì°© íķľ
Ġì·¨íĸ¥ ìĹĲ
ìŀĲë¦¬ ë·°
Ġìĺ¥ ìĪĺìĪĺ
Ġê³Ħëĭ¨ ìĿĦ
ĠíĿĳ ìŀĦ
íĺ¼ ë°¥
ĠíĴįë¶Ģ íķľ
ìłĦë¬¸ ìłĲ
Ġê³łìĭľ ìĽĲ
Ġíı¬ìĿ¸ íĬ¸
Ġì³ Ĳ
ëĬĶ ê²Į
ìĸ´ ë§Ī
ê°Ģ ìĬ´
ì§Ģ ìĻĢ
Ġê³ ¤
ì¹ Ļ
ĠìĪĺ ì¤Ģ
Ġëĭ¤ ë¦¬
Ġì£¼ ìļĶ
Ġíķĺ ìĹ¬
Ġìĭľ ìĦ¸
Ġíķľ ì°¸
Ġëį ¤
Ġë² Ĺ
ë£ ©
ìĺ¤ ë°ĺ
ĠìłĦ ìŀĲ
ìĦ± ë¹ĮëĶ©
ì°¨ ë¥¼
Ġìŀĺ ìĸ´ìļ¸
ê¸¸ ìĿĦ
Ġê³³ ëıĦ
ê²ł ëĭ¤ê³ł
ĠìŀĪìĹĪ ëĭµëĭĪëĭ¤
ĠëĤ´ ìĸ´ì£¼
Ġíİ¸ íķľ
Ġë°©ë¬¸ íĸĪëĬĶëį°
Ġë°©ë¬¸ ìŀĲë¦¬ë·°
ĠìĤ¬ì§Ħ ëıĦ
ĠëĿ¼ ìĿ´
Ġë¨¹ìĿĦ ëķĮ
Ġìłģ ìĿ´
íķ¨ ê³¼
ĠêµŃ ìĪĺ
ĠëĭŃ ëıĦë¦¬íĥķ
ê³³ ìĿ´
Ġë¬¸ ìĸ´
Ġë¶ĦìľĦê¸° ìĿĺ
íħĶ ëĿ¼
Ġê³µê°Ħ ìľ¼ë¡ľ
íİ¸ ìĹĲ
ĠìĤ¬ìļ© íķĺëĬĶ
´ëĤ ľ
Ġê°Ķ ëĭ¤ê°Ģ
Ġëĭ¤ìĭľ ë´Ħ
ĠìĭľìĽĲ íķĺê²Į
ëĦĪ ìĬ¤
Ġìĵ° ëĬĶ
Ġë¨¸ ë¦¿
Ġë¶Ģëĭ´ ìĹĨìĿ´
ĠìķĦìī¬ ìļ´
ê·ľ ëª¨
ìĬ¤íħ Ģ
ĠíĤ¤ìĺ¤ìĬ¤íģ¬ ë¡ľ
ĠëĬ¦ ê²Į
Ġê³łê°Ŀ ëĭĺ
Ġë¶Ħê±°ë¦¬ ìĹĲ
ëįĶëĿ¼êµ¬ ìļ©
ĠìĪĺì§Ģ ìĥģíļĮ
ë ±ħ
Ĩ ĵ
Ł ê°ĢëĿ½
ìĹ ´ë
Ġë§ ĳ
ìĦľ ëĬĶ
ì§Ģ ê¸°
ĠìŀĪ ì§Ģ
ìľ ¨ìĿ´
ë¬¸ íĻĶ
Ġì° ¹
Ġíķ µ
ĠëĤĺ ê³ł
Ġë§Ī ë¬´
ìĤ¬ ëŀĮ
ĠìĨĮ ê°Īë¹Ħ
íİĺ ìĿ´
ĠìķĬ ìķĺëĭ¤
ĠëĲĺ ìĸ´ìĦľ
ëŀĳ ìĿ´
Ġê³µ ëıĻ
ĠëıĦ ìĽĢìĿĦ
ë²Ħ ë¦°
ìĨ ¥
ĠëĳĲ ê³ł
ë¸Ķ ë¦¿
Ġë°ĺ ë°ĺ
ĠíĶ¼ íĬ¸ëĭĪìĬ¤
Ġì°¨ ìĿ´ê°Ģ
ĠìĤ¬ì§Ħ ìľ¼ë¡ľ
Ġì»¤ ìĬ¤íħĢ
Ġê¹Ģ ê´ĳìĦĿ
íĽĦ ê¸°
Ġê³µê°Ħ ëıĦ
Ġê°Ģê²Į ê°Ģ
Ġë©Ķëī´íĮĲ ìĿ´
Ġêµ¬ìĽĮ ìĦľ
ëĬĲ ëĤĮ
ĠìĹ°ìĦ¸ë¡ľ ìķĪê¸¸
Ġë°ĶìĤŃ íķĺê³ł
ĠíĻįëĮĢ ìŀħêµ¬ìĹŃ
Ġê³¨ëª© ìľ¼ë¡ľ
Ġíķ« íķľ
ëĺ ¥ì§ĳ
Ġëĸł ìĺ¤
ì¤ĺ ìĦľ
ëĨĵ ê³ł
Ġíĸīë³µ íķľ
Ġë°°ë¶Ģ ë¥´ê²Į
Ġëļľ ê»ĳ
ĠìľłëıĻ ìĿ¸
Ġìĸ´ì°Į ëĤĺ
ĠìŁģ ë°ĺ
ĠíħĮìĿ´íģ¬ ìķĦìĽĥ
Ġë³Ħë¹Ľìĭł ìĤ¬ë¦¬
íķľ ìĿĺìĽĲ
Ġìĺ Ģ
Ġë§Ľ ê³¼
Ġë¨¹ ëĬĶëį°
Ġíķĺ ìĸĢ
Ġìĭľ ìŀ¥
Ġê³ł ìłķ
ë³´ ëĭ¨
Ġì¶ ¥
ìļ´ ì§Ģ
ìĭĿ ìĤ¬
ĠëįĶ ëįĶ
ĠìĹĨ ìĹĪ
ĠìĹĨ ìĿĮ
Ġêµ¬ ìŀħ
ĠìĬ¤ íĨł
ìķĪ ìĹĲ
ĠíĽĦ íļĮ
ì§ľ ë¦¬
Ġìļ´ íĸī
íĶĮ ëłī
ĠìĤ¬ì§Ħ ì°į
Ġë¨¹ìĿĦ ê¹Į
ĠíħĮìĿ´ë¸Ķ ìĿĢ
Ġë§¤ìŀ¥ ìĹĲ
Ġìŀĳ ëħĦ
ĠìĹĦì²Ń ëĤĺê²Į
Ġë¦¬ ëª¨
ĠëłĪ ëĵľ
Ġë¨¸ë¦¬ ê°Ģ
ĠíĶ¼ìŀĲ ëª°
ĠìĦľë¹ĦìĬ¤ ë¥¼
Ġëª¸ ìĿ´
Ġê°Ħëĭ¨ íŀĪ
íļ ¨
Ġê³± ëıĦë¦¬íĥķ
ĠëĦīëĦī íķĺê²Į
íĥ± ê¸Ģ
Ġìµľê·¼ ìĹĲ
Ġë¹Į ëĶ©
Ġëĭ´ë°± íķľ
ĠìķĦë¬´ íĬ¼
Ġìĸĺ ê¸°
ĠíĿ¥ ë¶Ģ
ĠëĪĮ ëŁ¬
ĠëĤĺìģĺ ì§Ģ
Ġìĸ´ë§Ī ìĸ´ë§Ī
ëĴ ¤
ĠìĬ¤íĥĢë²ħ ìĬ¤
¤ ìĦ¬
í ĮĢ
ìĿ ĳ
Ġê° ¬
ê°Ģ ê³ł
Ġìķ ¡
Ġìĥ µ
Ġíķĺ ëĭĪê¹Į
ëĵľ ë¦¼
Ġê³ł ì¶
ë¹Ħ ìĹ£
Ġë§Ī ìĬ¤íģ¬
ë§Ī ìĿĦ
ìĦ± ê³¨
Ġì§Ħ ëĭ¨
ĠìĹĨ ìĹĪìĸ´ìļĶ
ìĿ´ëĿ¼ ëıĦ
Ġíİ ´
Ġìŀħ ê°Ģ
ĠëıĦ ìļ°
Ġíĥ ĢìĿ´
Ġíı¬ ê¸°
Ġíı¬ ë¹ĦìĹ£
Ġëĭ¨ ë°±
Ġì°¸ ê¸°ë¦Ħ
ëŀĢ ëĭ¤
Ġëĵľ ìĭľê³ł
Ġì°¨ ë¶Ħ
Ġê°ĢëĬ¥ íķĺëĭ¤ê³ł
ĠìķĦëĭĪ ë©´
ëĭ¬ ëĿ¼ê³ł
Ġëĵ¤ìĸ´ê°Ģ ìŀĲë§ĪìŀĲ
Ġë°¥ ìĿ´
ĠìĨĮìĬ¤ ìĻĢ
Ġì¹ľêµ¬ ëĵ¤
ĠìĹĦì²Ń ëĤľ
íķ´ì£¼ ìħĶìĦľ
Ġíķľë²Ī ìĹĲ
ĠìĿµ ìĸ´
ĠìĿµ ìĪĻ
ì´Ī ì½Ķ
Ġì²Ń ìĸĳ
Ġë¨¹ìľ¼ ëł¤ê³ł
Ġì§Ģê¸Ī ê¹Įì§Ģ
Ġë¸Ķë¡ľê·¸ ë¦¬ë·°
ìĭ¶ ìĿĢ
ĠìķĦëĭĮ ê°Ģ
ĠìĤ¬ìĿ´ëĵľ ë©Ķëī´
ĠëĮĢíķĻ êµĲ
Ġìŀ¥ìĨĮ ë¡ľ
Ġì¶©ë¶Ħ íķľ
Ġê¹¨ëģĹ íķĺê²Į
Ġê³łê¸ī ìĬ¤ëŁ¬ìļ´
Ġíĳľ ìĭľ
Ġê°ĳ ëĭĪëĭ¤
Ħ¤ ìĥģ
ĠìĿ´ë¥ ¼
ĠìĹĲìĸ´ ì»¨
Ġíĥ±ê¸Ģ íĥ±ê¸Ģ
Ġíķĳ íģ¬
Ġë°ĶëĤĺ ëĤĺ
ë ī´
ìĿ´ ìĻĢ
ìĦ Ń
íķĺ ê²łìĬµëĭĪëĭ¤
ê²Į ìŀĦ
ê²Į íĭ°
ĠëĤ Ń
Ġê² ¬
Ġì¢ĭ ì§Ģë§Į
Ġì¹ ¸
ëĵľ ê°Ģ
ĠëĤĺ ë©´
ìŀĲ ê³ł
Ġê³ł ë¥¼
Ġê°Ļ ëįĶëĿ¼êµ¬ìļĶ
Ġë§¤ ë²Ī
ë§Ī ì¹´ë¡±
ĠìĦľìļ¸ ìĹĲìĦľ
ëł¤ ë©´
ëĲĺ ì§Ģ
ĠìķĬ ìĬµëĭĪëĭ¤
ëŀĺ ìļĶ
Ġì¡° ìĦ±
Ġìĸĳ ì§Ģ
Ġëĵ¤ìĸ´ ìŀĪëĬĶ
ê± ¸ë¦¬
ë°© ë²ķ
ĠìļĶ ê±´
Ġë¨¹ìĸ´ ë³¼
Ġê°Ħ ë§ĮìĹĲ
Ġíı ¼
Ġìļ´ëıĻ ìĿĢ
Ġìļ´ëıĻ íķĺëĬĶ
ĠìĿ´ìļ© íķĺëĬĶ
ìĹ° êµ¬
Ġê±¸ ìĸ´ê°Ģ
ĠìĹĲ ìĿ´
ìľ¡ ë©´
ĠìĤ¬ëŀĮ ìĿĢ
ìĦ¤ ëłģíĥķ
Ġìĭłë¦¼ëıĻ ê¸¸
ĠëĪĦ êµ¬ëĤĺ
Ġì¢ħë¥ĺ ë³Ħë¡ľ
Ġìŀ¡ ëĤ´
ĠìłĢëħģ ìĿĦ
Ġêµ¬ìĽĮ ì§Ħ
Ġë³¶ìĿĮë°¥ ìĿĦ
ĠìĭľìĽĲ íķĺê³ł
ê°Ķ ëĭ¤
ĠìħĢíĶĦ ë¡ľ
ëĳ ĺ
ĠíĻĶìŀ¥ìĭ¤ ëıĦ
Ġê°ĸ ì¶°
Ġíģ´ ë¦Ń
ĠíĬ¸ ëŁ¬
Ġìĸ´ëĬĲ ìłķëıĦ
Ġê¹¨ëģĹ íķľ
Ġêµ¿ êµ¿
Ġë§ŀì¶° ìĦľ
Ġë°Ŀ ìĿĢ
ĠìĬ¤íģ¬ ë¦°
İ Ħ
ìĿ´ íģ¬
ì§ ł
íķĺ ìĺĢ
ë© ľ
ìķĦ ëĭĪ
Ġìĭłì´Į ìŀ¥
Ġë¶ ī
ìĿ¸ ìĿĺ
ìĿ¸ ë¶Ħ
Ġì£¼ ëª©
Ġì¹ ´ëĿ¼
ĠìĤ¬ ë¦¬
Ġë¬ ´ëĤľ
ĠìłĢ ì²ĺëŁ¼
Ġê¸° íļĮ
ìĽĲ ìĿĦ
ìĭĿ íĥģ
Ġë¶Ģ ê·¼
ìĪ Ń
Ġì¡° ê±´
íĥĢ ìĿ´
Ġë¹Ħ ê°Ģ
Ġíĥ Ĳ
Ġê³³ ìĿ¸ëį°
Ġì¤ĳ ìĹĲìĦľëıĦ
ëłĪ ìĿ¸
Ġëĵ± ê°Īë¹Ħ
Ġì¹´íİĺ ìĹĲ
ĠëıĻ ìĿ¼
Ġìŀ¥ ì¹ĺ
Ġìŀ¥ ìłĲìĿ´
Ġì§ĳ ìĿ´
Ġì´Ī ë²Į
Ġëĭ¬ ë¦¬
Ġìµľ ìķł
Ġë¬¸ ìĦ±ê³¨
ĠëĤ´ë¶Ģ ëıĦ
ĠìŀĲë¦¬ ëıĦ
ĠìŃĪ ìļ±
Ġì¦Ĳ ê¸°ëĬĶ
ìłĳ ìĭľ
ëĪ Ħ
ĠëģĿ ëĤ´
ì¡Į ìĬµëĭĪëĭ¤
ĠìĿ´ê³³ ìĹĲìĦľ
ìĪľëĮĢ íĥĢìļ´
ĠìĿ´ë¯¸ ì§Ģ
Ġíı¬ìĬ¤íĮħ ìĿĦ
Ġì§ľ ìŀĶ
Ġëĳĺ ëĭ¤
Ġìĭľì¼ľ ìĦľ
ĠìĿ´ë¦Ħ ìĿ´
ĠìĭłìĦł íķĺê³ł
Ġë´¤ ëĬĶëį°
íļ Łì§ĳ
ĠìĪĺëıĦ ê¶Į
Ġì¢ĮìĦĿ ìĿ´
ĠìĪĺìļĶ ê°Ģ
ĠíĶĦë¡ľ ê·¸ëŀ¨
ëķ Ĳ
ĠìĬ¤ì¿¼ íĬ¸
íĶĦë¡ľ íķĦ
Ġë·° íĭ°
ĠíĬ¸ëłĪìĿ´ ëĭĿ
Ġê¹ľ ì§Ŀ
Ġë¥´ë Ħ¤ìĥģ
Ġë°±ëħĦ ëĭ¹
ĠíĶĦëŀľ ì°¨ìĿ´ì¦Ī
Ġë©´ë° ľ
ĠíĿĳìŀĦ ìŀĲ
ë ī
ì Į¤
ëı ĮìĿ´
ë¡ ¬
ë¡ľ ê°Ģ
ìķ ķ
íķľ ëĭ¤ë©´
Ġì§ Ŀ
ìķĦ ìĿ´
Ġìĭłë¦¼ ë³¸ìłĲ
Ġìĭłë¦¼ ì¶ĺ
ë¶ Ļ
ĠìĿ´ ìĥī
ĠìĪĺ ìľ¡
Ġê·¸ ëĤĺ
Ġìĺ¤ ë§Īì¹´ìĦ¸
Ġê³ł ìĸĳ
ë³´ ìŀĲ
ìłĲ ìĭ¬
Ġëį ®
ĠìķĪ ìĹĲëĬĶ
Ġìłķ ê°Ī
Ġë§İ ì§Ģ
Ġê°Ļ ê³ł
ĠëįĶ ìĬ¤íĥĢ
Ġë¶Ģ ëĮĢì°Įê°ľ
ìłľ ê°Ģ
Ġìĥģ ì²´
Ġì¡° ìĭ¬
Ġìĸĳ ê³łê¸°
Ġìļ° ëĮĢê°Īë¹Ħ
ë¨¹ ê¸°
ë£Į ë¥¼
ĠíĽĦ ëĿ¼ìĿ´
Ġê°ķ ëł¥
Ġíĺ¸ ìŀ¬
ĠëıĻ ë°ĺ
Ġë°ĺ ê°ĳ
ìª½ ê°Īë¹Ħ
Ġì§ĳ ìľ¼ë¡ľ
íĮĮ ê²Įíĭ°
ĠìĹ¬ê¸° ìłĢ
ĠìĺĪìķ½ íķĺê³ł
ĠëĭŃ ë³¶ìĿĮíĥķ
ĠëĤł ìĿĢ
ĠìĹĲ ìĿ´ëĵľ
Ġê°ģ ë§ī
ĠëĬĲëĤĮìĿ´ ëĿ¼
Ġê±´ë¬¼ ìĿ´
ĠíķĦëĿ¼íħĮìĬ¤ ëĬĶ
ĠìłĦì²´ ìłģìĿ¸
Ġë²łìĿ´ ê¸Ģ
Ġëª¸ ìĹĲ
ĠíĻĶìŀ¥ìĭ¤ ìĿ´
ĠëĨĵ ê³ł
Ġë³´ìĹ¬ ëĵľ
Ġíİ¸ë¦¬ íķľ
Ġë¨¹ìľ¼ëĭĪ ê¹Į
Ġíİ¸ìķĪ íķĺê²Į
Ġë¶ĪíĮĲ ìĹĲ
Ġìŀħë§Ľ ìĹĲ
Ġìĩ¼íķĳ ëª°
ê²ģ ê²Į
Ġìĸ´ì© Ķ
ĠìĬ¤íĬ¸ëłĪ ì¹Ń
Ġë¹ĦìĬ· íķľ
ĠìłķíĻķ íķľ
Ġì§ľìŀ¥ ë©´
ĠëĤ´ëĤ ´
±ĥ ìĤ´
Ġë¥´ëĦ¤ìĥģ ìĬ¤
íķ Ģ
ê° Ĵ
Ġë§ ¥
ìł Ŀ
Ġìķ ±
ëĤĺ ë´ĲìļĶ
Ġì£¼ ê¸°
Ġíķĺ ìħĶìĦľ
Ġíķĺ ëħ¸
Ġê² ģ
ëĵľ ë¡ľ
Ġìĭľ íĤ¬
Ġíķľ ëį°
Ġìłķ ìĭĿ
ìĤ¬ ìĿ´
Ġëĵ¤ ìĹĪìĬµëĭĪëĭ¤
ë¶Ħ ëĭ¹
ìĨĮ ê³łê¸°
Ġê²ĥ ì²ĺëŁ¼
Ġê¹ ĬìĿĢ
ë¯¸ ëĤĺ
ëĦ¤ ë§Ī
Ġê±° ëĿ¼
Ġë¹Ħ ë°Ģ
ĠìĹ° ì¤ĳ
ìľĦ ë¡ľ
ë°© ìĹĲ
ë¥´ íĬ¸
ĠìķĮ ì°¨
ĠëĶ° ëģĪ
ĠíĶ¼ íģ´
ë²Ī ì¶ľêµ¬
Ġê°ĢëĬ¥ íķĺ
ĠêµŃ ëĤ´ìĤ°
ëķĮ ëĬĶ
ĠíĺĦ ëªħ
Ġëª» ë¨¹
ĠíĬ¹ ìłľ
Ġë§ĽìŀĪëĬĶ ê±°
Ġë¦ °
ĠìĿĮìĭĿ ìĿĢ
Ġì¡°ê¸Ī ë§Į
ê¼ Ī
ĠĠĠĠĠĠĠĠ ĠĠ
ìĭłë¦¼ ëıĻ
Ġëĭ´ ê²¨
Ġê¸¸ ìĹĲ
.... ....
ë·° íĭ°
ë°° ê¸°
ĠìĿ¸ë¶Ħ ìĿĦ
ëĪĪ ìĹĲ
ĠìĭĿê°Ĳ ëıĦ
Ġíŀĺ ìĿĦ
Ġë§µ ê¸°
ĠëĤ¨ë¶ĢìĪľíĻĺ ë¡ľê¸¸
ë°Ľ ê³ł
ĠëĶ°ëľ» íķĺê²Į
ĠíĻľ ëıĻ
ĠíĥĦ íĥĦ
ìĤ¬ì§Ħ ê´Ģ
Ġê¿Ģ ë§Ľ
Ġì¦Ĳê¸° ê³ł
ĠìŀĲìĹ° ìĬ¤ëŁ½ê²Į
Ġê¸°êµ¬ íķĦëĿ¼íħĮìĬ¤
Ġêµ½ ëĬĶ
ĠíĿ¡ ìĪĺ
Ġê°Ģê¹Ŀ ê³ł
ĠìĭłìĽĲ ë¡ľ
Ġíĺľ íĥĿ
ĠëłĪìĿ¸ëĵľëŀį ì»¤íĶ¼
ê°Ģ ìĹĲ
ìĬ¤ íħĮ
ì£¼ ìħ¨
ĠìĿ´ íķ´
ìŀ¥ ê³¼
Ġíķĺ ëĬĶëį°ìļĶ
Ġíķĺ ìĭľë©´
Ġíķľ ëĭ¤ê³ł
ìĦ¸ ë¥¼
ĠìĿ¸ ìĦĿ
ĠìłĦ ìĭł
Ġê²ĥ ìŀħëĭĪëĭ¤
Ġë§Ľì§ĳ ìĿ¸
Ġì² Ļ
ĠëįĶ íĶ¼ìŀĲ
ĠìĪ Łê°ĢëĿ½
ĠìĥĿ ìĦł
íİĺ ìĿ´ì§Ģ
Ġë©Ķëī´ ìĿ¸
ĠìĬ¤ íĶ¼
Ġë¹Ħ ìļ©
ĠìĦł ë¶Ī
Ġìļ° ì¸¡
Ġì¢ĭìķĦ íķĺ
Ġëĭ¨ ìĪľ
ìĤ° ìĨĮ
Ġìĭ¶ ëĦ¤ìļĶ
Ġìĭ¶ ìĹĪëįĺ
Ġê·¼ ë¦°
Ġë°©ë¬¸ ìĿĦ
ĠìĦłíĥĿ íķł
ĠìĹŃìĤ¼ìĹŃ ë§Ľì§ĳ
ĠëĿ¼ ìĿ¸
Ġìłģ íķ©
Ġíı Ĳ
ĠìĿ´ìļ© íķ´ìĦľ
ì§ģ ìĺģìłĲ
ĠíĿ ī
ìĬ¤íĥĢ ìĿ¼
Ġëª© ìłģ
ĠêµĲ ìľ¡
ĠëģĿ ëĤĺê³ł
ĠìłĢëł ĩê²Į
Ġê°Ģê¹Į ìĿ´
ëĳ ł
ëŁī ìĿ´
íĻ© ìĨĮê³±ì°½
Ġê³¨ëª© ìĹĲ
Ġëª¨ë¥´ ê²ł
Ġë¶ĢëĵľëŁ½ ê²Į
Ġíĳľ íĺĦ
ë³´ë ł¤
Ġë°ľê²¬ íķľ
Ġë²ĦìĬ¤ ìłķ
ĠìĬ¤ì¿¼ íĬ¸ë¥¼
ĠíħĮíĹ¤ëŀĢ ë¡ľ
Ġì ¥
ëĭ Į
ëĬĶ ê±°
ê³ °
ê³ł ê¹ĥì§ĳ
íķĺ ëł¤ê³ł
ëĿ¼ ë¯¸
Ġë§Ľ ìľ¼ë¡ľ
Ġê°Ģ ë²¼
ìķĦ ë¦¬
Ġìĭłë¦¼ ì¹´íİĺ
Ġë¨¹ ëĭ¤
ĠëĤĺ ëĭĪ
ìŀĲ ëĬĶ
ê³¼ ìĿĺ
Ġíķľ ëĪĪìĹĲ
Ġë§İ ìķĺëĭ¤
ìĤ¬ ë¬´ìĭ¤
ĠìĨĮ ë¦¬
ëħ Ķ
ìĥģ ê°Ģ
ĠìĽĲ ìĿ¸
ĠìĿ¼ ìĭĿ
Ġë²Ī ìĹĲ
ê»ĺ ìļĶ
ĠëĳĲ êº¼
Ġëĵľ ë¦¬ê³ł
Ġì¤ ĺ
ìĻĶ ëĭ¤
Ġíķł ìĪĺ
Ġê°ĢëĬ¥ íķ´ìļĶ
Ġì¶Ķì²ľ íķ´
ë°Ķ íĥĢ
Ġë¬¼ ê±´
Ġë¬¼ ìĶ¬
Ġë°¥ ìĿ´ëŀĳ
íĹ ¬ìĬ¤
Ġë¦¬ ìĸ¼
ĠëĬĲëĤĮ ëıĦ
ĠìĿĺ ë¯¸
ë°± ìĪľëĮĢ
Ġê°Ķ ëįĺ
ĠìĻĶ ëĬĶëį°
ë´Ĳ ëıĦ
Ġë¿Į ë¦¬
Ġë°ĶìĤŃ ë°ĶìĤŃ
Ġê°ĸ ê³ł
Ġëª¨ìŀĦ ìŀ¥ìĨĮ
Ġìĥģëĭ´ ìĿĦ
Ġëĭµ ê²Į
ĠíĽĮ ëŀĦëĿ¼
ĠìĬ¤íĬ¸ëłĪ ìĬ¤
ë§ĪëĿ¼ íĥķ
Ġìŀħê°Ģ ìĭ¬
Ġìĭłë¦¼ì¶ĺ ì²ľì§ĳ
´ Ĳ
ëıĦ ëĬĶ
Ġìĭł ë©Ķëī´
ê¸° ê°Ħ
ë¦¼ íĶĦ
Ġê·¸ ë¦´
Ġê·¸ ëŁ´
Ġì£¼ ìĥģ
ĠìķĦ íģ¬
ĠëĤĺ ìĿ´
Ġë³´ ì¦Ŀê¸Ī
ĠìĽ ¬
ĠìķĪ ë°©
ĠìķĪ ëħķ
Ġë¶Ħ ëıĦ
íĮ ¡
Ġë§ĽìŀĪ ìĹĪìĬµëĭĪëĭ¤
Ġë§İ ëįĶëĿ¼êµ¬ìļĶ
ë¬´ íľ´
ĠìľĦ ì£¼ë¡ľ
Ġë§Ľì§ĳ ìĿ´ëĿ¼
Ġìłľ ìĻ¸
Ġëª¨ ìĹ¬
ĠëĲĺ ëĭĪ
Ġêµ¬ ìĹŃ
Ġê³µ ìĭ¤
Ġë¹ Ļ
Ġì¤ĳ ìķĻ
Ġê°ľ ìļ´
ê²ł ì§Ģ
ê²ł ëĭ¤ëĬĶ
ê²© ìĿ´
Ġë¯¸ ì³¤
ê·¼ ì²ĺ
ĠìĥĿê°ģ íĸĪëĬĶëį°
Ġì°¨ ê°Ģ
Ġê°Ĳ íĥĦ
ì¢ Į
Ġë¶Ħëĵ¤ ìĿ´ëĿ¼ë©´
Ġì¦Ĳ ê±°
Ġì¹´ íĨ¡
Ġíı¬ìŀ¥ íķ´
ĠëģĿ ê¹Įì§Ģ
ëł¸ ìĬµëĭĪëĭ¤
Ġìĸ´ëĸ ¨
Ġê¸°ëĮĢ ê°Ģ
ìĿµ ìĤ°
ë°Ľ ìķĦ
Ġìĸ´ëł¤ ìļ´
ë³´ë ¶Ħ
Ġìı ł
ì¼ĢìĿ´ íĶĦ
ĠíĻĪ íİĺìĿ´ì§Ģ
ĠëŁ¬ ëĦĪìĬ¤
ĠìķĶ íĬ¼
ëį¸ ë§ģ
ĠìĮĢ ìĮĢ
ĠíģĲ ë¸Į
Ġê°ĸì¶Ķ ê³ł
Ġê·Ģíķľ ì¡±ë°ľ
Ġë¬¸ìĦ±ê³¨ ì¡±ë°ľ
Ġíķĺëħ¸ ìĿ´
¤ ìĺ¤ë°ĺ
ì µľ
ëĭ ·
ìĹĲ ë§Į
ê³ł ë£¨
ìļĶ ê±°
ê¸° ì§Ģ
ìľ¼ ìĭľ
ëł Ľ
ëĤĺ ë¦°
ìĹĪ ìĿĮ
Ġì¢ĭ ëĦ¤ìļĶ
ë¹Ħ ë¥¼
íĮ ģ
ĠìłĢ ìŀĳ
ĠìĿ¸ êµ¬
ĠëĶ ¤ìĦ¬
Ġì§Ģ ê¸Ģ
ĠìľĦ ìĹĲìĦľ
ĠìľĦ ìĬ¤íĤ¤
ĠëįĶ ë¶Ī
ĠìĽĲ ìĹĲ
ĠìĦľìļ¸ ìĹŃ
ëĲĺ ë©°
ë§Ĳ ê³ł
Ġìĸĳ ìĿĢ
Ġëĵ¤ìĸ´ ìŀĪìĸ´ìĦľ
Ġê´Ģ ì²ľ
ë¹ ¨
ì§Ī ìĿĦ
Ġëĺ ¥
ĠíĸĪ ëįĶëĭĪ
Ġìĸ´ë ¨¸
ĠìĤ´ ì½Ķ
íĺ¸ ë°ķ
ĠìĥĪ ë¡Ńê²Į
Ġëĭ¬ ëŀĺ
ĠìĤ¼ íķ©
ëķĮ ë§Īëĭ¤
ĠëĭŃ ëĺ¥ì§ĳ
Ġëªħ ìĿ´ëĤĺ
ĠíĻķ ë³´
Ġì²ĺìĿĮ ìĹĶ
íķ´ì£¼ ëĬĶ
íķ´ì£¼ ìĭł
Ġëĭ´ ëĭ¹
Ġë©Ķ ë¦¬
Ġê³¼ ìłķ
ĠìĦ± ëĭ¹
Ġì¶ľ ìŀħêµ¬
ĠíĴį ìĦ±
Ġë°ĺì°¬ ìĿĢ
ĠìĹ°ìĦ¸ë¡ľ ëĭ¤ê¸¸
Ġì¦Ŀ ìłķ
Ġë¶Ģë¶Ħ ìĿĦ
Ġë¨¸ ìĭł
íķ´ëĵľ ë¦¬ê³ł
Ġëľ¨ ëģĪíķľ
Ġëĵłëĵł íķĺê²Į
Ġë§ĪëĿ¼ìĥ ¤ìĺ¤ë°ĺ
ìĺ¤ëİħ ë°Ķ
ĠìłĦì£¼ ìĿµìĤ°
Ġë¦¬ëª¨ ëį¸ë§ģ
ĠíĿ¥ë¶Ģ ë³´ìĮĪ
ĠìĹ¬ê¸°ìłĢ ê¸°
ĠëįĶë¶Ī ìĸ´
¾ ¹
Ġì īĲ
Ġë ·Ķíİĺ
íķ ´ë¬¼
Ġí į½
ë¡ľ ìļ°
ëĵ Ģ
ĠìĿ´ ê±¸
ìŀ¥ ëıĦ
ëĤĺ ëĿ¼
Ġê·¸ ê²Į
Ġëĭ¤ ìĪĺ
ĠìķĦ ëĭ´
ĠìĤ¬ ìĿ´ëĭ¤
Ġìĺ¤ ëįĶ
ëĵľ ìĭľ
Ġìĭľ ì¯¤
ìĻĢ ëıĦ
Ġë§Ī ì°¬
Ġë¶Ħ ìĿĢ
ìĤ¬ ëĬĶ
Ġê°Ļ ìķĺëĭ¤
ĠìĿ¸ ìłĳ
ë§Ī ë¦¬
íŀ ĺ
Ġì§Ģ ë¦¬
íĦ° ë¥¼
ìĥģ íĥľ
ì°¨ ë¦¼
ĠìĹĨ ì£ł
Ġì¶Ķ ìĽĮ
ì½ ķ
ë³¸ ê°Ģ
ĠìľĦì¹ĺ ìĹĲ
Ġëĺ ¥ì§ĳ
ĠìķĮ ìķĺ
Ġìľł ë¦¬
ê´Ģ ìłĪ
Ġë§Ĳ ìĿ´
Ġê°Ģê²© ìľ¼ë¡ľ
ëĲľ ëĭ¤ê³ł
Ġì¤Ģ ê³µ
íĿ¬ ëĦ¤
ĠìĤ¬ìĿ´ ê³µ
ë³µ íķ©
Ġê°Ķ ìĿĦ
ĠìłĢëħģ ìĭľê°Ħ
Ġëľ »
ĠëĬĲëģ¼ íķĺì§Ģ
Ġì¢Į ì¸¡
Ġê¶ģê¸Ī íķ´ìĦľ
ëįķ ìħĺ
Ġë°ĶìĤŃ íķľ
ê³µê°Ħ ìĿ´
ĠíĬĢê¹Ģ ìĺ·
ëłĮ ì¦Ī
Ġíİ¸ë¦¬ íķĺê²Į
ĠìķĦì§ģ ëıĦ
ĠíĥĪ ëª¨
Ġëĭµ ëĭµ
Ġìĭłê²½ ìĿĦ
Ġì¦ī ìĭľ
Ġì§§ ìĿĢ
Ġíķ¸ëĵľ íı°
ĠìĬ¤íĶĦ ë§ģ
ĠìĹ°ì¤ĳ ë¬´íľ´
Ġë§Īì°¬ ê°Ģì§Ģ
Ġí ĩ´
ìĸ´ ë¡ľ
ìĦľ ëıĦ
ì§Ģ ìĿĺ
ì§Ģ ê¸Ģ
ëĿ¼ ë©ĺ
ìĬ¤ íħĮìĿ´íģ¬
ë©´ ìĿĦ
ìķĦ ë²Ħ
ĠìĿ´ ìĹĲ
ëĤĺ ë¬´
Ġëĭ¤ ìĿ´
ìŀĪ ìĹĪìĸ´ìļĶ
ĠìķĦ íĶĦ
ì¹ĺ ë§Ī
Ġìĭľ ìĭľ
Ġë³´ ëĭ¤ëĬĶ
íĸĪ ëĭ¤ê³ł
ìĭł íı¬ì°¨
ë¶Ħ ìĸĳ
ĠëĮĢ íĮĮ
Ġë°Ķ ê¿
ë°¥ ìĿ´
ĠëĬĲ ê¼Ī
Ġê´Ģ ëł¨
ìłĢ ìĶ¨
ìķĪ ëĤ´
ë¨¹ ìĸ´ëıĦ
Ġíİ¸ íķĺê³ł
ê°ľ ë°ľ
ĠíĽĦ ì¶Ķ
ĠíĨ ¤
Ġì°¾ ìĿĢ
íķĺê¸° ë¡ľ
Ġìłģ ìĿĢ
íĿ ¡
ĠìĿ´ìļ© íķľ
ĠìĿ´ìļ© íķĺë©´
íļĮ ëľ¨
Ġì£¼ì°¨ ëĬĶ
ìĥī ìĿ´
Ġë³´ìĿ´ ìĭľëĤĺìļĶ
Ġíŀ ĺìĿ´
Ġì¶Ķê°Ģ íķ´ìĦľ
ĠìĻ¸ ìĹĲ
Ġìļ°ë¦¬ ìĿĺ
Ġê°Ķ ìĸ´ìļĶ
ìĽł ìĬµëĭĪëĭ¤
ĠëĨĢ ëĿ¼
Ġì¶ľ ìŀħ
ĠíĽ Ī
Ġì¹ľìłĪ íķľ
Ġëľ ¯
ì¹´ë łĪ
Ġë³´ìĹ¬ ìĦľ
Ġë²½ ìĹĲ
ĠëĦ¤ìĿ¼ ëĤĺë¦°
Ġë©ĶìĿ¸ ë©Ķëī´
Ġë°©íĸ¥ ìľ¼ë¡ľ
Ġìĸ´ëłµ ì§Ģ
ĠëĵľìħĶ ë³´ìĦ¸ìļĶ
Ġìŀĩ ëª¸
ĠìĿ´ìģĺ ê²Į
Ġìĭ±ìĭ± íķľ
ĠìĺĪë»Ĳ ìĦľ
ì²´ë ª¨
Ġì¸ ¡
ĠíĿĺ ëŁ¬
ĠìĹŃíķł ìĿĦ
Ġëª¨ëª¨ ìķ¼
ì ª¼
í Ĳģ
ê³ ¨ìĿ´
ê³ł ìĭľ
ë§ ĺ
Ġê°Ģ ë³¼
Ġë¨¹ ë°©
ëĤĺ ëª¬
Ġíķĺ ì²´
ĠëĤĺ ë¨¸
Ġìľ Ļ
ê±° ê°ĻìķĦìļĶ
Ġë³´ ìľł
ìĿĮ ë£Į
ĠìķĪ ëĲĺëĬĶ
íĮ ©
ĠìĨĮ ë§¥
ĠìĿ¸ ìļ©
ìĺ¤ íĶ¼ìĬ¤
ĠëĮĢ ëĭ¨
ìĨĮ ë¥¼
ĠìķĬ ìķĺëĬĶëį°
ĠìĹĨ ëĭ¤ëĬĶ
Ġë°© ìĭĿ
Ġë°© ìĨ¡
ìłľ ë¡ľ
Ġêµ¬ ê°ķ
ĠìĿ¼ íĸī
êµŃ ë¬¼
Ġì£¼ë¬¸ íķĺëĬĶ
Ġê°ľ ê°Ģ
Ġê°ľ ë¥¼
Ġì¢ĭìķĦ íķł
ĠìĦ¸ ëł¨
Ġìĭ¶ ëĭ¤ë©´
Ġê·¼ ëł¥
ëªħ ìĿ´
Ġê°ĢëĬ¥ íķ´ìĦľ
ĠìĨĲ íĨ±
Ġìµľ ìĨĮ
Ġê¹Ģ ìĹĲ
Ġëĵ¤ìĸ´ê°Ģ ëĭĪ
ĠìĿ´ìļ© ìĿ´
Ġëªħ ìĿ´ìĦľ
Ġìķ¼ ëģ¼
Ġì¢ħ ìĿ´
ĠìĪľ ìĤ´
ĠêµŃë¬¼ ëıĦ
Ġì»¤íĶ¼ ìĻĢ
Ġë§¤ìļ´ íĥķ
Ġìĺ¬ëĿ¼ ìĺ¤
Ġê¸Ī ìļĶìĿ¼
Ġì¢ĭìĿĦ ëĵ¯
ĠëĪĦ íħĶëĿ¼
ë´¤ ëĭ¤
Ġê¹Ģì¹ĺ ê°Ģ
ìĽł ëĬĶëį°
ëħ¸ ë¦ĩ
Ġê´Ģë¦¬ ê°Ģ
ĠíĻķìĿ¸ íķł
ĠìķĦëĭĮ ëį°
Ġìŀ¬ë£Į ê°Ģ
ĠìĽĲëŀĺ ëĬĶ
Ġì£¼ë§Ĳ ìĹĲ
Ġíİ¸ë¦¬ íķĺê³ł
Ġìĭľì¼° ìĸ´ìļĶ
ìĭľìĦ¤ ìĿ´
Ġê¹¨ëģĹ íķĺê³ł
ĠìĦľê°ķëĮĢ ìĹŃ
ĠìłĦìļ© ë©´ìłģ
ĠíĢĦë¦¬íĭ° ê°Ģ
Ġë½ Ģ
ĠíıīìĨĮ ìĹĲ
ĠëĵľìħĶ ë³´
ë§İ ìĿĢ
Ġêº ¾
ĠíļĮìĽĲëĭĺëĵ¤ ê»ĺìĦľ
Ġë°Ģíģ¬ íĭ°
Ġëħ¸ë¦ĩ ëħ¸ë¦ĩ
ë¸Ķë¡ľ ê·¸
Ġì»¤ìĬ¤íħĢ ìĥĲëŁ¬ëĵľ
Ġìĭłì´Įìŀ¥ êµ°
Ļ ëĭĪëĭ¤
Ġì Į
ëĭ¤ ëŀĳ
íķĺ ê¸´
ë¡ľ ëĭĪ
ë¡ľ ë§Ī
íķľ ëĭ¤ëĬĶ
ë¬ µ
Ġëĭ Ī
ë³ ´ë¥¼
Ġë§Ľ ìĹĨ
ìķĦ ì§Ģ
Ġë¨¹ ê¸°ëıĦ
ìĹĪ ëĦ¤ìļĶ
ĠìĪĺ ìĽĶ
ì° ¾
Ġëĭ¤ ìĨĮ
ĠìķĦ ìĺĪ
ë§Į ìĽĲ
Ġê¸ ģ
Ġìĭľ íĭ°
ĠëĤĺ ëī
ê³¼ ëıĦ
Ġìĭłë¦¼ìĹŃ ìĿĢ
Ġíķľ ìĥģ
ìĦ¸ ê¶ĮìĿ´
Ġìĭłì´ĮìĹŃ ìĿĢ
Ġìłķ ìĪĺ
ĠìłĦ ìĭľ
ĠëĮĢ ìĻķ
íĺ Ī
Ġìłľ ìľ¡
ìłģ ìĿ´ê³ł
ëŀĺ ë°©
ìłľ íķľ
ê¸¸ ìĿ´
ĠëıĦ ë³´ë¶Ħ
ìķĪ íĹ¤ìĸ´
ë¥´ ì§Ģ
ìĤ° ìĭľ
Ġìľł ìĿ¼
Ġìľł ìĤ°ìĨĮ
Ġìŀ¥ ìĸ´
Ġê°Ħ ìĭĿ
Ġìĸ´ë ¥
ĠëĿ¼ ìŀĦ
Ġì´Ī ë¡Ŀ
Ġìļ´ëıĻ ìĿ´
Ġìļ´ëıĻ íķł
ĠìĨĲ ìĥģ
ĠíķĺëĤĺ ëĬĶ
ë¦° ëĭ¤
Ġìĭ¤ íĮ¨
Ġê±¸ ëł¤
Ġíıī ë²Ķ
ĠìĤ¬ìŀ¥ëĭĺ ìĿĺ
ĠíĽĦê¸° ìŀħëĭĪëĭ¤
Ġíķ´ì£¼ ìħĶìĦľ
Ġê±°ë¦¬ ê°Ģ
Ġë³¶ìĿĮë°¥ ëıĦ
ĠìĿ¸íħĮë¦¬ìĸ´ ëıĦ
Ġì¤Ħ ìĸ´
Ġê¸°ëĭ¤ ë¦¬ê³ł
Ġìĭ¬ ìĭ¬
ĠìĦ¸íĬ¸ ë¡ľ
ëĳ Ķ
ĠíĻĶìŀ¥ìĭ¤ ìĿĢ
ĠìĻľ ëĥĲ
ĠìĺĪìģĺ ê³ł
íķĺìĭľ ê¸¸
ëłĮ ì§Ģ
ĠìĹħ ì²´
Ġíľĺ íĶ¼
Ġëĸł ìĺ¬
ì¤ĺ ìļĶ
Ġë¹Ħì£¼ìĸ¼ ìĿ´
Ġì¢ĮìĦĿ ëıĦ
Ġê³łì¶Ķ ìŀ¥
ĠëĨĢëŁ¬ ìĻĢíĶĮ
ëĩ ¨
Ġêµ³ ìĿ´
Ġë³¸ê²© ìłģìľ¼ë¡ľ
Ġë§ĳ ìĿĢ
ĠëŁ¬ëĦĪìĬ¤ íķĺìĿ´
ì²´ëª¨ ìŀĦ
í ĵ¨
Ġë º
íķĺ ëł¤
ìĿĦ ê¹Į
ĠìŀĪ ê²łìĬµëĭĪëĭ¤
Ġë§Ľ ëĤĺê²Į
Ġê°Ģ ëıĦ
Ġë¨¹ ê¸°ìĹĲ
ëŁ ¿
Ġíķĺ ìĭł
ì¹ĺ ìķĦ
Ġì¢ĭ ì§Ģ
ëĮĢ ìļĶ
ëĮĢ ë¥¼
Ġìĺ¤ ë¹ł
ĠìĿ´ë ¸Į
Ġë© Ī
Ġë§ĽìŀĪ ìĹĪê³ł
ë£ °
Ġë§¤ ì§ģ
ĠìłĦ êµŃ
ĠìĹ¬ ìŃ
ĠìĹ¬ ìłĦíŀĪ
ë°¥ ìĿĦ
ĠìĿ¼ ìłķ
Ġë©Ķëī´ ìĹĲ
ĠíĸĪ ëĬĶëį°ìļĶ
Ġë°©ë¬¸ íķł
íı¬ ìĬ¤íĦ°
ëª¨ ëĭĺ
Ġë§Ĳ ìķĦ
ĠìĻĢ ëıĦ
íķĻ ìĽĲ
Ġìĺ¬ëĿ¼ ê°ĢëĬĶ
Ġê¸¸ íļĮëľ¨
ĠìĺģìĹħìĭľê°Ħ ìĿĢ
ë¹µ ì§ĳ
ĠìĿĮë£Į ëıĦ
ĠìĦ± ë¯¼
ĠíĴį ê²½
Ġë£¸ ìĿµìĬ¤
Ġëª¸ ìĿĦ
Ġê¶ģê¸Ī íķĺìĭł
Ġë³´ìĹ¬ ìļĶ
ĠíĥĪ ìĥī
ĠíĥĪ ì¶ľ
ĠìĶ¹ íŀĪëĬĶ
Ġë¹¼ ê³ł
Ġë¶Ģì¡± íķľ
ĠëĴ· ê³łê¸°
Ġìĸ´ì© Į
ĠìĿ¸ìĬ¤íĥĢ ê·¸ëŀ¨
ì½ľ ëĿ¼
Ġë¨¹ìŀĲ ê³¨ëª©
ë¥´ë¥ ´
ĠëĳĲë¦¬ ëĭŃë°ľ
Ġë¨¸ë¦¿ ê²°
íĶĮëłī ìĬ¤
Ġì£¼ìĥģ ë³µíķ©
ĠìĹ¬ìŃ ¤
í į½
íķ «
ĠìĹ ½
ĠìĹ Ķ
ì¹ ¨ìĿ´
íķ´ ìŀ¥êµŃ
ë©´ ìĿ´
Ġê· ł
ì§ĳ ìĹĲ
Ġë¨¹ ëĭ¤ë³´ëĭĪ
ĠìĿ´ ìķĪíĹ¤ìĸ´
Ġíķĺ íĬ¸
ìŀĪ ìľ¼ëĭĪ
Ġìĺ¤ ìĿ¼
Ġìĺ¤ ê²¹ìĤ´
ë³´ ëĭĪê¹Į
ë¹Ħ ê°Ģ
ìĻĢ ëĬĶ
Ġë¶Ħ ìĿ´ë©´
Ġìłķ ìĦĿ
íĸĪ ëĦ¤ìļĶ
ĠëĮĢ íĺĦëıĻ
Ġì§Ģ ì¼ľ
Ġëª¨ ëį¸
Ġëª¨ ëĳł
ĠìĪ ²
ìłĦ ìĿĦ
ìłĦ ìļ©
ìĪ ²ê¸¸
Ġìĥģ ìĹħ
Ġë©Ķëī´ ëĵ¤
ê¸¸ ìĹĲ
Ġë¹Ħ ì¹ĺ
ĠìĹ° ëł¹
Ġíı¬ íģ¬
ĠìļĶ ê¸Ī
Ġë¬´ ìĿ¸
Ġë¯¸ êµŃ
Ġìľł íĸī
Ġëĵľ ë¦´
ìħ¨ ìľ¼ë©´
Ġë°ĺ ëĮĢ
ĠìĤ´ ìĤ´
Ġìĭľê°Ħ ìĿĢ
íĺ¸ íħĶ
ĠìĽĶ ìĹĲ
Ġë§ī ê±¸ë¦¬
íı Ĳ
ĠìĪłì§ĳ ìĿ´
ĠìĤ¬ìļ© íķł
Ġê¸¸ ìĿ´
Ġíı¬ìŀ¥ íķ´ìĦľ
Ġì» ´
ë´¤ ìĬµëĭĪëĭ¤
Ġë³¶ìĿĮë°¥ ìĿĢ
Ġìĸ´ëĸ ł
ĠìĿĮë£Į ë¥¼
Ġíı¬ìĬ¤ íĦ°
Ġë³´ê¸° ë§Į
ĠìŀĲìĦ¸ íķĺê²Į
ë¬´ë ĶĶ
ĠíĹĪ ë²ħ
ĠíķĻ ìĽĲ
Ġíķ© ê²©
ĠíĮĶ ê¿Ī
Ġì¼Ģ ìĿµ
ì© į
Ġì°° ë¦¬
ëĵľë¦¬ ê²łìĬµëĭĪëĭ¤
ìĨĲ ëĭĺ
Ġìĺ¤ëİħ íĥķ
ĠìĿ¸ìĥĿ ê³łê¸°
ĠìľĦíķ´ìĦľ ëĬĶ
ĠíĨµì¦Ŀ ìĿ´
Ġê¾¸ë©° ìł¸
ĠìķĦìĤŃ íķľ
Ġì¹¼ì¹¼ íķľ
Ġì§ĢìĨį ìłģìľ¼ë¡ľ
íĶĦëłĪ ìĨĮ
Ġê³µëıĻ ì£¼íĥĿ
ĠíĬ¸ëŁ¬ íĶĮ
Ġì§Ģê¸Ģ ì§Ģê¸Ģ
ĠìĦ±ë¯¼ ìĸĳê¼¬ì¹ĺ
Ġë£¸ìĿµìĬ¤ ì¼ĢìĿ´íĶĦ
Ġì ¯¤
Ġìķ ¤
ì§Ģ ë©´ìĦľ
´ë ķĮ
´ë ¶Ģ
ëĿ¼ ë§Ī
ìĭľ ëĦ¤ë§Ī
ìĬ¤ ìĹĲ
ĠìĦ ¬
êµ¬ ë¡ľ
Ġê°Ģ ë£¨
ìķĦ ì°Į
ĠìĪĺ ë¶Ħ
Ġëª ½
ĠìĤ¬ ëĬĶ
ĠìĤ¬ ê³ł
Ġìĺ¤ ìĿ´
Ġìĺ¤ ê¸°
Ġë§Ī ëĵ¤
ìħ Ģ
ĠìķĪ ìĤ°
ë£ ½
íĸĪ ìĹĪëĬĶëį°
ĠìłĦ ê¸°
íŀ Ĳ
Ġê²ĥ ë³´ëĭ¤
Ġë§Ľì§ĳ ìĿĢ
Ġëª¨ ìŀĲ
ĠìĽĲ ì£¼
Ġì§Ħ íķĺê³ł
Ġì§Ħ ìĹ´ë
Ġêµ¬ ê°Ħ
Ġêµ¬ ìĦĿ
ĠìĿ¼ ìĸ´ëĤĺ
ĠìĺĪ ìĪł
ĠëıĦ ëĳĳ
ĠìĦł ë¦ī
ë¹ Ķ
ìĤ´ ìĿĦ
Ġë¯¸ ëĤ¨
Ġì¹´íİĺ ìĹĲìĦľ
ì£ µ
ĠìķĮ ìķĦìĦľ
ĠìĪł ëıĦ
ĠìĪł ìĪł
Ġì¤ įëĭĪëĭ¤
Ġëĭ¤ìĸĳ íķ´ìĦľ
ĠìĤ¼ ê²¹
íĿ ĳ
ĠëĭŃ ê°ĢìĬ´
íĴ Ģ
Ġìĭ¤ ëł¥
Ġëħ¸ ëŀĢ
Ġëª» íķľ
ë¶Ī íĺ¸
ĠìŀĲë¦¬ ìŀ¡
Ġê¹ĶëģĶ íķ´ìĦľ
Ġë¨¹ëĬĶ ê²Į
ĠìŀĪìĸ´ ìķ¼
Ġë³¶ ìķĦì£¼
íķ´ì£¼ ìĭľëĬĶ
Ġê³¨ ê³łë£¨
Ġì¹´ ìļ°
Ġíķľë²Ī ìĶ©
ĠëĲĺìĸ´ ìŀĪìĸ´ìĦľ
Ġë¹µ ìĿ´
ìĭłì´Į ì¹¼êµŃìĪĺ
ĠìķĦëĭĪëĿ¼ ìĦľ
Ġë¨¸ë¦¬ ì¹´ë
Ġì¶© ê²©
Ġíĳ¸ì§Ĳ íķĺê³ł
ìĨĮìĬ¤ ìĹĲ
ìĨĮìĬ¤ ê°Ģ
ĠíĶĮ ëŀĺ
Ġì¦Ŀ ìĥģ
Ġëª¨ë¥´ ê²łì§Ģë§Į
Ġëľ¨ ê±°ìļ´
ë¨¸ ëĭĪ
Ġì¶Ķìĸµ ìĿĺ
Ġë§Īì¹ĺ ê³ł
Ġíĩ´ê·¼ íķĺê³ł
Ġê¸°ì¤Ģ ìľ¼ë¡ľ
Ġìĸ¼íģ° íķľ
ĠìĬ¹ ê°ķ
Ġì²¨ ë¶Ģ
Ġíķ´ë³ ¼
ĠìłģìłĪ íķľ
ĠìĥĿìĥĿ ìłķë³´
Ġìĺģíĸ¥ ìĿĦ
ìĪ¯ë¶Ī ëĭŃê°Īë¹Ħ
ìĹ°êµ¬ ìĨĮ
Ġë¶ī ìĿĢ
Ġë¨¸ë¦¬ì¹´ë Ŀ½
ë ½
Ń ìĤ°ìĭľ
Ġì ª¼
íķĺ ìħĶëıĦ
ìĸ´ ì§Ħ
ìĬ ¬ë
Ġìĭł ìĭłíı¬ì°¨
ĠìĿ´ ìĪĺ
ĠìĪĺ ìĿµ
ë¬¸ ìĿĺ
íĬ¸ ë¦¬
Ġìľ Ĺ
ìŀĲ ë¡ľ
ë³´ ìĭł
ìĦ¸ ìĺ¤
ìļ© ìĦłìĥĿ
Ġë§İ ìĿĦ
Ġë§İ ìķĺëĬĶëį°
ĠìĨĮ ìŀ¬
ĠìĿ¸ ë°ĶëĶĶ
íħ Ķë¡ľ
ĠëĮĢ ë§Į
ĠëĮĢ íĻĶ
Ġì§Ģ ëıĦë¡ľ
ĠìĹŃ ìĹĲìĦľ
ìłķ ìľ¡ìĭĿëĭ¹
ĠìĿ¼ íļĮ
Ġê±° ìĺĪìļĶ
Ġë¹ ħ
ĠìĹ° ìŀ¥
íĶĦ ëłĪìĬ¤
Ġë¨¹ìĸ´ ë³´ëĭĪ
Ġìĭ¶ ìĬµëĭĪëĭ¤
ë°ĺ ìłĲ
Ġì§ĳ ìĿĦ
Ġì»¤ ìĦľ
Ġìķŀ ìĦľ
Ġë¬¼ ëĥīë©´
Ġëĵ¤ìĸ´ê°Ģ ê¸°
ê³³ ìĿĢ
ì¢ Ģ
Ġëªħ ìĿ´
ĠíħĮìĿ´ë¸Ķ ê³¼
Ġë§ŀ ì¶Ķ
ìĿ´ëĭ¤ ë³´ëĭĪ
íĹ ĺìĿ´
ĠìĪľ íĻĺ
´ë¥ ŃìĤ°ìĭľ
Ġë©Ķ ê°Ģ
Ġì²´ ê³Ħ
Ġë§Įëĵ¤ ìĸ´ìĦľ
ĠíĨł ìĬ¤íĬ¸
Ġë§ĪìĿĮ ìĿĦ
Ġê·Ģ ì°®
Ġëĸ ¨
Ġê³¼ ìŀĲ
Ġìĺ¬ëł¤ ìł¸
ĠìĿĮë£Į ëĬĶ
Ġíĸ¥ ê¸ĭ
Ġìĥģíĥľ ìĹĲìĦľ
Ġë°ķ ìŀ¬
Ġìķł ë§¤
Ġê°ĸ ì¶ĺ
Ġì²« ë²Īì§¸
Ġê·¸ëłĩ ê³ł
Ġíĭ° ëĿ¼ë¯¸
ĠìĹ°ìĦ¸ëĮĢ íķĻêµĲ
íĻĶë Ĳľ
ĠíĮĮìĿ´ íĻĢ
ìķŀ ìĹĲ
íĬĢ ê¹ĢìĿ´
Ġëĭ¬ì½¤ íķľ
Ġíģ´ëŀĺ ìĭĿ
Ġê¹įëĳĲ ê¸°
Ġë°°íĽĦ ìĪĺìļĶ
Ġê°¬ ìĦ±
ĠíĺĦëªħ ìĭĿíĥģ
ĠëªħìĿ´ëĤĺ ë¬¼
ëĭ¤ëŀĳ ìĸ´
´ë¥ŃìĤ°ìĭľ ëıĦìĤŃë©´
ê ¿į
ìĹ ī
ìĿ´ ëĮĢ
ìĿ´ ëįĶëĿ¼êµ¬ìļĶ
ìĭľ ì§Ģ
ìĬ¤ ìĭľ
ìĿĺ ìĭ¤
Ġê°Ģ ë§¥
ì£¼ ë°©
Ġìĭłë¦¼ ìĪłì§ĳ
Ġê·¸ ëĤł
ê¹Į ë´Ĳ
Ġíķľ ëĭ¤ëĬĶ
ĠìĿ´ë ŀĺ
ĠìķĪ ëĤĺ
ë¶Ģ ë¦¬
ĠìŀĲ ë¦¬ëĬĶ
ĠìĨĮ ë¹Ħ
ì¦ Į
ĠìŀĪëĬĶ ê²Į
ëł¤ ìķ¼
Ġê± ´ë¥ŃìĤ°ìĭľëıĦìĤŃë©´
ëĲĺ ìĹĪëĭ¤
ì°¨ ìĹŃ
ĠìĹĨ ìĹĪëĬĶëį°
Ġì¡° íĻĶ
Ġê³µ ìĹ°
Ġìŀħ ìĹĲìĦľ
ĠìĹ° ì¶ľ
Ġì¤ĳ íĻĶ
ĠíĻĶ ìļĶìĿ¼
ĠëĤ´ ìĹĲ
ìł¸ ìļĶ
Ġì°¾ ëĭ¤ê°Ģ
ĠìĦ¸ ìĭ¬
ĠíĸĪ ê³ł
Ġíĺ¸ ë¶Īíĺ¸
ê°Ĳ ëıĦ
Ġìĸ´ë ĳĲ
ĠìĿ´ëł ĩ
ëĥ Ħ
ĠíĶ¼ ìķĦëħ¸
Ġì°¨ ëł¤
Ġì¶Ķì²ľ íķĺê³ł
ĠìĹ¬ê¸° ëıĦ
Ġë°Ľ ìķĺ
ì¡° íķ©
íķ© ëĭĪëĭ¹
Ġëª» íķĺëĬĶ
Ġë¶Ħëĵ¤ ìĿĦ
Ġëĭ¤ìĿĮ ëĤł
ĠìĪľ ìĤŃ
ĠìĦ¤ ëłģíĥķ
ìŀ¬ ë£Į
íķ´ì£¼ ìĭľ
íĳ ¼
ëģ Ŀ
ĠìĨį ìĹĲ
Ġê³ĦëŀĢ íĽĦëĿ¼ìĿ´
Ġë¿ ľ
Ġì°¾ìķĦ ìĺ¤
ĠìłĢëł´ íķĺê³ł
Ġë³µ ë¶Ģ
Ġê´ľì°® ìĿĦ
ĠëĤľ ìĿ´ëıĦ
Ġìŀħêµ¬ ê°Ģ
ĠíĴį ë¯¸ê°Ģ
Ġìĥģíĥľ ë¥¼
Ġíĸī ìĤ¬
Ġìļ© ìļ©ìĦłìĥĿ
íķĺìĭł ëĭ¤ë©´
ë¿ ľ
ĠìĨĮê¸Ī ë¹µ
ê½ĥ ì§ĳ
Ġê²ī ë°Ķ
ĠíĻĢ ë¦¬
ë²łìĿ´ ì»¤ë¦¬
Ġì»¨ ëĶĶìħĺ
Ġì¦ī ìĦĿ
Ġë§µì°Ķ ìĿ´
Ġê³µìĺģì£¼ì°¨ ìŀ¥
Ġì¹ł ë¦¬
Ġê¹Ģê´ĳìĦĿ ìĭłì´Įì¹¼êµŃìĪĺ
ĠëįĶëįĶ ìļ±
Ġíį½ íį½
Ġê¸¸íļĮëľ¨ ëĭ¤
¤ Ħ
Ġë ±ĥìĤ´
Ġë§ ģ
ëıĦ ëĦĽ
ê°Ģ ë©°
ëį ľ
ê²Į ëıĦ
ê²Į íĬ¸
ìľ¼ ìĭľë©´
Ġê°Ģ ì§Ħ
Ġê°Ģ ë¦¬ë¹Ħ
ì° ¹
Ġì£¼ ë¯¼
Ġì£¼ ìħ¨ëĭ¤
íĬ¸ ìĿ¸
Ġìĺ¤ ëıĻ
ê±° ê°Ļ
ìĪĺ ìĹħ
Ġëĵ¤ ìĹĪëįĺ
ë¶Ħ ëĵ¤ëıĦ
ĠìľĦ ë¡ľ
ĠìĽĲ ìĤ°
ìļ° ë©´
ëĲĺ ë©´ìĦľ
ì°¨ ê°Ģ
ĠíĮ į
ĠìĹĨ ëĭ¤ê³ł
ĠëĲĺ ê²ł
Ġìŀĺ ëĿ¼ìĦľ
íĨ °
Ġêµ¬ ì¶ķ
Ġìĥģ ëĭ
Ġì¡° íĻĶê°Ģ
Ġì£¼ë¬¸ ìĿ´
Ġê³łê¸° ìĿĺ
Ġìļ° ë¦°
Ġìĸ´ ìĦľ
Ġë¯¸ ë¶Ħëĭ¹
ìŀĦ ìĹĲëıĦ
ìĺĢ ëĭµëĭĪëĭ¤
Ġìĭ¶ ìĹĪìĸ´ìļĶ
Ġë°©ë¬¸ íķĺê²Į
ĠëıĻ ê·¸
íĶĮ ëĿ¼ìĽĮ
Ġëĵľ ë¦½ëĭĪëĭ¤
íĮĲ ìĹĲ
ë¶ĢíĦ° ëĬĶ
ìĻĶ ìĬµëĭĪëĭ¤
ê²ĥ ìĿĦ
ĠíķĦ ëĳĲ
Ġì§ĳ ìĸ´
Ġì°į ìĿĦ
íĮĮ ìĦľ
ë¥ĺ ê°Ģ
ì¡° ë¦¼
Ġëģ Ħ
Ġì¹ĺì¦Ī ë¥¼
Ġì¹ĺì¦Ī ì¼ĢìĿ´íģ¬
Ġëª» íķĺê³ł
ĠëĦĺ ëĦĺ
Ġíıī ê·ł
ì±Ħ ìĨĮ
Ġì»¤íĶ¼ ëıĦ
Ġë°± íĻĶìłĲ
ĠíĻį ì½©
Ġì²´ ìĿ¸
íĺĢ ìĦľ
Ġìķī ìľ¼ë©´
ĠìĨĮê°ľ íķł
Ġê±´ë¬¼ ìĹĲ
Ġëĳ Ķ
ĠìĻĦìłĦ íŀĪ
ĠëĬĲê»´ ì¡Į
ĠíķĦìļĶ ê°Ģ
ĠíĶ¼ìŀĲ ë¥¼
ĠíĹ¬ìĬ¤ ìŀ¥ìĿ´
Ġì¶ľ ê·¼
ĠëŃĲ ê°Ģ
Ġìķ¼ì±Ħ ìĻĢ
Ġê¼¬ ëĵ¤
ĠìłĦë¬¸ ê°Ģ
ê°Ķ ìĸ´ìļĶ
ĠíĴį ë¯¸
Ġë§Įì¡± ìĬ¤ëŁ¬ìļ´
Ġë©´ ìĿ´
ĠìĶ ¨
Ġìķł ìĬĲ
Ġìĥī ìĿ´
ĠíĮĲë§¤ íķĺëĬĶ
Ġë¶Ļ ìĹ¬
Ġê²½ìĿĺìĦł ìĪ²ê¸¸
Ġëĵ¤ìĸ´ìĺ¤ ëĬĶ
Ġì¹¼ ë¡ľ
Ġë§¤ë¬¼ ìĿĢ
Ġë§¨ ëĤł
Ġë³´ëĿ¼ë§¤ ê³µìĽĲ
Ġë¸ĮëĿ¼ ì§Ī
Ġìĥģíģ¼ íķľ
ĠìķĦíĺĦ ìłĲ
Ġë¬µ ìĿĢ
ĠìĨĮë¬¸ ëĤľ
Ġìĸ¸ìłľëĵł ì§Ģ
ĠìĦ¤ëłĪ ìŀĦ
ĠíĥĢì½Ķ ìķ¼ëģ¼
ë±ħ ìĿ´
ĠìĤ¬ìĿ´ê³µ ë³¸ê°Ģ
ìĬ¬ë ¨¸ë¦¬
Ġê²īë°Ķ ìĨį
ī ĳ
ìĿ´ ìĹĪëįĺ
ë¡ľ ìĦľ
ë¡ľ ì¼Ģ
Ġìĭł ìĥģ
Ġìĭł ëĮĢë°©
ë¦¬ ê¸°
ĠìŀĪ ê¸°ìĹĲ
Ġë§Ľ ë³´ê³ł
êµ¬ ë¦¬
Ġë¨¹ ëįĺ
ë¬¸ ìĿ´
ĠìķĦ íĬ¸
ĠìĤ¬ ìĭľë¯¸
ëĵľ ë¦¬ê³ł
ĠìĦľ ë¶Ģ
Ġë³´ íĺ¸
Ġë§Ī ìĭľëĬĶ
ĠìķĪ ë¨¹
Ġë§ĽìŀĪ ì§Ģë§Į
ìĽĲ ëıĦ
ìĭ¤ ìĿĢ
Ġëĵ¤ ëŁ¬
Ġë§Ľì§ĳ ìĿĺ
Ġë§Ľì§ĳ ìĿ´ëĿ¼ê³ł
Ġìłľ íķľ
ĠìĽĲ íķĺìĭľëĬĶ
ĠìĥĿ ê²¨ìĦľ
ëĲĺ ê¸°
ìĹ¬ ëĵľë¦Ħ
ê¹Įì§Ģ ëıĦ
Ġìĥģ ëĮĢ
Ġìĥģ ìĦ¸
êµŃ ë°¥
Ġì¸µ ìĹĲìĦľ
Ġë¹Ħ ìľ¨
íĻĶ ìŀ¥
Ġíķ´ ìŀ¥
ë°© ìĿ´
Ġê³Ħ ìķ½
íĭ ´
ĠìĥĿê°ģ íķ©ëĭĪëĭ¤
Ġë¨¹ìĸ´ ì£¼ë©´
Ġìľł íĶĮëłīìĬ¤
Ġë§İìĿ´ ëĵ¤
Ġíĺ¸ ëĸ¡
Ġëĵľ ëĿ¼ìĿ´
Ġê°Ħ ëıĦ
Ġë°ĺ ê°Ģ
íĺ¸ ëĸ¡
ĠëĿ¼ ìĿ´ìĬ¤
ĠìłĲ ëıĦ
Ġíı ´
ĠìĻĢ ìķ¼
íķ¨ ëıĦ
ĠìĿ´ìļ© íķ´
Ġë§ĽìĿ´ ìĹĪìĸ´ìļĶ
ĠìłķëıĦ ëĬĶ
íļĮ ìłĦ
ĠìŀĪëĭ¤ ëĭĪ
ĠëĲľ ëĭ¤ë©´
ĠìŀĲë¦¬ ìĹĲìĦľ
ĠìĽĶ íĨł
ë³¼ ê²ĮìļĶ
ĠìĻ¸ êµŃ
ëĭĪê¹Į ìļĶ
íı ¼
ĠëĪĪ ìľ¼ë¡ľ
Ġíĺ¼ ìĪł
Ġëĭ´ ìķĦì£¼
Ġíı¬ìŀ¥ ëıĦ
Ġíķ´ì£¼ ìĭľ
íķ´ë³´ ìĦ¸ìļĶ
Ġê³łë¯¼ ìĿĦ
Ġìļ´ìĺģ íķĺëĬĶ
ìĽĶ ìĦ¸
ĠìķĦëŀĺ ìĹĲ
Ġëĭ¬ëĭ¬ íķĺê³ł
Ġì§Ī íĻĺ
Ġê°ĲìŀĲ íĥķ
Ġì½ĺ ìĦ¼
Ġë§ĽìŀĪìĸ´ ë³´
Ġì§ģìĽĲë¶Ħ ê»ĺìĦľ
Ġì¹¨ ëĮĢ
Ġíļ¨ê³¼ ë¥¼
ĠëıĦìĭľ ëĿ½
ëķ ħ
ìĥĿíĻľ ì£¼íĥĿ
íĻĶë Ĳĺ
ì¤¬ ìĸ´ìļĶ
ĠìĿ´ëĿ¼ ê³ł
ĠìĻĢìĿ´ íĮĮìĿ´
ĠëıħíĬ¹ íķľ
ĠëĦĲ ì°į
Ġì°¹ ìĮĢ
Ġìĭłì´Įìŀ¥êµ° ì§ĳ
Ġë¯¸ëĤ¨ ì°¸ì¹ĺ
Ġê²īë°ĶìĨį ì´ī
° íĶĦ
ë Ŀ
Ł Ī
ëĭ «
ëĭ¤ ë°ľ
ìĹĲ ê²Ĳ
íķĺ ìħĶìķ¼
ëĤ ©ëĭĪëĭ¤
ìĬ¤ íĮĮ
Ġê°Ģ ëł¤
ìĺ µìħĺ
ĠìĿ´ íĥĪ
ìĹĪ ìĿĦ
Ġê·¸ ëĭ¤
ĠìķĦ ëª¬
Ġì¢ĭ ëĭµëĭĪëĭ¤
Ġì¢ĭ ê²łìĸ´ìļĶ
ëĮĢ íķĻêµĲ
ĠëĤĺ ê°ĢëĬĶ
ë³´ ìĭ¤
Ġêµ ´
Ġíķľ ê·¸ë¦ĩ
ĠìĿ´ë ©
ĠìĨĮ ìĦ¸
ĠìĪ ²ê¸¸
ĠëĬ ¥
íİĺ ëĦĪ
Ġìĥģ ê¶ĮìĿ´
êµŃ ìĿ´
Ġê±° ëŀĺ
Ġë¹Ħ ëĭĲ
ĠëıĦ íĨ°
Ġíĥ ĳ
ĠìĹ° ìŀİ
Ġê´Ģ ìłĪ
Ġê°ľ ìĶ©
Ġê³łê¸° ìĹĲ
Ġíİ¸ ìĿ´
ìĤ° ìĹŃ
Ġíģ¬ ê¸°ê°Ģ
Ġì°¾ ìķĦìĦľ
ĠìķĮ ë§ŀ
íĶĮ ëŁ¬ìĬ¤
ĠíĹ Į
ëĤ´ ê³ł
ê´Ģ ìĿ´
ë¸Į ë¦¬
íĿ Ĳ
ĠëĭŃ ê¼¬ì¹ĺ
ì¡° ê°ľ
Ġìķŀ ì¹ĺë§Ī
Ġê±´ ì§Ģ
íĺķ ìĥĿíĻľì£¼íĥĿ
íĹ Ī
Ġê¸°ë³¸ ìłģìĿ¸
Ġë³´ìĿ´ ëĦ¤ìļĶ
Ġì§Ħíĸī ì¤ĳ
ĠìĸĳëħĲ ëıĦ
ê±°ë¦¬ ê°Ģ
Ġë²ł ìĸ´
ëģ Į
Ġê¸¸ ê±°ë¦¬
Ġì¢ĭìĿĦ ê²ĥ
Ġì¶ľ ë°ľ
ĠíħĮ ëĿ¼
Ġìĵ° ìĹ¬
ĠìĿ´ìĥģ ìľ¼ë¡ľ
Ġìĸ´ìļ¸ ë¦¬
Ġìĥī ëĭ¤ë¥¸
ĠëĬĺ ìĸ´ëĤĺ
Ġì°© ìļ©
Ġë°©ë²ķ ìĿĦ
ĠìĿ´ìķ¼ ê¸°ë¥¼
Ġì£¼ìĭľ ëĬĶëį°
Ġë§¤ìļ´ë§Ľ ìĿĦ
ĠìĻĦë²½ íķľ
ĠìķĦìĤŃ ìķĦ
ĠíĬ¸ëłĪìĿ´ ëĦĪ
ĠíĨ¡íĨ¡ ìĬ¤íĦ°ëĶĶ
ìĺ¤ëĬĺ ìĿĢ
Ġëį¤ ë²¨
íĹ¬ìĬ¤ ìŀ¥
Ġê·ł íĺķ
ĠìĿ¼íļĮ ìļ©
ë ®¤
ì ¨
ìŀ ¼
íķĺ ëĬĶëį°ìļĶ
ìļĶ ê°Ģ
ì§Ģ ëĿ½
Ġìł Ĭ
ĠìŀĪ ìľ¼ìĭł
´ë ĮĢ
ìĭľ íĭ°
ì´ Ŀ
ë©´ ìľ¼ë¡ľ
ì§ĳ ìľ¼ë¡ľ
Ġì£¼ ìĭľë©´
Ġì£¼ ìĭľê³ł
ìŀĪ ìĿĮ
ë§Į ê°Ħ
ëĬĶëį° ëıĦ
íĶ ½
Ġê³ł ë¥¸
Ġìĭłë¦¼ìĹŃ ì¡±ë°ľ
Ġë§Ī ìħĶ
Ġë§Ī ìħ¨
Ġë© ĺ
Ġì¶ ĺ
ìĤ¬ ìļ©
Ġê¸° ë¡Ŀ
Ġê¸° ëħĲ
ĠìĿ¸ ëĭ¹
ìĭł ì¶ķ
ìĭ¤ ë¡ľ
Ġíĺ Ī
ĠëĮĢ ì¶©
Ġìłľ ìŀĳ
Ġë°Ķ ìģĺ
ëŀĳ ëıĦ
ĠìĿ¼ ìĸ´
ĠìĬ¤ íĮ
Ġëĵ¤ìĸ´ ìŀĪê³ł
Ġì£¼ë¬¸ íķ´
Ġìŀħ ê°ĦíĮĲ
Ġë¹Ħ ìĸ´
ĠìĹ° ëĤ¨
Ġì¤ĳ ìĭĿ
Ġíİ¸ ìĿĢ
ĠíĽĦ ìĭĿìľ¼ë¡ľ
ê·¸ ëŀĺ
ê·¼ íķľ
ĠìĥĿê°ģ íķĺê³ł
Ġë¨¹ìĸ´ ë´Ĳìķ¼
ĠíĹ ¬
ìħ¨ ëĤĺìļĶ
ë¦Ħ íķľ
Ġì¶Ķì²ľ íķ´ìļĶ
ëª¨ ëĵ¬
Ġë§Ĳ ì°¨
Ġë¶Ī ëŁ¬
Ġê°Ģê²© íĳľ
Ġìłģ ê·¹
Ġëĭ¬ ëĿ¼ê³ł
ĠíķĺëĤĺ ë¥¼
ĠíķĺëĤĺ ë§Į
ê°ķ ëĤ¨
Ġë¬¸ êµ¬
ĠíĺĦ ê¸Ī
ĠëĶ± íŀĪ
Ġê½ Ĥ
Ġê³µê°Ħ ìĹĲ
Ġê³µê°Ħ ìĿĢ
ê¼ ½
ĠĠĠĠĠĠĠĠ ĠĠĠĠ
ĠìĤ¬ëŀĮ ëıĦ
ĠìĤ¬ìļ© íķĺê³ł
Ġëª© íĳľ
Ġë³¼ ë¥
ĠìłĲìĭ¬ ìľ¼ë¡ľ
ëł¸ ëįĺ
Ġìľ¡ ìĪĺê°Ģ
ĠìŀĪìĿĦ ê¹Į
ĠìĿ´ê³³ ìĹĲ
´ë° Ķ
ĠìĥĪìļ° ê°Ģ
Ġê¸°ëĮĢ ë¥¼
ëĿ¼ìĿ´ ìĬ¤
Ġì¹ľìłĪ íķĺìĭľê³ł
ĠìŀĦ ì°¨
Ġìĥī ê¹Ķ
ĠìĤ¬ìĿ´ëĵľ ë¡ľ
Ġëļ «
Ġíĺ¼ë°¥ íķĺê¸°
ê°Ģë£¨ ê°Ģ
Ġë§ĲìĶĢ ëĵľë¦¬
ĠëĮĢíĳľ ë©Ķëī´
ĠíĶ¼ë¶Ģ ê´Ģë¦¬
Ġëķ¡ ê²¨ìĦľ
Ġì¡°ìļ© íķĺê³ł
ĠìŀĲê·¹ ìĿĦ
ĠìĭľìĦ¤ ìĿ´
Ġìĭłì¶ķ ë¹ĮëĿ¼
ĠëĦĪë¬´ëĤĺ ëıĦ
Ġëħ¼ íĺĦ
Ġëĵ£ ê³ł
ĠìķĦë¦Ħ ëĭ¤ìļ´
Ġë²ĦìĬ¤ìłķ ë¥ĺìŀ¥
Ġê´Ģì²ľ ë¡ľ
Ġë§ģ íģ¬
ĠìķĦìĤŃìķĦ ìĤŃ
¹ ìĬ¤
Ġì Į¤
ìĿ´ ìĭł
ìŀ ĩ
ê¸° ìĹĲëĬĶ
ìĬ¤ ëĬĶ
íķ´ ì§Ī
ë©´ ìĹĲ
Ġê°Ģ ê¸°ë¡ľ
ĠìĿ´ ìĻ¸
ĠìĪĺ ë²ł
Ġíķĺ ìħ¨ìĸ´ìļĶ
ìŀĪ ëįĺ
ĠìķĦ íĭ°
ì¹ĺ ì§Ģ
ĠìĤ¬ íķŃ
Ġìĺ¤ ìĭł
Ġìĭľ ìłĪ
Ġìĭľ ëģĦ
Ġë³´ ìĭľëĬĶ
Ġë³´ ìĺĢìĸ´ìļĶ
Ġíķľ ìłķ
ìłĲ ìĹĲ
ìłĲ ëıĦ
ìĦ¸ ê³Ħ
Ġë§Ī ì£¼
Ġë² ¨
Ġë¬ ĺ
Ġê°Ļ ê¸°ëıĦ
íĺ ¹
ĠìĽĲ ìľ¼ë¡ľ
ĠìķĬ ëĭ¤
Ġë§Į ëĤł
ĠìĹĨ ìĹĪëĭ¤
Ġë°© ìĿ´
Ġë°© ì¹ĺ
Ġì¡° ë§Įê°Ħ
Ġê³µ ìĽĲ
ĠìĹŃìĤ¼ ë§Ľì§ĳ
ê± ±
Ġë¬´ ê¶ģ
ĠíĽĦ ìĭĿ
Ġëĭ¨ íĺ¸ë°ķ
Ġëĭ¨ ì²´ëª¨ìŀĦ
íĶĦ ë¦¬
ê·¼ ìłĳ
ĠìĥĿê°ģ ëĤł
Ġìľł ìŀĲ
Ġìľł íĬľ
Ġì¢ĭìĿĢ ëį°
Ġì½ ¤
Ġë°ĺ ìĦ¸ìĺ¤
Ġì»¤ ëĭ¤
ê³Ħ ê°Ģ
ĠìĨĲ ìľ¼ë¡ľ
Ġëĭ¬ ê±
ĠìĻĢ ìļ°
Ġìµľ ìłģ
ĠëĲ ¨
Ġì£¼ì°¨ ìŀ¥ìĿ´
ĠëħĦ ëıĦ
ì½Ķ ìķĦ
ĠíĶĦ ëłĮ
ĠĠĠĠĠĠĠĠ ĠĠĠ
Ġëĭ´ ìĤ°
Ġëĭ¤ëħĢ ìĺ¤
ĠìĤ¬ìŀ¥ëĭĺ ê»ĺ
Ġë³Ħ ëıĦ
Ġìĭłë¦¼ìłĲ ìĿĢ
Ġìłľê³µ ëĲĺëĬĶ
Ġëĭ¤ëħĢìĻĶ ëĭ¤
Ġìŀ¬ë£Į ëĵ¤ìĿ´
ë°Ľ ìĿĢ
íĪ¬ ë£¸
Ġíķ© ëĭĪëĭ¹
Ġë¶Ģëĭ´ ìĬ¤ëŁ½
ĠíĮ¨ ìĬ¤
Ġëķ¡ ê¸°
ĠìĦ¤ëªħ ìĿĦ
ìĬ¤ëŁ¬ ìĽĮ
ëĨĵ ìĿĢ
ëĤ¬ ìĸ´ìļĶ
Ġë¹Ħë¹ Ķëĥī
Ġë¨¹ê³łìĭ¶ ìĿĢ
Ġíļ¨ê³¼ ê°Ģ
Ġìĭ¹ ìĭ¹
ĠìĿ´ë£¨ ìĸ´ìł¸
ĠìĻĦë²½ íķĺê²Į
Ġì§Ģìĥģ ì¸µ
ĠìĹĲìĬ¤ ì»¬
Ġë³´ëĤ´ ê³ł
ĠëļĿ ëĶ±
ĠìŀĲìľł ë¡Ńê²Į
ĠìķĦëĬĳ íķľ
Ġì¹Ń ì°¬
ĠíĻĶëł¤ íķľ
Ġìĺ¤ëŀ« ëıĻìķĪ
ĠìķĮì°¨ ê²Į
Ġë¿ľ ë¿ľ
ĠìķłìĬĲ ë¦¬
Ġë Į
ìĸ´ ì§Ģ
ìĸ´ íļĮ
Ġìĭł ëĿ¼ë©´
ëĵ Ń
ë¦¬ ë¡ľ
ë° Ķë²łíģĲ
ìķĦ ìķĦ
ì£¼ ê·¼ìłĳ
ìĺ Ĩ
ĠìĿ´ ëĬĶ
ĠìĪĺ ìļ©
ĠìĪĺ íĺľ
Ġê·¸ ì¤ĳ
Ġíķĺ ìħ¨
ĠìĤ¬ ì¼Ģ
íĸ Ħ
ĠìĦľ ë¹Ļ
Ġíķľ íĮĲ
ìĻĢ ìĿ´
Ġë§Ī ëĭ¤
Ġìłķ ìĦ±
Ġë§ĽìŀĪ ëĬĶëį°
ëĦ £
ĠìłĢ ëŀĳ
ĠìĨĮ íĺķ
Ġê°Ļ ìķĺ
ë§Ī ìĤ¬
ĠìłĦ ëĤł
ĠëĮĢ ì¶ľ
ìĨĮ ê°Īë¹Ħ
ĠìĹ¬ ëŁ¿
Ġë°Ķ íĭĢ
ĠìĽĲ ìĿ´
Ġë¶Ģ ë¥´
ĠìĪ ¯
ëĲĺ ìĸ´ìĦľ
Ġë§Į ìķ½
ĠíĮ Ŀ
ĠëĲĺ ìļĶ
ìĦł ìĿ´
ë§Ĳ ë¡ľ
Ġêµ¬ ìĪĺ
Ġì¸µ ìĿ´
Ġê³µ ìļ©
Ġë¹Ħ ë¹Ħ
ëĶ ¸
Ġìĺ¬ ë°Ķ
Ġë¬´ ìĦł
ĠìĥĿê°ģ íķĺë©´
Ġë¨¹ìĸ´ ì£¼
ëĭ¨ ê³Ħ
íĥķ ìľ¼ë¡ľ
ĠëĤ¨ ìĦ±
Ġê²½ ìŁģ
Ġì°¨ ì§Ģ
ê²ĥ ìĿĢ
ìĺģ ë¹ĮëĶ©
Ġê°Ĳ íĬĢ
Ġë°Ľ ìķĦìĦľ
ĠìĨĲ ì§Ī
ĠëĭŃ ëĭ¤ë¦¬
Ġë¶ĦìľĦê¸° ëĬĶ
Ġë¶ĦìľĦê¸° ìĹĲ
Ġëĭ¹ íĻ©
ĠìĸĳëħĲ ì¡±ë°ľ
Ġë°± ë°ĺ
ĠëĦĵ ê²Į
Ġì¹´ ìĿ´
ĠìĿĺ ìĤ¬
Ġíķ´ì£¼ ìĭľê³ł
Ġìŀ¡ ìĿĢ
Ġê±°ë¦¬ ë¡ľ
ĠìłĲìĭ¬ ìĹĲ
ëł¸ ëĬĶëį°
ĠëıĪ ê°ĢìĬ¤
Ġëı¼ ìĦľ
ĠìłĢëł´ íķ´ìĦľ
ìĻ¸ ë¡ľ
íħĮìĿ´ íĨł
ĠìĭĿê°Ĳ ìĿĦ
ĠìĭĿëĭ¹ ìĿ´
Ġìĵ° ê³ł
ĠìĶ »
ë°Ľ ëĬĶ
Ġëªĩ ê°ľ
Ġì¡°íķ© ìĿĢ
ìĭ¸ ë¡±
Ġëľ¨ ëģĪ
Ġëıħ ë¦½
Ġë´¤ ìĸ´ìļĶ
Ġì°© ìĦĿ
Ġê·¸ëłĩ ëĭ¤ê³ł
ĠìĹ¼ íĨµ
Ġì±ħ ìĥģ
Ġëķ¡ ê¸°ëĬĶ
Ġëĭ¨ê³Ħ ë¡ľ
Ġëĵł ëĭ¤
Ġìĺģìĥģ ìľ¼ë¡ľ
Ġì¡°ëªħ ìĿ´
ĠëĥĦ ë¹Ħ
Ġê³± ìĬ¬ë¨¸ë¦¬
Ġìĺ¥ íĿ¬ëĦ¤
Ġê¼¼ê¼¼ íķľ
Ġíľ´ ìĭĿ
ĠìĿ¸íĶĦëĿ¼ ê°Ģ
Ġë» Ķ
ìŀĺ íķĺëĬĶ
Ġë¶Ģíĥģ ëĵľ
Ġê°Ĳì¹ł ë§ĽìĿ´
Ġë³´ëĵľ ê²ĮìŀĦ
Ġë³´ë Ł¬
Ġìĺ¤íĶ¼ìĬ¤ íħĶë¡ľ
ĠìłĦë°ĺ ìłģìľ¼ë¡ľ
Ġì²Ńìĸĳ ê³łì¶Ķ
Ġì¹´ëĿ¼ ë©ĺ
ìĪŃ ìķĦ
ĠëıĦëĳĳ ê³łê¸°
Ġë°ķìŀ¬ ìĦ±ìĿĺ
ì ±
ŀ ĳ
ë¡ľ ë¡Ŀ
ê°Ģ ê¸°
Ġìĭł ëĤĺê²Į
ĠìŀĪ ê²ł
íķ´ ì§Ģê³ł
Ġê°Ģ ë³´ê³ł
ìķĦ ë©Ķë¦¬ì¹´ëħ¸
ĠìĿ´ ë¡ľ
ĠìĿ´ ë¦¬
ëĤĺ ê¸¸
ëĤĺ ìĺ¨
Ġëĭ¤ ëħĶ
ì¹ĺ ê¸°
ë§Į ìľ¼ë¡ľëıĦ
ĠëĤĺ ì¤ĳ
Ġêµ µ
Ġíķľ ê°Ģ
Ġìĭłì´ĮìĹŃ ê³¼
ĠìķĪ ìĹĲìĦľ
ĠìķĪ ì¢ĭìķĦ
ë¶Ģ ë¶ĦìĿ´
ìĿ¼ ê¹Į
ìĤ¬ ìĭľë¯¸
Ġë§¤ ì²´
íĸĪ ëĭ¤ëĬĶ
ĠëĮĢ ëŀµ
Ġê¹ ĢìĿ´
ëĲĺ ìĹĪìĬµëĭĪëĭ¤
íģ¬ ëłĪíİĺ
ĠìĹĨ ìľ¼ë©´
ĠëĲĺ ëįĶëĿ¼ê³łìļĶ
Ġë°© ìĿĮ
Ġë©Ķëī´ ëĵ¤ëıĦ
ĠëıĦ ìĤŃë©´
ë¹ ¼
ë¨¹ ìľ¼ëŁ¬
ĠìĭĿ ê¸°
ĠìĭĿ ë¹µ
ĠìĭĿ íĥģ
ìĺĢ ì§Ģë§Į
Ġë°©ë¬¸ íķĺë©´
Ġëĵľ ìĦ¸ìļĶ
Ġëĵľ ëłĪìĬ¤
Ġìŀ¥ ìĭĿ
Ġë§Ĳ ìĿ´ì£ł
ĠìĹ¬ê¸° ê¹Įì§Ģ
ê¸Ģ ëĿ¼ìĬ¤
ĠíķĺëĤĺ ê°Ģ
Ġëªħ ëŀĢ
íļĮ ê´Ģ
Ġëĭ¤ìĿĮ ìľ¼ë¡ľ
ĠëĦĺ ìĸ´ê°Ģ
ĠìĽĶ ê¸Ī
Ġíıī íĺķ
íķ´ì£¼ ìĭľë©´
Ġë³¸ ìĿ¸
ĠëĪĪ ì¹ĺ
ĠêµĲ íĨł
ĠëĪĦ ë£½
Ġë§Įëĵ¤ ê¸°
ĠìłĲìĭ¬ ìĿĦ
Ġêµ¬ìĽĮ ì£¼
Ġë³¶ìĿĮë°¥ ê¹Įì§Ģ
Ġìĺ¤íĶ¼ìĬ¤íħĶ ìĿ´
Ġìĺ¤íĶ¼ìĬ¤íħĶ ìĿĺ
Ġìĺ¤ëŀľ ë§Į
ĠìķĦìĿ´ ëĵ¤
ĠìĥĲëŁ¬ëĵľ ê°Ģ
Ġê³ĦìĨį íķ´ìĦľ
Ġìķ¼ì±Ħ ëıĦ
ĠìŀĲìĦ¸ ë¡ľ
Ġì±Ħ ê´ĳ
ĠíĻķìĿ¸ íķĺê³ł
Ġìļ´ìĺģ íķĺê³ł
íķ´ë ĳĲ
Ġê°Īë¹Ħ íĥķ
Ġê²Ģ ìĤ¬
Ġìī½ ì§Ģ
Ġëħ¹ ì°¨
Ġìŀ¥ìĨĮ ë¡ľëıĦ
Ġë´ī ì²ľëıĻ
Ġë§ĮëĤĺ ìĦľ
Ġê²¨ìļ¸ ìĹĲ
Ġì²ł ìłĢ
ĠíĶ¼ë¶Ģ ê°Ģ
ĠíĬĢ ê¸´
ë§Įíķľ ê³³
ĠíĤ¤ìĺ¤ìĬ¤íģ¬ ìĹĲìĦľ
Ġíķĺìĭľ ëįĶëĿ¼êµ¬ìļĶ
ĠíĿ¡ ìŀħ
ì§ĢìķĬ ê³ł
ĠĠĠĠĠĠĠĠĠĠĠĠĠĠĠĠ ĠĠĠĠĠĠĠĠĠĠĠĠĠĠĠĠ
Ġì§Ń ì¡°
Ġë°ĶëĶĶ ì½Ķ
Ġìłľì£¼ ëıĦ
Ġê·¸ë¦ĩ ìĹĲ
ĠìĦłíĺ¸ íķĺëĬĶ
Ġë°©íĥĪì¶ľ ì¹´íİĺ
Ġì¡°ê°ľ ì°ľ
Ġìļ°ìĪĺ íķľ
ĠëĶĶì§ĢíĦ¸ íı¬ìĬ¤íĦ°
Ġê°Ĳì¹ł ë§Ľ
Ġìĸ´ë¦° ìĿ´
Ġê¶ģíķ© ìĿ´
Ġì£¼ê¸° ìłģìľ¼ë¡ľ
Ġì§Ģë¦¬ ìĤ°
ĠìĥģëĮĢ ìłģìľ¼ë¡ľ
ì ¾Į
ë¡ľ ë¶ĢíĦ°
ê°Ģ ëıĦ
Ġìĭł ì²´
Ġìĭł ìĤ¬ë¦¬
íķľ ê±°
íķ´ ìł¸ìĦľ
Ġë§Ľ ë³´
êµ¬ ìļ©
ì£¼ ìĿĺ
ëĵ¤ ë§Į
ìŀ¥ ìĸ´
ìĹĪ ëĭ¤ê³ł
ìĻ ĶëĦ¤ìļĶ
ë§Į ìĿĦ
ëıĻ ìĿĦ
ìĻĢ ìĥģ
Ġë§Ī ì¹´
ìĿ¼ ìĿĢ
Ġê¸° ê°Ģ
Ġëĵ¤ ëł¤
Ġëĵ¤ ëłĢ
Ġì§Ģ ìłķ
íĺ ĳ
ìĥģ ìľ¼ë¡ľ
ĠìľĦ ìĹĲëĬĶ
ĠìŀĪëĬĶ ê±°
Ġë°Ķ ì§ĢëĿ½
Ġë¶Ģ ëª¨ëĭĺ
ìļ° ëĬĶ
ì°¨ ëıĮ
Ġë§Į ëĤľ
Ġë§Į ì²ľìĽĲ
ĠíĻ Ķë
Ġê³µ ìĭĿ
Ġìŀħ ê³ł
Ġìŀħ ìłĲ
Ġë¹ Ĺ
íĻĶ ê³±ì°½
ĠìĹ° íĿ¬
ëłĪ ìĺ¤
ìĭ¬ ìĿ´
Ġê³łê¸° ìĭ¸ë¡±
ĠëĤ´ ìĽĲ
Ġíİ¸ ìŀħëĭĪëĭ¤
Ġë¬´ ìłľíķľ
ĠìĦ¸ ìĽĮ
Ġë°©ë¬¸ íĸĪìĸ´ìļĶ
ì¤ĳ ê°ľ
Ġë°ĺ ì£½
ëĥ Ī
ëĤ´ ëĬĶ
Ġê°ĢëĬ¥ íķĺëĭĪ
ĠëĶĶ íħĮìĿ¼
Ġì´Ī ë°ĺ
ĠìĨĲ ìĿĦ
ĠëĭŃ ëª©ìĤ´
Ġë¬¼ ìĿĦ
ĠìĿ´ìļ© íķĺê¸°
Ġë§ĽìĿ´ ìĹĲìļĶ
ìĹ° ìĿĺ
Ġë³´ìĿ´ ëĬĶëį°
ĠìĸĳëħĲ ìĹĲ
ĠëĶĶìłĢíĬ¸ ê°Ģ
Ġë³¸ ìĹ°ìĿĺ
Ġê³¨ ë°ĺ
Ġíĳ¸ ëĶ©
Ġê±´ë¬¼ ë¡ľ
ĠìĤ¼ê²¹ìĤ´ ìĿ´
ĠìŀĪìľ¼ëĭĪ ê¹Į
Ġê°Ģê¹Į ìĽĮ
ĠìĿ¸ë¶Ħ ìĹĲ
´ë° ©
Ġìķ¼ì±Ħ ê°Ģ
Ġë§Īíı¬ íĻĶê³±ì°½
Ġìĺ¤íĶĪ íķľ
ĠíĻķìĿ¸ íķ´
ì¼Ģ ìĸ´
ĠíĶĮ ëŀ«
Ġê±´ê°ķ ìĿĦ
Ġë§Īì§Ģë§ī ìĹĲ
ĠìĿĢ íĸī
ĠíĬ¸ ëłĮ
Ġìº ¬
Ġê½ĥ ëĭ¤ë°ľ
Ġìĸ´ëĬĲ ìĥĪ
Ġë´¤ ìĿĦ
ĠíĦ ±
ĠìĥĿíĻľ ìĿĦ
ìĿ´ìĹĪ ê³ł
Ġì·¨íĸ¥ ê»ı
Ġëįľ ìĸ´
Ġì¿ł íı°
ìŀĸ ìķĦ
Ġì¹ĺìķĦ ë°ĶíĥĢ
Ġê¿Ģ íĮģ
ìĬĪ íİĺëĦĪ
ĠìĻ¸ê´Ģ ë¶ĢíĦ°
ĠëĤ® ìĿĢ
Ġë©Ķë°Ģ ìĪ¯ë¶ĪëĭŃê°Īë¹Ħ
Ġë¶ĢëĵľëŁ¬ ìĽĮìĦľ
Ġëĵłëĵł íķľ
Ġíİ¸ìĿĺ ìĭľìĦ¤
ĠìĦľìļ¸ëĮĢ íķĻêµĲ
ĠìĨĮê°ľíķ´ëĵľ ë¦´
ĠìĦ¼íĦ° íķĦ
Ġì²´íĹĺ ê¶Į
Ġíĺľ ìŀĲ
Ġë°°ë¶Ī ëŁ¬ìĦľ
Ġíģ¼ ì§ģ
ĠíĶĦëĿ¼ìĿ´ë¹Ĺ íķľ
Ġìļķ ìĭ¤
ë©Ķëī ´ë¥¼
Ġê»įëį° ê¸°
ĠëıħìĦľ ìĭ¤
Ġê³łì¶ §
Ġëĭ¨ë°± ì§Ī
Ġì¹¸ ë§ī
ĠìĹĲìĬ¤ì»¬ ëłĪìĿ´
Ġì¹´ìĿ´ ë§ī
ë ·Ķíİĺ
Ģ ìĦĿ
ìĹ ĺ
ì§ ĵ
ìĹĲ ìĿ´
ëıĦ ìĭľ
ëıĦ ê·¸
ê°Ģ ëĵł
Ġìĭł ìĦ¸ê³Ħ
ìľ Ļ
Ġëĭ ĺ
ìĬ¤ ì½Ķ
ì¹ µ
ë©´ ëıĦ
Ġê°Ģ ìĭľë©´
Ġê°Ģ ì¸ł
Ġë³ ´ë©°
ì§ĳ ìĿĺ
ĠìĿ´ ìĤ¬
ĠìĪĺ ë°ĸìĹĲ
ìĥ ĮëĵľìľĦì¹ĺ
ë¬¸ ìĿĦ
Ġëĭ¤ ì±Ħ
ìŀĪ ìĹĪëĬĶëį°
Ġìĺ¤ ë¦¬
Ġìĭľ ëıĦ
ĠëĤĺ ê°Ī
Ġìĭłë¦¼ìĹŃ ê³¼
Ġíķľ ì°½
ìĦ¸ ë¸ĮëŀĢìĬ¤
Ġë§Ī ìłľ
Ġë² ¤
ë¶Ģ ìľĦ
ì¶ ¤
ĠìĿ¸ ê°Ģ
ĠìĿ¸ íķľ
íĸĪ ìĿĮ
íĸĪ ëįĶëĭĪ
íħ ľ
ë§Ī ìłĢ
Ġì§Ģ êµ¬
ĠìľĦ íĹĺ
Ġìłľ ê²©
Ġë°Ķ ìĿ´
ìłģ ìĿ´ì§Ģ
ĠìĹĨ ìĹĪëįĺ
ĠëĲĺ ëįĶëĿ¼êµ¬ìļĶ
ĠìĿ¼ ì£¼
ĠìĬ¤ íħĮìĿ´
Ġíİ ¼
Ġì¤ĳ ìĭĿëĭ¹
Ġì¹ĺ ê³ł
Ġì¹ĺ ìĹ´
Ġì¢ĭìķĦ íķĺì§Ģ
ĠìĭĿ ë¬¼
ĠìľĦì¹ĺ ê°Ģ
ìŀĦ ìĿĦ
Ġì°¾ ê²Į
ìĺĢ ìĿĮ
ĠëĳĲ ë£¨
ĠëĳĲ ê»į
ĠíĸĪ ëĭµëĭĪëĭ¤
íĶĮ ëłĪìĿ´
Ġëĵľ ëĿ¼ë§Ī
Ġê°Ħ íİ¸
íı¬ ë¨¸
ê²ĥ ê°ĻìķĦìļĶ
ĠìĥĪ íķ´
Ġê°Ĳ ìĨĮ
Ġì¶Ķì²ľ íķľëĭ¤
ĠìłĲ ìĹĲìĦľ
ì¹´ ëıĦ
ĠìĻĢ ê·ľ
ĠìĺĪìķ½ ìĿ´
ĠìĺĪìķ½ ìĿĢ
ĠêµŃ ëĤ´
ì¡° ê°ģ
Ġë°¥ ìĿĢ
Ġìķ¼ ìŀ¥
Ġëĭ¹ ìĹ°
ëĭŃ ê°ķìłķ
ĠëĦĺ ì¹ĺëĬĶ
Ġ.. ..
Ġì¦Ĳ ê²ģê²Į
Ġì¹ľêµ¬ ëĵ¤ìĿ´ëŀĳ
Ġë³´ìĿ´ ìĭľì£ł
ì½Ķ ì¸ł
íķ´ì£¼ ìĭľê³ł
íı ´
Ġë³¸ íĻĶë¡ľ
Ġë²ł ëŀĢëĭ¤
ĠìĤ¬ëŀĮ ëĵ¤ëıĦ
Ġê³¨ íĶĦ
ĠëĤĺìĻĶ ëĬĶëį°ìļĶ
ĠìķĪì£¼ ë¥¼
Ġê³ĦëŀĢ ë§ĲìĿ´
Ġê°Ģì§Ģ ê°Ģ
Ġíĳ¸ ëĵľ
Ġë§Įëĵ¤ ê³ł
Ġì²ľ êµŃ
ĠìĤ¼ê²¹ìĤ´ ìĿĦ
Ġë³µ ê³ł
Ġë³µ ìĤ¬
ĠìĿ´ê³³ ìĿĦ
ì¿ Ħ
Ġìŀħêµ¬ ìĹĲìĦľ
ĠìłĦë¬¸ ìĿĺ
Ġìĥģíĥľ ê°Ģ
Ġìĺ¤íĶĪ íķľì§Ģ
ìĨĮìĬ¤ ë¥¼
Ġê¹»ìŀİ ìĹĲ
ĠìľĦì¹ĺíķ´ ìŀĪìĸ´ìļĶ
Ġë¨¹ìĹĪ ìĿĦ
Ġë¶Ģë¶Ħ ìĿĢ
Ġë°°ëĭ¬ ëıĦ
Ġë°°ëĭ¬ ìĿĺ
Ġëª° ëĿ¼
Ġíĥľ ë¸Ķë¦¿
ĠëĦ¤ìĿ¼ ìĥµ
ĠëĮĢíĳľ ìłģìĿ¸
ĠìłĪ ë¡ľ
ĠíĮ¨ ìħĺ
Ġê²ī ìĿĢ
Ġê³ģ ëĵ¤ìĿ´
ĠìŃī ìŃī
ĠìĦŀ ìĸ´
Ġíķ´ë ´¤
Ġì£ Ħ
Ġìŀħë§Ľ ìĿĦ
Ġëĵ±ìŀ¥ íķľ
ĠíĿĳ ë°±
Ġì´īì´ī íķľ
Ġì§Ń ìª¼
Ġê¸°ëĭ¤ë¦¬ ë©´ìĦľ
ìĿ´ìķ¼ ê¸°
ë°¤ ê±°ë¦¬
Ġê·ľëª¨ ê°Ģ
ĠíĿĶ íŀĪ
ĠìħĢíĶĦë°Ķ ìĹĲìĦľ
ĠìŀħìķĪ ìĹĲìĦľ
ëĶĶìłĢíĬ¸ ì¹´íİĺ
ĠëĤĻ ì§Ģ
ë¥ł ìĿ´
Ġì£¼ìĿ¸ ê³µ
íĮĮíĭ° ë£¸
ĠìĿĢìĿĢ íķĺê²Į
ĠìĿ¼ë¶Ģ ëŁ¬
ĠìķĦê¸°ìŀĲê¸° íķľ
ì½Ķë ħ¸
ĠìľłëıĻìĿ¸ êµ¬ê°Ģ
Ġì§Ŀ ê¿į
Ġë§Īì°¬ê°Ģì§Ģ ë¡ľ
Ġëĭ¤ìĿ´ ìĨĮ
ĠìľĻ ìĬ¤íĦ°ëĶĶ
Ġì»´ íĵ¨
ĠìķĦëª¬ ëĵľ
Ġë¬´ê¶ģ íĻĶ
© ëĭĪëĭ¹
ª ©
¹ ł
ì īĲ
í Ľ
ĳ ¥
Ġë ĩ
Ġê ¾¹
Ġìĭ ¼
íķĺ ìŀĲë§ĪìŀĲ
ëĭĪ íĭ°
ì§Ģ íķĺ
ë¬ ´ë¥¼
ìĭľ ê²½
ëŀ ĮìĿ´
êµ¬ ëĭĪ
Ġê°Ģ ìĭľ
Ġê°Ģ ì¹ĺ
ìķĦ íĮĮ
Ġìĭłì´Į ì¹´íİĺ
ĠìĤ ´ëł¤
ì£¼ ë¥¼
ë¶ ķìĸ´ë¹µ
ëł ¬
Ġìĥ Ģ
Ġê·¸ ëŀľëĵľ
ìŀĪ ìĹĪëĭ¤
ĠìķĦ ëĤĮ
Ġëį ĺ
íĮ į
Ġìłķ ëıĪ
ĠìŀĲ ê°Ģ
ĠìŀĲ ê¸°
ĠìĨĮ ëıĦ
ĠëĮĢ ë°©
Ġëª¨ ëįĺ
Ġë¶Ģ ëĵ¤
ĠìĦľìļ¸ ìĿĺ
Ġì§Ħ ìŀħ
ë¯¸ ìķ¼ëģ¼
ĠìķĬ ìľ¼ë©´
Ġë§Į íķľ
íķł ì§Ģ
Ġì¸µ ê¹Įì§Ģ
Ġì¸µ ìĹĲëĬĶ
Ġê±° ëĿ¼ê³ł
Ġëĵ¤ìĸ´ ê°ĳëĭĪëĭ¤
Ġìŀħ ëĭĪëĭ¹
ĠìĹ° ìĿ¸
Ġê³Ħ ìħĶìĦľ
Ġëĵ± ìĤ°
Ġíİ¸ ìĿ´ìĹĲìļĶ
Ġë¬´ ë¦¬
ĠíĽĦ íĽĦ
Ġìĸ´ ë¦´
ë²Ħ ìĦ¯
Ġë°° íĦ°
Ġë°° ê²½
Ġë¯¸ ëĶĶ
Ġì¹´íİĺ ëĬĶ
Ġìŀ¬ ê°ľë°ľ
ĠìĦ¸ ê³Ħ
Ġë¨¹ìĸ´ ë³´ëĬĶ
Ġê·¼ ë¬´
Ġê·¼ ë°©
ê°Ĳ ìĦ±
Ġë°©ë¬¸ íķĺëĬĶ
Ġë°©ë¬¸ íĸĪëĭ¤
Ġë°Ķë¡ľ ë°Ķë¡ľ
ĠìĹŃìĤ¼ìĹŃ ìĹĲ
Ġë¸ Ķë£¨ìĬ¤
Ġë°ĺ ì§Ŀ
Ġìĭľê°Ħ ëıĦ
Ġì»¤ ë¦¬
ë°Ķ ìĿ´
ë°Ķ ëĭ¥
ĠìłĲ ìĿĦ
ì²Ń ìĨĮ
Ġë¨¹ìĿĦ ì§Ģ
Ġê°Ģê²© ìĿĦ
ĠëĤĺìĺ¤ ëĬĶëį°ìļĶ
ĠíĨµ ì°½
Ġì¹ĺì¦Ī ëıĦ
Ġëħ¸ ì¶ľ
ĠíĺĦ ì§Ģ
ĠëĤł ë°¤
íĤ¤ ì§Ģ
Ġëĭ¹ ìĭľ
ìĥī ìľ¼ë¡ľ
Ġì§Ģíķĺ ìĹĲ
Ġëį° ëł¤
ĠìŃĪê¾¸ë¯¸ ê°Ģ
ĠìķĪì£¼ ëĬĶ
Ġíĺ¸ìĦł ìĿĦ
ëĵ± íı¬
ĠëĪĦ ë¦¬
Ġì°įìĸ´ ë¨¹ëĬĶ
Ġì²Ń ëħĦ
íķĺëĭ¤ ë³´ëĭĪ
Ġì°¸ì¹ĺ ë¥¼
ĠìĥĲëŁ¬ëĵľ ë°Ķ
ë°° ëĭ¬
ĠíķĦëĿ¼íħĮìĬ¤ ë¥¼
Ġê°ĢëĵĿ ê°ĢëĵĿ
ĠìĦ± ìĿ¸
Ġì§Ģê¸Ī ëıĦ
Ġíĭ Ī
Ġë§µ ì§Ģ
ĠìĪľëĮĢ ë³¶ìĿĮ
ìĨĮìĬ¤ ìĻĢ
ĠìĻľ ìĿ´
Ġìķ½ê°Ħ ìĿĺ
Ġê·¸ëŁ¬ ëĭĪ
Ġìĭľì¼° ìĬµëĭĪëĭ¤
ĠíĴĢ ìĺµìħĺ
Ġë¶ĢìľĦ ê°Ģ
ĠìĦľê°ķ ë¡ľ
Ġíļ¨ ìľ¨
Ġìŀ¬ë¯¸ ëıĦ
Ġìĸ´ëĶĶ ìĦľ
ë³´ë Ł¬
Ġìĺ¤ë¥¸ ìª½ìĹĲ
Ġë¿Įëł¤ ìł¸
ĠìĬ¬ ìĬ¬
ĠìĿ´ìĸ´ ì§ĢëĬĶ
Ġì¤ĳìĭ¬ ìľ¼ë¡ľ
íľ´ ìĿ¼
ĠìĿ¸íĶĦëĿ¼ ë¥¼
ĠìķĦë§Ī ëıĦ
ìĬ¤íĨł ë¦¬
ĠíŀĪ íŀĪ
ĠìłķíĻķ íķĺê²Į
ĠìĿµíĺĢ ìĦľ
Ġìŀħì£¼ ë¯¼
ĠìĿ´ëĿ¼ ëĬĶ
Ġë©ĭ ì§Ħ
Ġëĵľë¦¬ ê²łìĬµëĭĪëĭ¤
Ġì°¨ëıĮ ë°ķìĿ´
ĠíļĮìĽĲê¶Į ìĿĦ
ĠíĥĿ ë°°
ëŃ Ĳ
Ġë³´ìĿ¼ ëŁ¬
ìı ł
ĠëŁ° ì¹ĺ
ĠëĽ°ìĸ´ ëĤľ
ĠìĽ¨ ìĿ´íĬ¸
ëĵľë¦¼ íĶ¼ë¶Ģ
Ġê·¸ëĤĺ ë§Ī
ê³° íĥķ
Ġìıł ìıł
ĠìĤ¼íķ© ëĭ¹
ĠíĮį íĮį
» Ĳ
Ħ ëįĶ
Ł ½
ìĿ´ ë¡ľ
ìĿ´ ìĺĢìĸ´ìļĶ
íķĺ ê²ł
íķĺ ìĦ¸ìļ©
ìĸ´ ì§ĢëĬĶ
ê¸° ëķĮë¬¸ìĹĲ
ë¦¬ ë©´
ë¦¬ ìłģ
ë¦¬ íĥĢ
Ġìĺ Ĳ
ìĹŃ ìľ¼ë¡ľ
ë¥ µ
ëŀ Ĺ
Ġê°Ģ ëĿ¼
Ġê°Ģ ë§Ī
Ġë¨¹ ëĭ¤ë³´ë©´
ĠìķĦ ìĿ¸
ëĮĢ ëĬĶ
ëıĻ ëĦ¤
ëĵľ ëłĪ
Ġìĭľ ëĤĺëª¬
ĠëĤĺ ë§Į
Ġê³ł ìĤ¬ë¦¬
ê³¼ ìŀĲ
ë³´ ìķĺìĸ´ìļĶ
Ġíķľ ëĳĲ
ìłĲ ìĹĲìĦľ
ĠìĿ´ë »Ĳ
Ġìĭłì´ĮìĹŃ ìĿĦ
ë§Ī ì¼ĵ
ìĥģ ëĭ´
íģ¬ ë¡ľ
ìĪ į
Ġêµ¬ ë¡ľ
ĠìĿ¼ ìĿĦ
Ġê³³ ìĿ¸ëį°ìļĶ
íĻĶ ê³¼
ĠìĦł ê¸ĢëĿ¼ìĬ¤
Ġë²Ī ì§Ģ
ë°© ìĿĦ
ĠìĭĿ ìłĦ
ëĳĲ ê·¼
íĶĦ íĬ¸
Ġë¯¸ ìĹŃ
Ġì¹´íİĺ ë¡ľ
ĠìķĮ ëłĪìĬ¤
Ġìĭ¶ ìĹĪëĭ¤
ĠìĦłíĥĿ íķľ
ì¤ĳ ìĿ¸
ĠíĮĮ ìķħ
Ġê°ĢëĬ¥ íķĺë©°
ê´Ģ ë¦¬ë¥¼
Ġë¶Ī ìĿ´
Ġê°Ģê²© ëĮĢê°Ģ
Ġë°Ľ ìķĺìĸ´ìļĶ
ë¥ĺ ëıĦ
ìĭľê°Ħ ìĿ´
ìĭľê°Ħ ìĹĲ
Ġìĭ¤ ê±°
Ġê±¸ ë¦°
íĺķ ìľ¼ë¡ľ
ĠëħĦ ìĹĲ
ĠëĦĺ ê²Į
ĠìĪľ íķľ
Ġíıī ê°Ģ
Ġë§ī ìĥģ
ĠíĶĦ ëĿ¼
Ġì»¤íĶ¼ ê°Ģ
íķ´ì£¼ ìħ¨ìĸ´ìļĶ
Ġì§Ħíĸī íķĺëĬĶ
´ë³´ ëĭ¤
Ġì¼ ľ
Ġë°± ì¢ħ
ĠìĤ¬ìļ© íķ´ìĦľ
ĠëĲĺìĸ´ ìŀĪëĬĶ
ĠìĤ¬ìŀ¥ëĭĺ ëıĦ
Ġìħ Ķ
Ġì« Ļ
Ġìĭľìŀĳ íķ©ëĭĪëĭ¤
ĠëĪĦ êµ¬
Ġë¹µ ìĿĦ
Ġì°įìĸ´ ë¨¹ìľ¼ë©´
Ġíķ´ì£¼ ëĬĶ
Ġíķ´ì£¼ ìĭľë©´
Ġìŀ¡ ì±Ħ
ëĲ ¨
Ġê²½ìļ° ëıĦ
Ġì°¸ì¹ĺ íļĮ
Ġê³¼ ìłķìĿĦ
Ġìĺ¬ëł¤ ì£¼
ĠìĺĨ ìĹĲëĬĶ
ĠìĿĮë£Į ìĻĢ
ĠìĿĮë£Į ìĪĺ
Ġë¡ľ ìĬ¤
ĠìĿ´ê³³ ìĿ´
Ġê³±ì°½ ìĿ´
íĺĦ ëĮĢ
ëĨ į
ê°Ģì§Ģ ê³ł
íķ´ë³´ ëĭĪ
Ġìŀ¬ë£Į ë¥¼
Ġì¶Ķì²ľëĵľ ë¦¬ê³ł
Ġê¸°ë¦Ħ ê¸°ê°Ģ
Ġëª¨ë¥´ ê³ł
Ġê½ĥ ì§ĳ
Ġëľ¨ ê±°
ë¨¸ ìĭł
ìķ¤ ìª½ê°Īë¹Ħ
ĠìĬ¤íĥĢìĿ¼ ìĿĺ
Ġì¹ĺìķĦ ë¥¼
ĠëĤłìĶ¨ ìĹĲ
Ġì¦Ĳê¸° ê¸°
ĠìĻķ ìĦ±
Ġìĺ¥ ìĥģ
Ġíķ´ë ¨¹
Ġë¹ĦêµĲ ìłģ
ìĩ ł
ĠìŀĪìľ¼ ë¯Ģë¡ľ
Ġì¶Ķìĸµ ìĿ´
Ġë°ĶëĶĶ íĶĦë¡ľíķĦ
ĠìķĦìĿ´ìĬ¤ ìķĦë©Ķë¦¬ì¹´ëħ¸
ĠëıĦìĭľ íĺķìĥĿíĻľì£¼íĥĿ
Ġë§Ĳê³ł ëıĦ
Ġë§ĪìĤ¬ ì§Ģë¥¼
Ġë§İìķĺ ê³ł
ĠíĿĶ ëĵ¤
ëĤ´ë ¶Ģ
Ġë§ĽìŀĪìĹĪ ìĿĮ
´ëł¤ ê³ł
ĠëĳĲíĪ¼ íķľ
íķĺìĿ´ ë³¼
ĠíĺķìĦ± ëĲĺìĸ´
ĠìĪłìķĪì£¼ ë¡ľ
ĠìĬµ ê´Ģ
ĠëĬĺìĸ´ ëĤĺëĬĶ
ĠìĿĺë£Į ì§Ħ
ĠìĦłë¶Ī íı°
Ġê°Ģë²¼ ìļ´
ìļĶê±° íĬ¸
Ġë°Ķê¿ Ķ
ĠìĦ¬ ìĦ¸
Ġê°Ģë§¥ ì§ĳ
ĠìĽĲìĤ° ì§Ģ
Ġìĥģëĭ ´ë°Ľ
Ġë¸ĮëĿ¼ì§Ī ë¦¬ìĸ¸
ĠìĦ¤ëłĪìŀĦ ìĤ¼ê²¹ìĤ´
Ġë³¼ë¥ ¨
Ġëĭ¬ê± Ģ
Ġë§Īìłľ ìĨĮë°Ķ
ĠëĤłë°¤ íı¬ì°¨
ëĵľë¦¼íĶ¼ë¶Ģ ìĹ°êµ¬ìĨĮ
¢ °
¯ Ķ
ë ¢°
ì İĦ
Ľ ê°ķ
ìĿ´ ëŀĢ
Ġí ĵ¨
ë¦ ħëĭĪëĭ¤
Ġìŀ ĥ
íķĺ íķĺ
ìļĶ ê¸Ī
Ġê° ¤
êµ ½
ëĿ¼ ëĭĪ
Ġê³ ¡
ìĹŃ ìĤ¬
ë© į
ìľ¼ ìħ¨
ë©´ ìĿĢ
êµ¬ ë¥¼
Ġê°Ģ ë³¸
Ġëĭ¤ ëĭĲ
Ġì£¼ ìĭłëĭ¤
ìŀĪ ëĦ¤ìļĶ
Ġê² ł
ĠìĤ¬ ëĭ¹
Ġíķ ´ëĤ
ëĵľ ë¦´
ĠëĤĺ ëĵ¤ìĿ´
Ġë³´ ìķĺ
ĠìĽ »
ëŁ¬ ë¦¬
Ġë© ¸
ìĤ¬ ê³ł
ĠìĨĮ ìĭĿ
ĠìĨĮ ì¤ĳ
ĠìĨĮ ë¦¬ê°Ģ
ĠìĨĮ ì½ĶìķĦ
Ġê°Ļ ëįĶëĿ¼ê³łìļĶ
Ġëĵ¤ ìĸ´ìļĶ
Ġë°Ķ ìĬ¤íģ¬
ĠìĥĿ ê²¨
ìļ° ë©´ìĦľ
Ġì§Ħ ìłķ
ĠíĮ ½
ĠìĹĨ ìľ¼ëĭĪ
Ġìŀĺ ëĤĺ
ëŀĳ ìĿĢ
Ġêµ¬ ìĿ´
Ġì¸µ ê³¼
Ġì¸µ ìĪĺ
Ġì¡° ìĦł
Ġìŀħ ìĿ´
Ġë¹Ħ ì¦Ī
ĠìŀĪìĹĪ ì§Ģë§Į
Ġì¢ĭìķĦ ë³´
ì¼ °
ìĺĢ ëĬĶëį°ìļĶ
ĠìĥĿê°ģ ëıĦ
ĠìĥĿê°ģ íķĺëĬĶ
Ġìĭ¶ ìľ¼ìĭł
ĠìĪł ìĿĢ
Ġìĺģ ë¡±
Ġìŀ¥ êµŃ
ĠëĶ° ë¥¸
Ġì§ģ ì£¼ê·¼ìłĳ
Ġì°¨ ë¡Ģ
ëĤ´ ê³¼
ë¸Į ë£¨
ëª¨ ëĵľ
ĠëĿ¼ ê³µë°©
Ġì¢ĭìķĺ ìĿĮ
Ġíı °
Ġìµľ ìĭł
ĠìĤ¼ ëª¨
ĠìĿ´ìļ© íķĺìĹ¬
ĠìĿ´ìļ© íķĺìĭ¤
ĠíĥĢ ë¡ľ
êµĲ ìŀĲ
Ġê±¸ ë¡ľ
Ġë°¥ ìĹĲ
Ġê±´ ëį°
Ġì£¼ì°¨ ê°Ģ
íĺķ ìĻ¸
ĠëĤ´ë¶Ģ ë¥¼
ĠìĹĲ íĶ¼
ĠêµŃë¬¼ ìĿĢ
ĠìĤ¬ëŀĮ ëĵ¤ìĿĢ
Ġê³¨ ë±ħìĿ´
Ġíķľë²Ī ëıĦ
Ġì°¾ìķĦ ê°ĢëĬĶ
.... ..
ĠëģĿ ìĹĲ
Ġê³¼ ê±°
ĠìĥĲëŁ¬ëĵľ ëıĦ
ĠìĥĲëŁ¬ëĵľ ìĻĢ
ëħ¸ ë§Ĳ
ĠìķĦëĭ ĻëĭĪëĭ¤
Ġë³µ ìŀ¡
ĠëıĮ ëıĮ
Ġì¶ľ ìĹ°
Ġìŀħêµ¬ ë¶ĢíĦ°
ĠìŀĲìĦ¸ ê°Ģ
ì¼Ģ íĮħ
Ġë³Ģ íĻĶ
Ġë°ĶìĤŃ íķĺê²Į
ĠìĿ¼ë°ĺ ìłģìĿ¸
Ġê¸°ë¦Ħ ì§Ħ
ĠíĮĶ ê³ł
Ġëħ¹ ìķĦ
ìķ¤ ëħ¸ë§Ĳ
ìĿĦëķĮ ëĬĶ
ë¿ Į
Ġì±ħ ìĿĦ
ĠíĺĦìŀ¬ ëĬĶ
ëĤ¬ ëĭ¤
Ġë©Ģ ì§Ģ
ĠëĦīëĦī íķľ
Ġì§± ì§±
Ġë¹Į íĬ¸ìĿ¸
Ġëĸ¨ìĸ´ ìł¸
Ġëĭ¤ëĭĪ ëĬĶ
ĠíĻĺê²½ ìĿĦ
Ġìĥ¤ìĽĮ ìĭ¤
Ġìĸ¹ ìĸ´ìĦľ
Ġë¶ģ ìłģ
Ġìĭłì²Ń íķ©ëĭĪëĭ¤
Ġìħĭ íĮħ
ê²Ģ ì§Ħ
ìĪĺìłľ ë²Ħê±°
ëļľ ë§ī
ĠìĤ´íİ´ë³ ´ë©´
Ġë§Īë¬´ ë¦¬ëĬĶ
Ġëļľê»ĳ ìĿĦ
Ġíı¼ ìķ¤ëħ¸ë§Ĳ
Ġë¦° ìĥĿ
ĠëĭŃê°ĢìĬ´ ìĤ´
ĠìĥĿìĥĿìłķë³´ íĨµ
ĠìĹ°ëĤ¨ ëıĻ
ì ŁĪ
íķľ ìĭĿ
ĠìŀĪ ê¸¸ëŀĺ
Ġë° ´
Ġê°Ģ ìĭ¤
Ġê°Ģ ìłķìĭĿ
ìķĦ ìłĢìĶ¨
Ġìĭłì´Į ìĿĺ
ĠìĤ Ĳ
ëĵ¤ ê³ł
ĠìĪĺ ë§İìĿĢ
Ġê·¸ ë§Į
Ġê·¸ ë¦°
Ġíķĺ ìĻĢìĿ´
ĠìķĦ ë¡ľë§Ī
ĠìĤ¬ ìłĦ
ëıĻ ìĿ´
Ġìĭľ íĸī
Ġìĭľ ì¦Į
ĠìĿ´ë ¤Ħ
Ġë¶Ħ ìĦĿ
ìĤ¬ íķľ
ìĤ¬ ìĿ´ì¦Ī
ĠìŀĲ ì·¨
ĠìĨĮ ë°Ķ
ĠìĨĮ íĮĮ
ìĺ¤ íĹ¤ìĸ´
Ġì§Ģ ìĽĲ
Ġë°Ķ ê¾¸
ĠìĥĿ ë¦¬
ëł¤ ëĤĺ
ëĲĺ ìĹĪìĸ´ìļĶ
ĠìķĬ ê¸°
ĠëķĮ ê¹Įì§Ģ
Ġìĥģ ìķħ
Ġë©Ķëī´ ìŀħëĭĪëĭ¤
ĠìĬ¤ ì¼Ģ
ĠìĬ¤ ë§ĪíĬ¸
Ġìŀħ ìĿĦ
Ġì¤ĳ ìŀħëĭĪëĭ¤
Ġì¢ĭìķĦ íķ´ìļĶ
ì¼ ł
Ġìĸ´ íĶĮ
Ġë°° ìļ°
Ġë°° ìĽĮ
Ġë¯¸ íĦ°
Ġë¨¹ìĸ´ ì¤ĺìķ¼
Ġë°©ë¬¸ íĸĪëįĺ
ĠëĨ į
Ġì§ģ ê²°
ëĭ¤ëĬĶ ê±°
ĠíĹ ·
íĨµ ëĭŃ
Ġë°ĺ ëĵľìĭľ
ĠìĤ´ ê³ł
Ġíķł ëķĮ
Ġê°ĢëĬ¥ íķł
ĠìĥĪ ìĨ¡
ê´Ģ ìķħ
ëª¨ ìĸĳ
´ë¬ ¸
ĠëĤĺìĺ¤ ëĭĪ
ĠêµŃ ë£°
ĠíĥĢ ìĽĮ
Ġë§ĽìĿ´ ëĭ¤
Ġëªħ ìĭľ
Ġì¹ĺì¦Ī ëĸ¡
Ġë°¥ ê³¼
ĠíĬ¹ ìĪĺ
Ġì£¼ì°¨ ëıĦ
ĠìŀĲë¦¬ ë¡ľ
Ġì¹ľêµ¬ ëĵ¤ìĿ´
ìŀ¬ ìĥĿ
Ġì§Ħíĸī ìĿĦ
ĠìĸĳëħĲ ìĿĦ
ĠëĪĪ ìĿĦ
ĠìŃĪê¾¸ë¯¸ ìĻĢ
Ġì¤Ģë¹Ħ íķ´
ì¦Ŀ ìĿ´
Ġìļ°ë¦¬ ëĤĺëĿ¼
íķĺì§Ģ ìķĬ
Ġëĭ´ ê¸´
ĠìķĪì£¼ ëıĦ
Ġë©Ķëī´íĮĲ ìĹĲ
Ġë©Ķëī´íĮĲ ìŀħëĭĪëĭ¤
Ġì« Ģ
Ġë¹µ ê³¼
ĠìĨĮê°ľ íĮħ
ì» ´
ĠìĿ¸íħĮë¦¬ìĸ´ ìĻĢ
ĠìĺĨ ìĹĲìĦľ
ìĬ¹ ìĿ¸
Ġë§¥ì£¼ ê°Ģ
´ëĿ¼ ìļ°
Ġê³łìĨĮ íķ¨ìĿ´
ĠëĤľ ëĭ¤
Ġíļ Ł
Ġê´ĳ ìĹŃ
ĠìĿ´ìĥģ ìĿĺ
ĠíĪ¬ ëªħ
Ġë©´ ìłģ
ĠëĬĲëģ¼ íķ¨ìĿĦ
Ġê¹»ìŀİ ì°ľëĭŃ
Ġì¦Ŀ ëªħ
ĠìĮĪ ì±ĦìĨĮ
ĠëĤ´ëł¤ ìĦľ
Ġìº ł
ĠíĮĶ ìĿĦ
Ġì¼Ģ ìĸ´ë¥¼
Ġê·¸ëłĩ ì§Ģ
Ġëĭ¨ì²´ ë¡ľ
Ġìĭ± íģ¬
ĠìĭľìĪł ìĿĦ
Ġì§ģìĽĲë¶Ħ ëĵ¤ìĿ´
ì« ĢëĵĿ
ì£¼ìĭľ ëĬĶëį°
ĠíĶĦë¡ľ ìłĿ
ĠìĦŀ ìĸ´ìĦľ
ĠìĺĪìłķ ìŀħëĭĪëĭ¤
íķ´ë³ ¸
ĠíķľêµŃ ìĿ¸
Ġê¸ī íķĺê²Į
Ġëĵ¤ìĸ´ê°Ķ ìĸ´ìļĶ
Ġë£¨ íĬ¸
ĠëıĻìŀĳ ìĿĦ
Ġëģ¼ ê³ł
ìļ´ëıĻ ìĿĦ
Ġì£¼ìĿĺ ìĤ¬íķŃ
ĠìĨĮê°ľíķ´ëĵľ ë¦´ê²ĮìļĶ
ìŁģ ë°ĺ
Ġê¹Ķ ëł¤
Ġë¶Ģíĥģ ëĵľë¦½ëĭĪëĭ¤
ĠìļĶê±° íĬ¸
Ġì¹´ì¹´ìĺ¤ íĨ¡
Ġë´īì²ľ ìĹŃ
ĠëĨĢëŀĲ ìĸ´ìļĶ
Ġë¶ĢìĤ° ìĺ¤ëİħë°Ķ
Ġë°°ì¹ĺ ëĲĺìĸ´
´ë©Ķ ëĿ¼
ĠëĮĢë¡ľë³Ģ ìĹĲ
ĠìĦ¸ë¸ĮëŀĢìĬ¤ ë³ĳìĽĲ
Ġíķľë§Ī ìĿĮ
´Ĳ ìķ¼
Ġë¬¸ìĦ±ê³¨ì¡±ë°ľ ì§ĳ
Ġê·¸ëĭ¤ ìĿĮ
ĠìľłíĬľ ë¸Į
Ġë°ĶíĭĢ ëį°ìĿ´
Ġë°ĶëĶĶì½Ķ ëĵľ
ĠìķĦëĤĮ ìĹĨìĿ´
ĠìķĦìĿ¸ ìĬĪíİĺëĦĪ
Ġë°±ì¢ħ ìĽĲ
ìĿ´ ê¸´
Ġìĭ Ń
íķĺ ì§Ħ
íķĺ ëĭ¤ë©´
ëĭĪ ëĭ·
ê°Ģ ë©´ìĦľ
ì§Ģ êµ¬
ìĿĢ íĸī
ìľ Ī
ìĬ¤ ëıĦ
ĠëĤ ©ëĭĪëĭ¤
ì´ ¬ìĺģ
Ġìĭłë¦¼ ëĭŃê°Īë¹Ħ
Ġìĭłë¦¼ íļĮìĭĿ
ĠìĿ´ ìª½
ëĵ¤ ìĹĲ
ì² ©
Ġëĭ¤ ë¦¬ë¥¼
Ġíķĺ ìĭľê³ł
ĠìķĦ ëĭĪëĭ¤
ĠìķĦ ìĭ¤
Ġê² ª
Ġìĺ¤ ì½Ķëħ¸
Ġìĭľ ê³¨
ĠëĦ ¥
ìŀĲ ìĿĺ
ìŀĲ ì²´
Ġê³ł ê´ĢìłĪ
ê°Ħ ìĹĲ
ë² ¤
ê±° ëĿ¼ê³ł
Ġíķľ ì¸µ
Ġíķľ ìª½ìĹĲ
Ġíķľ ìĿĺìĽĲ
Ġíķľ ì¼ł
ìĻĢ ìĤ¬ë¹Ħ
ìĪĺ ìĹĲ
ìħ Ķë
ìĤ¬ ìĹħ
ìĤ¬ ê±°ë¦¬
ĠìłĦ ê³¨
ë¶Ħ ìĿĢ
ìĨĮ ë§ī
Ġë°Ķ ê¸Ģ
Ġëª¨ ëĭĪ
Ġëª¨ ì°Į
Ġëª¨ ë¥´ê²Į
ëįĶëĿ¼ ê³ł
ĠìķĬ ëĤĺ
ĠìĹĨ ì§Ģ
ĠëĲĺ ëıĦë¡Ŀ
Ġìŀĺ ë¨¹ê³ł
Ġì¸µ ë¶ĢíĦ°
Ġëĵ¤ìĸ´ ìĺ¨
ì½ ĶëĦĪ
Ġì¤ĳ ìĿ¸
Ġíķ´ ìĨĮ
Ġëĵ± ìľ¼ë¡ľ
ì§ľ ìŀ¥
Ġíģ¬ ê¸°ë¡ľ
Ġë°° ëł¤
Ġë¯¸ ì¹ľ
ĠìĥĿê°ģ ëĤĺ
Ġìľł ë°ľ
ĠëĤ¨ ê¸°
ëŀĢ íŀĪ
ĠëĬĲëĤ Ģ
ë¸Ķ ë§ģ
íı¬ ëıĦ
Ġì°¨ ìĿ´
Ġê°ĢëĬ¥ ìĦ±ìĿ´
Ġìĭľê°Ħ íĳľ
Ġì°į ê¸°
Ġì»¤ ë®¤
Ġë§Ĳ íķł
íķ¨ ìĿĢ
ëĭ¬ ìĿĺ
ĠíķĺëĤĺ ë¡ľ
Ġëħ¸ ë¥¸
ĠíħĮìĿ´ë¸Ķ ìĿĦ
ĠëĤł ëıĦ
Ġì¢ħ íķ©
ĠìĽĶ ëĵľ
Ġì¹ľêµ¬ ëıĦ
ĠìĪľ ìĦľ
ĠìĦ¤ íĥķ
ĠìĹ´ ìĸ´
Ġëĸ¡ ìĿ´
Ġì»¤íĶ¼ ëĬĶ
ĠëĶĶìłĢíĬ¸ ë¥¼
ĠìŃĪê¾¸ë¯¸ ìĤ¼ê²¹ìĤ´
Ġì¤Ģë¹Ħ ê°Ģ
ì¦Ŀ ìĿĦ
ĠìĿ´ëıĻ ìĿ´
Ġë©Ķëī´íĮĲ ìĿĢ
ìĬ¤íĬ¸ ìĹĲ
ê±¸ ìĿĮ
Ġì²´ ì¤ĳ
ĠëģĿ ìĿ´
Ġëĸ ¼
ĠìĿ´ë²Ī ìĹĲëıĦ
Ġê´ľì°® ìķĺ
Ġëĸ¡ë³¶ìĿ´ ê°Ģ
Ġì¶ľ ì²ĺ
ì¹ĺì¦Ī ì¼ĢìĿ´íģ¬
Ġìķ¼ì±Ħ ë¥¼
ĠìĭĿê°Ĳ ê³¼
ĠíĮĲ ëĭ¨
ĠíĪ¬ íķĺ
Ġë¿Į ëĵ¯
ĠëĬĲëģ¼ ëĬĶ
Ġë°ĺì°¬ ìĿ´
Ġêµ¬ìĦ± ëĲľ
ĠìĹ°ìĦ¸ë¡ľ ëĤĺê¸¸
Ġìļ© ìĿ´
Ġëļ ±
Ġìĭľì¼° ëĭ¤
Ġë¦¬ë·° ë¥¼
ì³Ĳ ìĦľ
ĠêµĲíĨµ ë§Ŀ
Ġë¶Ģëĭ´ ìĿ´
Ġë¶ĢìľĦ ë¥¼
Ġë°©ë²ķ ìľ¼ë¡ľ
ê°ĢëĬ¥ íķľ
Ġì½©ëĤĺë¬¼ êµŃ
Ġê°ķëĤ¨ìĹŃ ê³¼
Ġë§Īë¬´ë¦¬ ë¡ľ
Ġìĺģìĥģ ìĿĦ
Ġì¡°ìļ© íŀĪ
ĠìĿĺìŀĲ ê°Ģ
ìĹ¼ ìĥī
ĠìĸĳíĮĮ ìłĪìŀĦ
ĠíĥĢìŀħ ìĿĢ
Ġëĭ´ë°± íķĺê³ł
Ġê³µì§Ģ ê¸Ģ
ĠëĮĢë¶Ģë¶Ħ ìĿĺ
Ġë°Ľìľ¼ ëŁ¬
Ġìĸ¹ ìĸ´
Ġë´īì²ľ ë¡ľê¸¸
ĠíĶĮëłĪìĿ´ íĮħ
Ġìłĳê·¼ìĦ± ëıĦ
ĠìĿĢìĿĢ íķľ
Ġê±¸ìĸ´ê°Ģ ë©´
Ġê°ĸì¶° ìł¸
Ġíıīë²Ķ íķľ
ĠëĳĲë¦¬ëĭŃë°ľ ìķ¤ìª½ê°Īë¹Ħ
ĠíĹĪë²ħ ì§Ģ
ĠìķĦíĭ° ìłľ
ĠëĵľëłĪìĬ¤ ë£¸
ĠìĦ¼íĦ°íķĦ ëĵľ
ĠìĿ¼ì£¼ ìĿ¼
ĠíĹ· ê°Ī
Ġì»¤ë®¤ ëĭĪíĭ°
ì īĳ
Ġì ¨
Ġì ©
ëĬĶ ëĭ¤
íķĺ êµ¬
íķĺ ìŀĲ
ì§Ģ ëĿ¼
ë¦¬ íı¬
ĠìŀĪ ê¸´
ëĤ ¼
ëĿ¼ ìļ´
ìĭľ ê°Ģ
ìķĦ ëıĦ
ĠìĿ´ íĥľ
ëĵ¤ ê¹Įì§Ģ
ĠìĪĺ ëĬĶ
Ġê·¸ ìķ¼
Ġê·¸ ëłĪìĿ´
ìľ¼ë¡ľ ìĦľ
Ġëĭ¤ ì°Į
Ġíķĺ ê¸°ë¡ľ
ĠìķĦ ëĭĺ
ì¹ĺ ë§Į
Ġìĺ¤ ëıĮ
ìŀĲ ìĹ°
ê±° ë¦¬ëĬĶ
ê±° ìĺĪìļĶ
Ġìĭłë¦¼ìĹŃ ìĥ¤ë¸Įìĥ¤ë¸Į
ë¹Ħ ë¹Ķ
Ġëį ¥
Ġëį ©
Ġë§Ī ë¦¬
Ġìĭłì´ĮìĹŃ ìĿ´
ĠìķĪ ëĲľ
ìļ© ëıĦ
íĮ ł
Ġìłķ ìľ¡ë©´
Ġë§İ ì§Ģë§Į
Ġë§İ ìķĺìĬµëĭĪëĭ¤
ĠìłĢ ë²ĪìĹĲ
ĠìĿ¸ ìĭ¤
ĠìĿ¸ ëįķìħĺ
ĠìłĦ ìĹĲëĬĶ
ĠìłĦ ë³µ
ìĤ¼ ì´Į
Ġëª¨ ëĭĿ
ĠìĪ ĦëįĶ
Ġë§Į ìĹĲ
Ġë§Į ìĦ±
Ġìŀĺ ëĲĺìĸ´
Ġì¸µ ì¸µ
ĠìĬ¤ íĬ¸
ĠìĬ¤ íĭ°
ĠìĬ¤ íĮĮê²Įíĭ°
ĠìĬ¤ ë¬´ëĶĶ
Ġê³µ ì§ľ
Ġê´Ģ ê³Ħ
Ġìļ° ëł¤
Ġìļ° ìĦ±ë¹ĮëĶ©
ìĤ´ ëıĦ
Ġíİ¸ ìĿ´ëĭ¤
Ġë¬´ íĻĶê³¼
ĠìľĦì¹ĺ ë¥¼
ë²Ħ ëł¸
Ġìĭ¶ ëĭ¤ê³ł
Ġê°ķ íĻĶ
Ġìŀ¥ ìĤ¬
Ġíķł ê²ĮìļĶ
íĭ° ì§Ģ
Ġê¼ ½
ĠìĤ¬ì§Ħ ìĹĲ
Ġì°į ëĬĶ
Ġì°į ìĹĪ
Ġë§Ĳ ìĿĦ
Ġë°Ľ ê¸°
ë§¤ ê¸°
ìĨį ìĪľëĮĢíĥĢìļ´
ĠíħĮìĿ´ë¸Ķ ë¡ľ
ĠìŀĪëĭ¤ ë³´ëĭĪ
Ġê±¸ ë¦¬
Ġìķ¼ ê³±
Ġì£¼ì°¨ ë¹Ħ
Ġìłĳ ìĭľìĹĲ
ĠëħĦ ìłĦ
ĠìŀĲë¦¬ íķĺê³ł
Ġì¡°ê¸Ī ìĿĢ
íĴĪ ìĿĦ
ĠëĬĲëĤĮ ìĿĢ
Ġì¹´ ê³µ
Ġì¤Ģë¹Ħ ë¥¼
ĠìĤ¬ìļ© ìĬ¹ìĿ¸
ĠìķĪì£¼ ë§Ľì§ĳ
Ġê¸¸ ê²Į
ĠìĿ´ëıĻ íķł
ĠìĿµ ìĸ´ìĦľ
Ġìħ °íĶĦ
ìĬ¤íĬ¸ ë¡ľ
ĠëģĿ ëĤĺ
ĠëģĿ ëĤľ
ĠëĨĴ ìĬµëĭĪëĭ¤
Ġì°½ ì²ľ
Ġì°½ ìĹħ
Ġê°ľìĿ¸ ìłģìĿ¸
ĠëĬĲê»´ ì¡Įìĸ´ìļĶ
Ġê¸°ëĭ¤ ëł¸
Ġê°Ģê¹Į ìĽĮìļĶ
Ġì§Ģíķĺì²ł ìĿĦ
Ġìĸ¼ë§Ī ìłĦ
ĠëĴ¤ ì§ĳ
Ġì¹ľìłĪ íķĺê³ł
Ġìĵ° ë¦¬
Ġë©´ ëıĦ
ĠíĹĪ ë¦¬ê°Ģ
ĠìĨĮì£¼ ë¥¼
Ġë°ĺì°¬ ìľ¼ë¡ľ
ĠìľĦì¹ĺíķ´ ìŀĪëĭ¤
Ġëªĩ ë²Ī
ìĬ¤íĦ° ëĦ¤
Ġë¶Ħìĸĳ ê°Ģ
Ġíĺ¼ìŀĲ ìĦľ
Ġì«Ħê¹ĥ íķĺê³ł
ĠíĥĪ ìĿĺìĭ¤
ĠëıĦì°© íķł
Ġê°ľìĿ¸ìłģìľ¼ë¡ľ ëĬĶ
ĠìĭľíĤ¤ ê³ł
ĠëĤ´ìļ© ìĿĢ
ĠëıĦë¦¼ì²ľ ë§Ľì§ĳ
ĠìĽĲë£¸ íħĶ
Ġêµ° ëį°
ĠìĹĲìĬ¤ íĶĦëłĪìĨĮ
ĠíĶĦëłĪ ìī¬
ì»¬ ëŁ¬
ĠíŀĻ íķľ
ĠìķĮëł¤ëĵľ ë¦´ê²ĮìļĶ
ĠìĦ¸íĥģ ê¸°
ĠìłĲìĭ¬ìĭľê°Ħ ìĹĲ
ĠìĦ¸ìĥģ ìĹĲ
ĠìĿ´ìĽĥ ì¶Ķê°Ģ
ĠíĶ½ ìĹħ
Ġë¡¯ëį° ìĭľëĦ¤ë§Ī
Ġì½ķ ì½ķ
ëłĲ ëĿ¼
ĠëĶ°ëģĪ ëĶ°
Ġì²Ļ ì¶Ķ
Ġê·¼ë¦° ìĥĿíĻľ
Ġìłģíķ© íķľ
ĠìłĢìŀĳ ìŀĲ
Ġìĸ´ë¥ ¸
ĠìĬ¹ê°ķ ìŀ¥
ĠíĹĮ íĮħ
Ġì»¤ëĭ¤ ëŀĢ
Ġê·¸ìķ¼ ë§Ĳë¡ľ
ìĹ Į
ìĿ´ ìŀĲ
íķĺ ìĺĢëĭ¤
ìķ Ĺ
ê°Ģ ëĦ¤
´ë ł
ë¥ ´ë³
ë¥ ´ë©Ķ
Ġë§Ľ ëĤĺìļĶ
ĠìĿ´ ë§ĪíĬ¸
ëĤĺ ìĿĺ
ĠìĪĺ ê°ķ
Ġëĭ¤ ìĦ¯
Ġì£¼ ìħ¨ëĬĶëį°
Ġíķĺ ê±°ëĤĺ
ìŀĪ ëĬĶëį°ìļĶ
Ġìĺ¤ ê²Į
Ġìĺ¤ ìĭľë©´
Ġìĺ¤ ë¦¬ì§Ģ
Ġìĺ¤ ëłĪìĺ¤
Ġìĭľ ëł¥
Ġìĭľ ëĮĢìĹĲ
ĠëĤĺ ì§Ģ
ìŀĲ ìĹĲ
ìŀĲ ìĭĿëĭ¹
ë² ¤íĬ¸
Ġìĭłì´ĮìĹŃ ì¹´íİĺ
Ġìłķ ë³´ë¥¼
ë¶Ģ ëĵ¤
ë¬´ íķľ
Ġê¸° ê¾¸
ĠìĿ¸ ìĤ¬
ĠìĿ¸ íĺķ
ìĭł ëĭ¤ê³ł
ìĭł ì²Ń
ìĭ¤ ìĿĦ
íĦ ´
Ġë§Ľì§ĳ ìĹĲ
Ġë°Ķ íĥķìľ¼ë¡ľ
Ġë¶Ģ ìłķ
ĠìĦľìļ¸ ìĹĲ
ìłĦ ìĦ¸
ì°¨ ìĿ´
ĠìķĬ ìķĺìĬµëĭĪëĭ¤
ĠëĲĺ ê¸°
íķĺëĬĶ ê²Į
Ġêµ¬ ë¶Ģ
Ġê³³ ìĿ´ëĿ¼ê³ł
Ġì¤ĳ ê³ł
Ġíķ´ ìŀ¥êµŃ
ë³Ħ ê³¡
ê²ł ëįĶëĿ¼êµ¬ìļĶ
ìĥĿ ê°ģ
ìĥĿ íģ¬ë¦¼
ë°© ìĿĢ
ë°© íĸ¥
Ġê³Ħ ìłĪ
Ġìĺ¬ ë¦°
Ġëĵ± ê°Īë¹Ħì°ľ
Ġíİ¸ íŀĪ
ĠìĭĿ ëĭ¨
Ġëĭ¨ ìķĦíĬ¸
Ġëĭ¨ ì§ł
Ġë°° ê¼½
Ġì¹´íİĺ ëĿ¼ëĸ¼
Ġìĭ¶ ìľ¼ë©´
ĠíĸĪ ìĹĪëĬĶëį°
Ġë°©ë¬¸ íĸĪìĬµëĭĪëĭ¤
Ġì½ Ķë
Ġìĺģ ë¦¬ìłģ
Ġëĵľ ìĭľ
Ġê°Ħ ê²©
ëªħ ìĿ´ìĦľ
ê²½ ìĿĺ
Ġë°ĺ ëł¤
Ġë°ĺ ìĪĻ
ĠíĶ¼ íģ¬
Ġíķł ê¹Į
Ġì´Ī ê¸°
Ġëĭ¬ ê³ł
íķ¨ ìĹĲ
ëĲľ ìŀ¥
ĠíķĺëĤĺ ê°ĻìĿ´
ë¦° ëĤ´
Ġì¹ĺì¦Ī ìĻĢ
Ġê±¸ ë¦¬ëĬĶ
Ġë§ŀ ìķĦ
ĠëħĦ ìĿ´
ĠìĿĮìĭĿ ëıĦ
ĠìĿĮìĭĿ ëĵ¤ìĿ´
ì¹´íİĺ ìĿ¸
Ġíŀ Į
Ġì²ĺìĿĮ ìľ¼ë¡ľ
Ġì²ĺìĿĮ ë¶ĢíĦ°
ëĤľ ëĭ¤
íķ´ì£¼ ìħ¨
Ġì§Ħíĸī ìĿ´
Ġì§Ħíĸī ëĲĺê³ł
ĠìłĢíĿ¬ ëıĦ
Ġëį° ë¦¬ê³ł
ĠëĶĶìłĢíĬ¸ ëıĦ
ĠëĪĪ ê¸¸ìĿĦ
Ġë§¤ìļ´ ë§ĽìĿ´
ìĬ¤íĬ¸ ë¦¿
Ġì²´ ë¦¬
Ġíķ´ì£¼ ìħ¨ìĸ´ìļĶ
Ġê°Ķ ëįĶëĭĪ
Ġìķī ìĿĢ
êµ° ëį°
Ġë§ĪìĿĮ ìľ¼ë¡ľ
Ġê³³ìĿ´ ìĹĪìĸ´ìļĶ
Ġê¸°ëĭ¤ ë¦´
Ġê´ľì°® ìķĦ
Ġë§¥ì£¼ ëıĦ
Ġë¨¹ìľ¼ ëĿ¼ê³ł
Ġê³±ì°½ ìĿĦ
Ġëĸ¡ë³¶ìĿ´ ë¥¼
Ġê´ĳ ëªħ
Ġë³Ģ íĻĶë¥¼
ĠìķĮëł¤ ëĵľë¦¬
Ġì´Īë°¥ ì§ĳ
Ġì¦Ŀ ìĥģìĿ´
Ġìļ© ìĨĮë§ī
Ġë¶Ģë¶Ħ ìĹĲ
ĠìĿ´ë²¤íĬ¸ ë¥¼
Ġíģ´ ë¦¬ìĸ´
Ġê½ĥ ê²Į
ìĬ¤ëŁ½ ê³ł
ĠíĶ¼ë¶Ģ ê³¼
Ġê³ĦëŀĢì°ľ ëıĦ
Ġì£¼ê±° íĺķ
Ġì¾Įìłģ íķĺê³ł
Ġê°Ħìŀ¥ ìĹĲ
Ġì°° ì¹µ
Ġì°Ĳ ë§Ľì§ĳ
Ġë©Ģ íĭ°
Ġë¶Ģì¶Ķ ë¬´ì¹¨
ĠìĿ¼ë³¸ ìĭĿ
Ġë§¤ëł¥ ìĿ´
Ġë§¤ëł¥ ìłģìĿ¸
ë§ŀ ì¶¤
Ġìĭłê²½ ìĵ°
Ġë°Ŀ ê³ł
ĠìĥĪì½¤ íķľ
ĠìºĲ ìĬ¤íĦ°ëĦ¤
Ġì½ĶìĬ¤ ë¡ľ
Ġíı¬ëıĦ ìĽĲ
ĠëıĻì¹ĺë¯¸ ë§īêµŃìĪĺ
ĠìķĪìĭ¬ íķĺê³ł
Ġë¬¼ìĸ´ ë³´
ĠíĶĦëłĪ ë¦¬
Ġë°©ë¬¸íĸĪ ìĿĦ
Ġë§Ŀ ê³ł
Ġìķ½ìĨį ìĿ´
Ġíģ¼ ì§Ģë§ī
ĠíĮĮíĭ° ë£¸
Ġìį° ìĸ´
Ġëª°ëŀĲ ëĬĶëį°
ĠìķĦëĬĳ íķĺê³ł
Ġê¿Ī ëĭ¹
Ġë²½ë©´ ìĹĲ
Ġë°©ë¬¸íķ´ë³´ ìĦ¸ìļĶ
Ġìŀĺëª» ëĲľ
Ġë§ŀìĿĢ íİ¸
ìĵ ¸
ĠìĹīëį© ìĿ´
Ġê³łìĸĳ ìĿ´
ìħĢ íĶĦ
ĠíĶĮëŀĺ íĦ°
ĠìĨĮìĦ¸ ì§Ģ
Ġì§Ģë¦¬ìĤ° ìĤ¼ê³Ħíĥķ
Ġê³łì¶§ ê°Ģë£¨
Ġíİ¼ ì³Ĳ
Ġìłķìľ¡ë©´ ì²´
¸ ì¦Ī
íķ ´ë¥¼
ìĿ´ ëĭĪê¹Į
íķĺ ì§ĢëĬĶ
Ġìĭł íĺ¼
ĠìŀĪ ëĤĺ
ĠìŀĪ ê±°ëĵłìļĶ
ĠìŀĪ ëĭµëĭĪëĭ¹
ìľ ½
ĠìĹ ´ë¬´
ëĤ ĮìĿ´
Ġë§Ľ ìŀħëĭĪëĭ¤
Ġìĭłì´Į ë¡ľê¸¸
Ġìĭłì´Į ë¯¸ìļ©ìĭ¤
Ġìĭłì´Į ëĦ¤ìĿ¼
Ġìĭłë¦¼ ê³łê¹ĥì§ĳ
ìĺ ´
ĠìĿ´ ìĹĲìļĶ
ìĿ¸ ì¤Ħ
Ġëĭ¤ ìļ´
Ġëĭ¤ ëĵľë¦¼íĶ¼ë¶ĢìĹ°êµ¬ìĨĮ
ĠìķĦ ë³´
ì¹ĺ ë¡ľ
Ġì¢ĭ ê²łìĬµëĭĪëĭ¤
ĠìĤ¬ ê³¨
Ġìĺ¤ ìĦ¸ìļĶ
Ġìĺ¤ ëłĮì§Ģ
ìĹĲìĦľ ë§Į
Ġë³´ ìŀ¥
Ġìĭłë¦¼ìĹŃ ìĮĢêµŃìĪĺ
ìłĲ ìľ¼ë¡ľ
ë¹Ħ ì¦Ī
ìĻĢ ìĿĺ
íİ į
íĮ ¥
íķĺê³ł ìŀĲ
Ġìłķ ê±°
ë¶Ģ ìĨį
Ġë§ĽìŀĪ ëĭ¤ëĬĶ
ìĤ¬ ìŀ¥ëĭĺ
ĠìŀĲ ê²©
Ġê°Ļ ìĿĮ
Ġë§¤ íĬ¸
ë§Ī ìļĶ
ĠëĮĢ ìĹ¬
ë§Ľ ìĿĢ
ë§Ľ ìľ¼ë¡ľ
ìĨĮ ê°Īë¹Ħì°ľ
Ġë°Ķ ê²ĮíĬ¸
Ġëª¨ ì§ľ
ĠìĽĲ ëį°ìĿ´
Ġë¶Ģ ë¶Ģ
Ġì§Ħ íķĺê²Į
ìĪ ²
ìłľ ëıĦ
Ġêµ¬ ìļ¸
Ġì¶Ķ ìĽĮìĦľ
Ġìĥģ ì£¼
Ġìĸĳ ìĿĦ
Ġëĵ¤ìĸ´ ìĺ¬
Ġëĵ¤ìĸ´ ìĻĢìĦľ
ëĭĺ ê»ĺìĦľ
ĠìĦł ìłķ
Ġëħ ĢìĦĿ
ìłĢ ë¶Ħ
ìľĦ ë¥¼
Ġê³Ħ ìĭľëĬĶ
ĠìļĶ ìĨĮ
Ġìĺ¬ ëŀĲ
ĠëĤ´ ê³ł
ĠëĤ´ ìĻ¸
ê°ľ ë¥¼
Ġë¯¸ ìĦ¸
Ġì¹´íİĺ ìĬ¤íĬ¸ë¦¿
Ġìĭ¶ ìĹĪ
ĠëĤ¨ ê²¼
Ġíĺ¸ ë¡ľë¡Ŀ
íĸī ìĤ¬
Ġìĸ´ë ĳ
ĠíĮĮ ë§Ī
ê±´ ê°Ģ
ê±´ ê°ķ
íĭ° ìĬĪ
Ġì§ĳ ìĿĢ
ë°Ķ ê¸Ģ
ĠìĹ¬ê¸° ë¡ľ
Ġë¶Ī ìķĪ
Ġë¶Ī ëĭŃ
ĠêµŃ ë°¥
ì¡° ëĺĲ
Ġë¬¼ íĭ°ìĬĪ
ìĹ° ìŀ¥
Ġìĭ¤ ìļ©
ĠëĤł ì§ľ
ĠíĬ¹ ìĦ±
Ġë§¤ìŀ¥ ìĿĦ
Ġê½ ģ
Ġëĭ¤ìĿĮ ìĹĲëıĦ
Ġë°ľ ëĭ¬
Ġì»¤íĶ¼ íģ¬ëłĪíİĺ
Ġìĺ¬ëĿ¼ ìĻĢ
Ġì¹´ ëĵľ
ĠëĦ£ ìľ¼ë©´
Ġê¸Ģ ìĿĦ
ĠìŃĪê¾¸ë¯¸ ë¥¼
Ġê°Ģì§Ģ ëŁ°
ĠíĻį ìĿµ
ĠëłĪ ìĿ´
Ġíķ´ì£¼ ìĭľëĬĶ
ĠëĨĴ ê²Į
Ġì²ľ ìŀ¥
ĠëĬĲê»´ ìł¸ìĦľ
Ġìĸ¸ ì£¼
Ġë¬´ë ¼Ī
ìĸ´ì£¼ ëĬĶ
Ġê°Ģìł¸ ìĺ¤
Ġëį°ìĿ´íĬ¸ ì½ĶìĬ¤
Ġê´ĳ ìŀ¥
Ġë©´ ìĿĦ
Ġë°Ģ ëĸ¡
Ġë³Ģ ìĭł
Ġë°ĸ ìľ¼ë¡ľ
ĠìŀĶ ìĿĦ
Ġê²¨ ìŀĲ
Ġê³łë¥´ëĵľ ëĬĶ
Ġëª¨ë¥´ ëĬĶ
Ġë³´ëĤ ¼
Ġë¬¼ë¡ł ìĿ´ê³ł
ĠíĴĢ ìĸ´
ĠìķĦì§ģ ìĿĢ
ìķ¤ ë¶ģ
Ġë°©ë²ķ ìĿ´
Ġì¹ĺìķĦ ê°Ģ
Ġê³łê¸ī ì§Ħ
Ġíģ¬ë¡ľ ìĻĢìĥģ
ĠìĤ¬ìĿ´ì¦Ī ë¡ľ
Ġë¶Īíİ¸ íķľ
Ġëįķ ìĹĲ
íį¼ ìĬ¤
ĠìĤ¬ìĹħ ìŀ¥ìĿĢ
ĠìĹĺ ëłĪ
ĠìĪĻìĦ± íļĮ
ĠìĻ¼ ìª½ìĹĲ
íģ´ë ŀĺ
ĠìĺĪìłĦ ìĹĲëĬĶ
Ġê·¼ìľ¡ ìĿĦ
Ġíķ´ë³´ ê³ł
Ġë¶Ļìĸ´ ìŀĪëĬĶ
ĠìĦłíĺ¸ ëıĦê°Ģ
Ġì«ĢëĵĿ ì«ĢëĵĿ
Ġê´Ģìĭ¬ ìĿ´
Ġë°°ê³ł íĶĪ
Ġì§Ħë£Į ë¥¼
Ġì²łíĮĲ ìĹĲ
ĠìĮĵ ìĹ¬
ĠíĮĮìļ´ëĵľ ì§Ĳ
Ġìľ¼ëľ¸ ìķĪê²½
ĠíĨµíĨµ íķľ
Ġë§Īë²¨ ëĦ¤ìĿ¼
Ġë°Ģë¦¬ìĸ¸ ë²Ħê±°
Ġìĸĳì§Ģ ë³ĳìĽĲ
Ġê¸°êµ¬íķĦëĿ¼íħĮìĬ¤ ë¥¼
ĠëĤĺëī ĺ
Ġì°°ë¦¬ ìĤ¼ì´Į
´ë¶Ģ íĦ°
Ġíĭ°ëĿ¼ë¯¸ ìĪĺ
ë¸Įë¦¬ ìĤ´
Ġìĺ¬ë°Ķ ë¥¸
Ġë°Ķê¸Ģ ë°Ķê¸Ģ
ĠìºĲìĬ¤íĦ°ëĦ¤ ì¸ł
Ķ ìĦľ
Ġë ®¤
ìĿ´ ìħĺ
ìĿ´ ëįĶëĿ¼ê³łìļĶ
Ġí Ĳģ
ê° ±
Ġìŀ ī
ìĸ´ ë°ĺ
ê¸ ĢìĿ´
ìĦľ ë¹ĦìĬ¤
ëĭĪ ìķĦ
Ġìĭł ìĺģë¹ĮëĶ©
ë¦¬ ë©´ìĦľ
íķ´ ì¡Į
Ġë§Ľ ìĿ´ëĿ¼
Ġê°Ģ ìĭľëĬĶ
Ġìĭłë¦¼ ì§ģìĺģìłĲ
ĠìĿ´ ë§Į
Ġìĥ Ľê°ķ
Ġê·¸ ìĹĲ
Ġìĸ ĩê²Į
Ġíķĺ ìĿ´ëĿ¼
Ġíķĺ ê¸°ëıĦ
ĠìķĦ ë¦¬
ì¹ĺ ìĿĺ
Ġì¹ ´ë©ĶëĿ¼
Ķë ¯¸
Ġìĺ¤ ìĭľ
ëĵľ ëĿ¼
Ġê³ł ìĥĿ
ĠìĦľ ëĤ¨
ê±° ìļ¸
Ġìĭłë¦¼ìĹŃ ëĭŃë°ľ
ĠìĽ ħ
íİ Ģ
Ġìłķ ê²¨
Ġë§İ ìľ¼
Ġë§İ ëĭ¤ê³ł
ìĤ¬ ëŀĳ
ĠìŀĲ ëª½
Ġë§¤ ìĽĮ
íħ Ŀ
Ġëĵ¤ ìĿĦ
Ġëĵ¤ ëįĶëĿ¼êµ¬ìļĶ
ì¦ Ĳ
Ġì§Ģ ê°Ģ
ĠìĹŃ ìĦ¸ê¶ĮìĿ´
ìĨĮ ê¸Ī
ìķ¼ íĤ¤
Ġë§Ľì§ĳ ëĭµê²Į
Ġë°Ķ ìģľ
Ġëª¨ ì¹´
ĠìķĬ ìľ¼
Ġë§Į íĻĶ
Ġìŀĺ ë¨¹
Ġë°© ìĹŃ
Ġêµ¬ ìĿĺ
íķł ìĿ¸
ĠìĬ¤ íı¬
ĠìĬ¤ íħĿ
Ġë¹Ħ ìľ¨ìĿ´
íĻĶ ìĽĲ
ëłĪ ìĭ±
ëłĪ ìĬ¨
ĠìļĶ êµ¬
Ġë¬´ ìĦľ
Ġíĺ¸ íĿ¡
Ġìĺģ ëĵ±íı¬
Ġì§ģ ìŀ¥
Ġë°ĺ ê²¨
ëĤ¨ ìŀĲ
Ġíķł ì§Ģ
Ġíķł ìķĦë²Ħ
Ġì°¨ ìĬĪ
Ġê°ĢëĬ¥ íķĺëĭ¤ëĬĶ
íĭ° ëĵľ
ĠìĤ¬ì§Ħ ê³¼
Ġê°Ĳ ê°ģ
ëĶĶ ì§ĢíĦ¸
ê³Ħ íļį
Ġëĭ¬ ì§Ģ
ë¥ĺ ë¥¼
Ġìķŀ ìĹĲëĬĶ
Ġë¬¸ ìĿ´
êµĲ ëıĻ
ĠíĨµ ìľł
ĠìłķëıĦ ë©´
ìĪľ ìĿ´
Ġì£¼ì°¨ ë¥¼
ĠëŃ ī
Ġëĭ¹ ìŀ¥
Ġëĭ¤ìĿĮ ë²Ī
Ġìĭłì´ĮìłĲ ìĿĺ
Ġë³´ìĿ´ ì§Ģ
ë§ī ìĮĪ
Ġê³µê°Ħ ìĹĲìĦľ
ìĿ´ëŀĳ ëıĦ
ìłĳ ìĭľìĹĲ
ĠëĦĵ ìĸ´
ĠìĿ´ëŁ° ê±°
Ġëĭ´ ìĿĢ
ĠìĿµ ìľ¼ë©´
Ġê°Ķ ìĬµëĭĪëĭ¤
Ġë§¤ì½¤ íķĺê³ł
ìĹĲê²Į ëĬĶ
Ġê¹Ģì¹ĺ ëıĦ
Ġê¹Ģì¹ĺ ìĻĢ
ĠëıĪ ì½Ķì¸ł
ĠìĤ¼ê²¹ìĤ´ ëıĦ
ĠìĿ¸íħĮë¦¬ìĸ´ ë¥¼
ĠìĥĲëŁ¬ëĵľ ë¥¼
Ġì°¸ê³ł íķ´
ì¿ µ
Ķë² ¨
Ġê°Ģìł¸ ê°Ģ
Ġê¸°ëĮĢ íķł
ë´Ĳ ìķ¼ì§Ģ
Ġìłľê³µ íķ´
Ġëį°ìĿ´íĬ¸ ë¥¼
Ġíļ ¡
ĠëĬĲëģ¼ íķľ
ìĿ¸ì§Ģ ëĿ¼
Ġì¼ĢìĿ´íģ¬ ê°Ģ
Ġì´Īë°¥ ìĿĦ
Ġì¦Ŀ ë§Ĳ
ë°Ľ ìĿĦ
Ġë¨¹ìĹĪ ëĭµëĭĪëĭ¤
íķ´ë ²Ħ
ĠëĶ°ëľ» íķĺê³ł
ĠìķĬìĿĢ ëį°
Ġë´Ĳ ìļĶ
ĠìĹħ ë¬´ì§Ģ
ĠìĿ´ë¦Ħ ìĿĦ
ĠìĿ´ë¦Ħ ìĿĢ
ĠìĪĺìĹħ ìĿ´
Ġì£¼ì°¨ìŀ¥ ìĿĢ
Ġë´¤ ëįĺ
ì¹´ì¸ł ëĤĺë²ł
ì£¼ì°¨ ìŀ¥
ë¦Ń ìĬ¤
Ġëķ¡ ê¸¸
ĠëĭŃë°ľ ìĿĦ
Ġê·ĢìĹ¬ ìĽĮìĦľ
ĠìĥģìĬ¹ íķĺê³ł
ìĿ¸ê°Ģ ìļĶ
ì¹¼ íĶĦ
ĠìĹ¬ìĦ± ìłĦë¬¸
ê¿ Ģ
Ġìĭłë¦¼ìĦł ìĿ´
Ġìĺ· ìĿĦ
Ġìĺ· ê±¸
Ġêµ¬ì¡° ë¡ľ
ĠíĿ¡ ìĹ°
ë» Ķ
ĠìķĦë¬´ ê²ĥëıĦ
ĠëĤĺìĺ ´
Ġíİ¸ìĿĺ ìłĲ
Ġë¹Ħë¹Ķ êµŃìĪĺ
Ġì½Ķë¡ľëĤĺ ë¡ľ
ĠìĿ½ ìĸ´
Ġëŀ ľ
ĠëļĿ ë°°ê¸°
ĠìķĮëł¤ëĵľ ë¦´
ĠìĻĢìĿ´ ëĵľ
Ġì¢ģ ìĿĢ
Ġì¸ Ħ
Ġìĭ«ìĸ´ íķĺëĬĶ
ĠëĿ½ ì»¤
ĠìĬ¤íĨł ë¦¬
ĠìĿµìĸ´ ê°ĢëĬĶ
ĠìĿµìĪĻ íķľ
ë¥´ì§Ģ ìĺ¤
ĠìĦłë¦ī ìĹŃ
Ġíĸ¥ê¸ĭ íķľ
ĠìĬ¤íĮ ¸
ê·¸ëŀĺ ëıĦ
Ġëħ¼íĺĦ ë¡ľê¸¸
Ġë¶Ģëĭ´ìĬ¤ëŁ½ ì§Ģ
Ġë¶Ģëĵ¤ ë¶Ģëĵ¤
Ġíķ´ëĤ ¨
ĠíĮ½ ìĿ´ë²ĦìĦ¯
´ëĿ¼ìļ° ëĵľ
Ġìĵ°ë¦¬ ë£¸
ë¬´íķľ ë¦¬íķĦ
ë¹Ħì¦Ī ìĦ¼íĦ°
µ ¸
ļ Ŀ
Ġì ¯Ķ
Ġë ½ķ
ìĿ´ ì¶Ķ
ìĸ´ íĥķ
ë¡ľ ë§Į
ë¡ľ ìľĪ
ëıĦ ìĹĲ
Ġìĭł ë¢°
ĠìŀĪ ì§ĢìļĶ
ìĹŃ ìĿ´
ë¥ ´ë°Ķ
ìĭľ ì¼°
ìĤ ´ë
Ġë§Ľ ê¹Ķ
Ġì§ ĵ
êµ¬ ì¡°
Ġìĭłì´Į ìľ¼ë¡ľ
Ġë¶ ĵ
Ġë¨¹ ìĸ´ìļĶ
Ġë¨¹ ê±°ë¦¬
ĠìĪĺ ìļĶìĿ¼
Ġê·¸ ë¦Ń
ì° Ĳ
Ġëĭ¤ ì§Ĳ
Ġì° ¢
Ġíķĺ ê¸°ìĹĲ
ìŀĪ ìĿĦ
ìŀĪ ëįĶëĿ¼êµ¬ìļĶ
ĠìķĦ ìĽĥ
ĠìķĦ ë¹ł
ì¹ĺ ìĹĲ
ë³´ ëĵľ
ë³´ ìķĺìĬµëĭĪëĭ¤
ĠìĦľ ìĿ´ì¶Ķ
Ġë³´ ìĺĢëĭ¤
Ġíķľ ìłĲ
Ġëį §
íĮ Ķë¡ľ
Ġìłķ ë¬¸
Ġìłķ ìľ¡ìĭĿëĭ¹
Ġë§ĽìŀĪ ëĦ¤ìļĶ
Ġë§İ ì§ĢëĬĶ
ĠìĨĮ ê³±ì°½
ìĭł ëĭ¤ë©´
ĠìłĦ ëĭ¬
ë¶Ħ ëĵ¤ìĹĲê²Į
Ġì§Ģ ìłĢë¶Ħ
ìķĺ ëĭµëĭĪëĭ¤
ìĥģ ê¶Į
Ġê²ĥ ë§Į
Ġê²ĥ ê³¼
Ġëª¨ ìķĦ
Ġëª¨ ëħĢ
Ġë§Į ëĤ¨
ĠìĹĨ ëĦ¤ìļĶ
ĠìĹĨ ìĹĪì§Ģë§Į
ë§Ĳ ëŀŃ
ĠëķĮ ì¯¤
ĠìĬ¤ íħĮ
ĠìĺĪ ë¯¼
Ġëĵ¤ìĸ´ ìĻĢ
Ġìŀħ ëł¥
ĠëıĦ ë¯¸
ĠíĻĶ ìĿ¼
ĠìļĶ ë¦¬ë¥¼
ĠíĽĦ ìĹĲëĬĶ
ĠíĽĦ ëĭ¤ëĭ¥
Ġëĭ¨ ëĭ¨
Ġë¯¸ ìĨĮ
ĠëĤ¨ ê¸°ê³ł
Ġëĵľ ëŁ¬
Ġëĵľ ëłĪìĭ±
Ġê²½ ìŀĲìĭĿëĭ¹
Ġë°ĺ ìĺģ
ê°Īë¹Ħ ëĬĶ
ëĤ¨ ì§ĳ
íı¬ ëłĪ
ìª½ ìĹĲìĦľ
Ġì°į ìĹĪëĬĶëį°
íķĺê¸° ê°Ģ
ëĶĶ ìŀĲ
ĠëĶĶ ìĬ¤íģ¬
Ġë°Ľ ìľ¼ë©´
ë§¤ ë§¤
Ġìļ´ëıĻ ë³µ
ĠìĨĲ ìĹĲ
ĠëĤĺìĺ¤ ìŀĲë§ĪìŀĲ
ĠìĤ¼ ìĦ±
íĿ ī
Ġìķŀ ìłĳìĭľ
ĠëķĮë¬¸ ìŀħëĭĪëĭ¤
êµĲ íļĮ
íĽĦ ìĹĲ
íĽĦ ìĿĺ
ĠíĨµ ë§ĪëĬĺ
ĠëĲ ©ëĭĪëĭ¹
ĠëĶ± ëĶ±
Ġëĥ ħ
Ġë§¤ìŀ¥ ëıĦ
ìĥī ìĿĺ
ĠìĦ¤ ìłķ
Ġì¢Ģ ëįĶ
ê¶Į ìĿĦ
ë³¼ ê¹Į
Ġëį° ìĽĮ
ĠëĶĶìłĢíĬ¸ ëĬĶ
ĠìĪłì§ĳ ìĿĦ
íĻĺ ìĺģ
Ġì¤Ģë¹Ħ íķľ
Ġë¹ł ì§Ģë©´
ĠëĲĺìĸ´ ìŀĪê³ł
Ġëª© ìļĶìĿ¼
Ġê³ĦëŀĢ ìĿĦ
Ġê³ĦëŀĢ ë§Ĳ
Ġì°¾ìķĦ ë³´
Ġì²´ ìĸ´
ĠëĪĦ ìĽĮ
Ġë¹µ ëıĦ
Ġì°įìĸ´ ë´¤ìĸ´ìļĶ
Ġíķ´ì£¼ ìħĶìķ¼
ĠëĬĲëĤĮìĿ´ ëĭ¤
ĠëĬĲëĤĮìĿ´ ìĹĪìĸ´ìļĶ
ĠìĻĶ ìĿĦ
Ġê³¼ ìĹ°
ĠìĤ¼ê²¹ìĤ´ ìĿĢ
Ġê²° ë¡ł
Ġë³µ íķ©
ĠëĨĢ ê±°ë¦¬
ĠìĿ´ê³³ ìĿĺ
ì¿ ¤
ìĸ´ì£¼ ìħĶìĦľ
Ġíĸ¥ ëıĦ
ĠìĭĿëĭ¹ ìĿĢ
ĠëįĶìļ± ëįĶ
Ġë°Ģ íĤ¤
ĠìķĦëĭĮ ê°ĢìļĶ
Ġëª¸ ë³´ìĭł
ìĬ¤íĦ° ëĶĶë£¸
Ġìĥī ê°Ĳ
íķĺìĭľ ê¸°
ĠëĤ´ëł¤ ê°Ģ
Ġì£¼ë°© ìĿ´
Ġì£¼ë°© ìĹĲìĦľ
Ġëª° ëł¤
Ġíĥľ ëĭĿ
Ġìī¬ ë¦¼íĶĦ
ëı¼ ìĦľ
ìŀĲë¦¬ ìĹĲ
Ġë¨¹ìĸ´ìķ¼ ì§Ģ
Ġìĭłê¸° íķľ
ĠìĹĦë§Ī ê°Ģ
ĠìĹĦë§Ī ëŀĳ
ëª¨ìŀĦ ê³µê°Ħ
Ġê·¼ìľ¡ ìĿ´
ìĻĦ ë£Į
ĠìķĦìī½ ê²ĮëıĦ
Ġë§İìķĺ ëįĺ
ĠìĹ¬ëĵľë¦Ħ ìĿ´
Ġë¹Ħë²¼ ìĦľ
íĶ¼ë¶Ģ ê³¼
Ġíĺ¹ìĭľ ëĤĺ
Ġê³łìĭľ íħĶ
Ġë¸ĮëĿ¼ ìļ°ëĭĪ
ë©´ë ĮĢ
ĠìĹ°ìĬµ ìĭ¤
ìĭľíĤ¤ ëĬĶ
Ġëī´ ì§Ħ
Ġë¸Ķë£¨ ë²łë¦¬
ìĨįëĪĪìį¹ íİĮ
Ġê¾¸ëįķ íķľ
Ġìłľë¡ľ íİĺìĿ´
Ġë¡¯ëį° ë°±íĻĶìłĲ
ìĩ¼ íķĳ
Ġê±°ê¸° ëĭ¤
íı¬ìŀ¥ ë§Īì°¨
Ġì¤ĳëıħ ìĦ±
ĠìĤ´íİ´ë³ ¼
ĠìłĦë°ĺ ìłģìĿ¸
Ġê³¤ ëĵľëłĪ
ĠëĤŃ ëĤŃ
íĥĢìĿ´ ìłĢ
Ġë°ĺê°ĳ ê²Į
ĠìķĦíģ¬ ìķ¤ë¶ģ
Ġíķĺëħ¸ìĿ´ ë§¥ì£¼
ĠëĤĺë¨¸ ì§Ģ
Ġìķ¼ëģ¼ ìĨĮë°Ķ
Ġìłľìľ¡ ë³¶ìĿĮ
Ġëª¨ëį¸ íķĺìļ°ìĬ¤
Ġì§ĦìĹ´ë Ĳĺìĸ´
ĠìŀĲë¦¬ìŀ¡ ê³ł
ëĥĦ ìĥĪ
ĠìĦľë¶Ģ ìĦł
ëĿ ł
ë§ĪìĤ¬ ì§Ģ
ĠìĹ°íĿ¬ ëıĻ
íĺķìĻ¸ ê³¼
Ġìķ¼ê³± ìĿĺ
Ġíı¬ëıĦìĽĲ ìĤ¼ê³Ħíĥķ
ĠìĹĺëłĪ ë²łìĿ´íĦ°
ĠíķĺìĿ´ëĿ¼ ìĿ´íĬ¸
ª Ħ
ë »¤
ìļ ¥
ë¦ ´ëķĮ
ìĹĲ ìĿ´ëĵľ
ê²Į ìļ©
ìĭľ íĤ¬
ìĬ¤ íĭ±
ìķĦ ìĥģ
Ġë¶ Ĳ
ì£¼ ë¨¹ë°¥
ĠìĿ´ ì§ĳ
ĠìĿ´ ëĭ¬ìĿĺ
ëĤĺ ìĻĢ
ĠìĪĺ ìŀħ
Ġê·¸ ê±°
Ġê·¸ ëł¤
Ġê·¸ ê³³
ìĽ ¨ìĿ´
Ġì£¼ ê´Ģ
ĠìķĦ ê¹Ŀ
ì¹ĺ ìĤ´
Ġìĺ¤ ëĶĶ
Ġë³´ ê²Į
Ġë³´ ìĭľ
Ġíķľ ëĭµëĭĪëĭ¤
Ġíķľ ëĭ¤ë©´
Ġíķľ ê°Ģì§Ģ
ìĻĢ ìĿ¸
ìĪĺ ë¦¬
Ġë© į
Ġìłķ ìĽĲ
ë¶Ģ ë¥¼
ìĤ¬ ë¬´
ĠìĨĮ ëıħ
ĠìĿ¸ ëį°ìļĶ
ìŀħ ì£¼
ìĺ¤ ë¦¬
Ġëĵ¤ ëįĶëĿ¼ê³łìļĶ
Ġì§Ģ ë£¨
Ġë°Ķ ì§Ī
Ġë°Ķ ëłĲ
Ġë¶Ģ ë¥´ëĬĶ
ĠìĥĿ ë§¥
ë¯¸ ë¥¼
Ġë§Į ëĤĺëĬĶ
ĠëĦĪ ëĬĶ
ĠíĻ ĢìĿ´
Ġì¶Ķ ìĦ¸
ĠëķĮ ê¹Ķ
Ġìĥģ ê´Ģ
ĠìĬ¤ ë¯¸
ĠìĬ¤ íĮĢ
íĥĢ ëıĻ
Ġì£¼ë¬¸ íķ´ë³´
Ġìŀħ ìĨĮ
Ġë¹Ħ íķ´ìĦľ
ìĥĿ ì±Ħ
Ġìļ° ìļ¸
íħĮ ëĿ¼íĶ¼
Ġíİ¸ ìĿ´ëĿ¼ìĦľ
ê°ľ ê°Ģ
Ġëĭ¨ ê³¨ìĿ´
Ġìĸ´ ì¨
íĭ Ī
Ġì¹´íİĺ ìĿ¸
ĠìĦ¸ ë¯¸ëĤĺ
ĠìķĮ ìĭ¸
Ġìľł ìŀħ
Ġìľł ìĦł
ĠíĸĪ ìĿĦ
Ġê°ķ ìķĦì§Ģ
Ġê°ķ ìĽĲëıĦ
ĠìĦłíĥĿ ìĿ´
íĶĮ ëłĪ
íĮĲ ìĿ´
Ġìĸ´ë °
ĠíĮĮ ìļ°
Ġíķł ë¡ľìľĪ
ëĤ´ ìŀĲ
Ġê°Ĳ ìĭ¸
Ġì¢ĭìķĺ ëĭµëĭĪëĭ¤
Ġì´Ī ì½ľ
ê¸Ģ ë¦¬
ĠíķĺëĤĺ ìĿĺ
ĠíķĺëĤĺ ìĿ¸
ê¹Ģ ìĹĨìĿ´
Ġìĭ¤ ìŀ¥
Ġìĭ¤ ìŀ¥ëĭĺ
Ġìĭ¤ ë§Ŀ
ĠíħĮìĿ´ë¸Ķ ìĹĲìĦľ
Ġê±¸ ìľ¼ë©´
Ġëª» íķł
ĠíĿ ł
Ġì£¼ì°¨ ê³µê°Ħ
ĠëħĦ ê°Ħ
Ġì¢ħ ë¡ľ
Ġê¸°ë³¸ ìķĪì£¼
Ġì¦Ĳ ê²¼
Ġë¦¬ ì¡°ëĺĲ
ĠêµŃë¬¼ ëĭŃë°ľ
ĠìĺģìĹħ ìĿĦ
Ġì§Ħíĸī íķł
ĠìĪłì§ĳ ìĹĲìĦľ
Ġìĺ¬ëĿ¼ ìĺ¨
´ëĤ ł
ìį ¸
Ġê¸¸ ìĿĦ
ì´Ī ëĵ±íķĻêµĲ
Ġë¹µ ë¹µ
Ġëª¨ìĬµ ìĿ´ìĹĲìļĶ
Ġë¸Į ë£¨
Ġì¢ħë¥ĺ ë¥¼
Ġë³Ħ ëıĦë¡ľ
ê³¨ íĶĦ
Ġëĳ ¥
Ġíģ¬ë¦¼ íĮĮìĬ¤íĥĢ
Ġë³¶ìĿĮë°¥ ìĿ´
ëĬĲ ëĤĮìĿ´
ĠìĿ¸íħĮë¦¬ìĸ´ ëĬĶ
ĠëĬĲê»´ ì§Ħëĭ¤
Ġìĸ¸ ê¸ī
Ġì°¸ê³ł íķ´ì£¼ìĦ¸ìļĶ
Ġë§¥ì£¼ ë¥¼
ĠëıĮ ëł¤
Ġíĸ¥ ê³¼
ĠëĤľ ìĿ´
Ġê¸°ëĮĢ ëĲĺëĬĶ
Ġë¹¨ ëŀĺ
ë´Ĳ ìĦľ
ê°Ķ ëĬĶëį°
ĠíĹĪ ëĭĪ
Ġìĺ¤íĶĪ íĺķ
Ġë¯ ¹ìĬ¤
Ġë°Ģ ìĸ´
ì§¸ ë¡ľ
Ġìĭ¸ ë¨¹ìľ¼ë©´
Ġë°ķ íĺĢ
Ġë¨¹ìĹĪ ëĦ¤ìļĶ
Ġë¨¹ìĹĪ ëĬĶëį°ìļĶ
ĠìĿ¼ë°ĺ ìłģìľ¼ë¡ľ
Ġìĭ¶ìĿĢ ëį°
Ġë¨¸ ê¸Ī
Ġì¦Ĳê¸¸ ìĪĺ
ĠíĹ¤ ëĵľ
Ġëĭ¬ëĭ¬ íķĺëĭĪ
Ġëª¨ìŀĦ ìĿ´
ĠíĥĦ ëł¥
ĠìĥĿíĻľ ìĿĺ
ìĿ´ìĹĪ ì§Ģë§Į
Ġì²ł ê±°
Ġìī¬ ëĬĶ
Ġì½©ëĤĺë¬¼ ëıĦ
Ġëĭ¨ê³Ħ ëĬĶ
Ġì£¼ê±° ìļ©
ĠìķĬëĬĶ ëĭ¤
ĠìŀĲê·¹ ìłģìĿ´ì§Ģ
Ġêµ¬ê²½ íķĺëĬĶ
Ġì§ģìŀ¥ìĿ¸ ëĵ¤ìĿ´
Ġì£¼ìĭľ ëįĶëĿ¼êµ¬ìļĶ
ĠíĶĦë¡ľ íķĦ
ëŀĦ ê¹ĮìļĶ
íħĲ ì¸ł
Ġìĵ ±
Ġì´īì´ī íķĺê³ł
ĠìĨĶì§ģ íķĺê²Į
Ġê¼¼ê¼¼ íŀĪ
Ġíľ´ ê²Į
Ġê¾¸ì¤Ģ íķĺê²Į
Ġë°Ķë ¹ł
ĠìĹ¼ìĥī ìĿĦ
Ġë¹Ħë¹Ķ ë§īêµŃìĪĺ
Ġë°°ë¶Ģ ë¥´
ĠìĹ¬ìľł ë¡Ńê²Į
ĠìķĦì¹¨ ìĹĲ
ĠìŀħìķĪ ìĹĲ
ĠìŀĳìĹħ ìĿĦ
ĠëĽ° ìĸ´ëĤĺ
ĠëļĿ ë°°
Ġíķľìª½ ìĹĲëĬĶ
ĠíĬ¹ìĿ´ íķĺê²Į
ĠëģĮ ê³ł
ëĩ ¸
ĠíļĮìĽĲëĭĺëĵ¤ ê»ĺ
Ġëĺĳ ê°ĻìĿĢ
Ġë¬´ê²Į ë¥¼
ìĵ ±
Ġìĺ® ê²¨
Ġë¯¸ëŀĺ ê°Ģ
Ġìĸ´ëĶ ľ
ĠëĿ¼ìĿ´ íĶĦ
Ġëĸłìĺ¤ ë¥´ëĬĶ
ìķĦëĭĪ ëĿ¼
Ġìĸ´ë¨¸ ëĭĪ
íķ´ë¬¼ ì¹¼êµŃìĪĺ
ĠìĦ¸ëł¨ ëĲľ
Ġë§Īëĵ¤ ëłĮ
Ġì¹´ìļ° íĤ¤
íĸĦ ë²Ħê±°
ĠëĪĦë£½ ì§Ģ
Ġì»´íĵ¨ íĦ°
ĠìħĶ íĭĢ
ĠìĽ» ì»¤íĶ¼
Ġìºł íķĳ
ĠìĤ¬ìļ©ìĬ¹ìĿ¸ ìĿ¼
Ġëª¨ì§ľ ëłĲëĿ¼
Ġíķĺëħ¸ìĿ´ë§¥ì£¼ ë°¤ê±°ë¦¬
Ġì į¼
Ġì ī´
ë¡ľ ëĵľ
ëĭĪ ê¹Ĳ
Ġìĭł ëħĦ
ê¸° ê¹Įì§Ģ
ë¦¬ ì½Ķ
ĠìŀĪ ëĭ¤ê°Ģ
ĠìŀĪ ê²łì§Ģë§Į
´ë ¨¸ë¦¬
ìĹŃ ìĹĲ
ì¹ «
ë©´ ê³¼
ì£¼ ë©´ìĦľ
Ġìĭłë¦¼ ì¡±ë°ľ
Ġìĭłë¦¼ íĺ¸ìłĲ
ìĿ¸ ì¤ĳê°ľ
Ġìĥ ¹
ìŀ¥ ê°ĳ
Ġê·¸ ìłĢ
ìĽ ¨
ë¬¸ ê³ł
Ġíķĺ ìĦ¸ìļĶ
Ġì¢ĭ ì£ł
Ġê¸ ´ë¨¸ë¦¬
Ġìĭľ ê³µ
ĠëĤĺ ê°ĢìĦľ
ë² ³
Ġë³´ ìĭľê³ł
Ġíķľ ìłģ
Ġíķľ íİ¸
Ġìĭłì´ĮìĹŃ ë¡ľ
Ġë² Ķ
Ġë© °
Ġë§İ ìĿĮ
Ġë§İ ìľ¼ëĭĪ
ìĿ¼ ìĭĿ
Ġê¸° ìļ¸
Ġê¸° ìļ´
ĠìĿ¸ ë¶ĦìĿ´
Ġë§¤ ìļ¸
ĠìłĦ ë§¤
ĠìłĦ íĽĦ
ë¶Ħ ìĿĺ
ìķ¼ ì±Ħ
Ġë§Ľì§ĳ ìŀħëĭĪëĭ¤
ìłķ ë§Ĳ
Ġëª¨ ë¥¼
Ġëª¨ ê³µ
ìļ° ê¸°
Ġì§Ħ ë¦¬
ĠíĮ Ķë
Ġìŀĺ ê²Į
Ġë°© ìĭĿìľ¼ë¡ľ
ĠëĦĪ ëª¨
íķł ê¹Į
Ġìĥģ ì°¨ë¦¼
Ġë©Ķëī´ ìĻĢ
ĠìĬ¤ íĤ¨
ĠìĬ¤ íĮĮìĿ´
ĠìĺĪ ì¸¡
Ġìĸĳ ìª½
ĠëĬĲ ë£¨
Ġë¹Ħ ìĺ¤ëĬĶ
ëĶ ľ
ìłĢ ëŁ°
Ġê°ľ ëĤĺ
ê²ł ì§ĢìļĶ
ĠíĬ ¼
ìĤ´ ê³¼
ë¨¹ ìĿĢ
Ġë¬´ ë§ĲëŀŃ
ĠíĽĦ ë°°
Ġì°¸ ê¹¨
Ġíģ¬ ê¸°ëıĦ
Ġì°¾ ìķĺëĭ¤
ĠìĥĿê°ģ ìĹĲ
ĠìĥĿê°ģ íķĺìĭľë©´
ì¤ Į
ìķ½ ìĿĦ
Ġë°©ë¬¸ íķĺê¸°
Ġê²½ íĹĺìĿ´
ëĤ¨ ìĻĦ
ĠíķĦ ë§ģ
Ġì§ĳ ê²Į
Ġì°į ì§Ģ
Ġë§Ĳ íķ´
ĠíļĮ ë¥¼
Ġì´Ī ë³´ìŀĲ
Ġìµľ ìĦłìĿĦ
ĠìĤ¼ ì´Į
Ġê¹Ģ ëĤ¨ìĻĦ
Ġë¬¼ ìĿ´
Ġëģ Ī
êµĲ íķ©
Ġë¶ĦìľĦê¸° ìĹĲìĦľ
Ġëª» íĸĪì§Ģë§Į
ĠëĲľ ëĭ¤ëĬĶ
íĺķ íĥľ
ĠëħĦ ë¶ĢíĦ°
ĠìŀĲë¦¬ ë§Īëĭ¤
ë£¸ ìĺ¤íĶ¼ìĬ¤íħĶ
Ġìĭłì´ĮìłĲ ìĹĲ
íĨł ëŀĳ
ĠìĪľ ìĭĿ
Ġê°ķëĤ¨ íĥĢìĽĮ
Ġëĸ¡ ê¼¬ì¹ĺ
ê¼ Ń
íķ´ì£¼ ê³ł
ĠìĸĳëħĲ ê°Īë¹Ħ
ĠìĤ¬ëŀĮ ëĵ¤ìĿĺ
Ġê³¨ ëĿ¼ìĦľ
Ġë§¤ìļ´ ê±°
ĠëĤĺìĻĶ ëįĺ
Ġë¹ł ì§Ħ
Ġëĭ´ ìĹĲ
Ġëĭ´ ìķĦìĦľ
´ëĤ ´
ĠíĻį ë³´
ëĵ± ìĿ´
Ġìĭľìŀĳ íķ´ìĦľ
ĠëĪĦ ëł¤
Ġê¹Ģì¹ĺ ëŀĳ
ì¸µ ìĿ´
ê²° ìłľ
ë©Ķëī´ ëıĦ
ë²ł íĬ¸
ĠëĤĺìĺ¨ ëĭµëĭĪëĭ¤
ĠìķĦìĿ´ ëĵ¤ìĿ´
ĠìĿ¸íħĮë¦¬ìĸ´ ìĹĲ
ĠìĥĲëŁ¬ëĵľ ëĬĶ
ĠìĿĮë£Į ê°Ģ
ĠíĻĺ ìĺģ
ĠëĬĲê»´ ì§Ī
ì¡Į ê³ł
Ġê´ľì°® ìķĺìĸ´ìļĶ
ĠíĶ¼ìŀĲ ê°Ģ
ĠíķĦëĿ¼íħĮìĬ¤ ê°Ģëĵł
Ġê³±ì°½ ê³¼
Ġëķ Ģ
ê¼¬ ëĵ¤
ĠìĨĲëĭĺ ëĵ¤
Ġë³´ê¸° ìĹĲëıĦ
Ġë¸Ķë¡ľê·¸ ìĹĲ
ĠìĦľë¹ĦìĬ¤ ëıĦ
ĠëĬĲëģ¼ ê³ł
Ġë£¸ ìĿ´
ìĭłë¦¼ìĹŃ ìłĲ
Ġë°ķ ìĬ¤íĢĺìĸ´
Ġê¹»ìŀİ ê³¼
Ġì¼ĢìĿ´íģ¬ ëıĦ
ĠìĮĪ ë¬´
Ġë§Īì§Ģë§ī ìĿĢ
ĠìĨĮê³łê¸° ëĬĶ
ĠìĨĮê³łê¸° ë¥¼
Ġìļ© ìĤ°
ĠìĿ´ìľł ë¥¼
ëıĮ ìķĦ
ĠëĤ´ëł¤ ê°Ģë©´
Ġëĸł ìĦľ
Ġê·¸ëŁ¬ ë©´
Ġíİ¸ë¦¬ íķ©ëĭĪëĭ¤
Ġë§ĮëĤĺ ê¸°ë¡ľ
Ġíĥľ êµŃ
ìĿ´ìĹĪ ëĬĶëį°ìļĶ
ĠìĬ¤íĥĢìĿ¼ ë§ģ
Ġë¥ ĺ
êµ¬ìĿ´ ë¥¼
ĠìĶ¹ ìĿĦ
Ġê·ľ ìłľ
ëĨĵ ìĿĦ
Ġì¦Ĳê¸° ìĭ¤
ĠìŀĲê·¹ ìĿ´
ĠìĤ´íİ ´ë
Ġìĺ¤ë¥¸ ìª½ìľ¼ë¡ľ
Ġìĺ¤ëİħ ë°Ķ
ëĶ° ëĿ¼
ĠìĤ¬ëŀĳ íķĺëĬĶ
ĠìķĮê³ł ë³´ëĭĪ
Ġë¹Į ë¦¬
Ġë¹Į ëĿ¼
Ġêµ½ ê¸°
ĠêµĲìłķ ìĿĦ
ëłĪìĬ¤ íĨłëŀĳ
Ġì°¾ìľ¼ ìĭľë©´
Ġìĸ´ì© ľ
ëļ Ŀ
ëª¨ìŀĦ ìŀ¥ìĨĮ
ĠìĦłìĥĿ ëĭĺìĿ´
Ġíı¬íķ¨ ëĲĺìĸ´
ĠìĦ¼ìĬ¤ ìŀĪê²Į
ĠìħĢíĶĦë°Ķ ê°Ģ
ĠëĿĦ ëĬĶ
ĠíĿĲ ë¦Ħ
Ġìŀ¬ë°Į ê²Į
ë¦¬ëıĦ íĽĦ
Ġë» ¥
ĠìĬĪ íģ¬ë¦¼
Ġì°¨íĻįë£¸ ìĭłì´ĮìłĲ
