{"[PAD]":0,"!":1,"\"":2,"#":3,"$":4,"%":5,"&":6,"'":7,"(":8,")":9,"*":10,"+":11,",":12,"-":13,".":14,"/":15,"0":16,"1":17,"2":18,"3":19,"4":20,"5":21,"6":22,"7":23,"8":24,"9":25,":":26,";":27,"<":28,"=":29,">":30,"?":31,"@":32,"A":33,"B":34,"C":35,"D":36,"E":37,"F":38,"G":39,"H":40,"I":41,"J":42,"K":43,"L":44,"M":45,"N":46,"O":47,"P":48,"Q":49,"R":50,"S":51,"T":52,"U":53,"V":54,"W":55,"X":56,"Y":57,"Z":58,"[":59,"\\":60,"]":61,"^":62,"_":63,"`":64,"a":65,"b":66,"c":67,"d":68,"e":69,"f":70,"g":71,"h":72,"i":73,"j":74,"k":75,"l":76,"m":77,"n":78,"o":79,"p":80,"q":81,"r":82,"s":83,"t":84,"u":85,"v":86,"w":87,"x":88,"y":89,"z":90,"{":91,"|":92,"}":93,"~":94,"¡":95,"¢":96,"£":97,"¤":98,"¥":99,"¦":100,"§":101,"¨":102,"©":103,"ª":104,"«":105,"¬":106,"®":107,"¯":108,"°":109,"±":110,"²":111,"³":112,"´":113,"µ":114,"¶":115,"·":116,"¸":117,"¹":118,"º":119,"»":120,"¼":121,"½":122,"¾":123,"¿":124,"À":125,"Á":126,"Â":127,"Ã":128,"Ä":129,"Å":130,"Æ":131,"Ç":132,"È":133,"É":134,"Ê":135,"Ë":136,"Ì":137,"Í":138,"Î":139,"Ï":140,"Ð":141,"Ñ":142,"Ò":143,"Ó":144,"Ô":145,"Õ":146,"Ö":147,"×":148,"Ø":149,"Ù":150,"Ú":151,"Û":152,"Ü":153,"Ý":154,"Þ":155,"ß":156,"à":157,"á":158,"â":159,"ã":160,"ä":161,"å":162,"æ":163,"ç":164,"è":165,"é":166,"ê":167,"ë":168,"ì":169,"í":170,"î":171,"ï":172,"ð":173,"ñ":174,"ò":175,"ó":176,"ô":177,"õ":178,"ö":179,"÷":180,"ø":181,"ù":182,"ú":183,"û":184,"ü":185,"ý":186,"þ":187,"ÿ":188,"Ā":189,"ā":190,"Ă":191,"ă":192,"Ą":193,"ą":194,"Ć":195,"ć":196,"Ĉ":197,"ĉ":198,"Ċ":199,"ċ":200,"Č":201,"č":202,"Ď":203,"ď":204,"Đ":205,"đ":206,"Ē":207,"ē":208,"Ĕ":209,"ĕ":210,"Ė":211,"ė":212,"Ę":213,"ę":214,"Ě":215,"ě":216,"Ĝ":217,"ĝ":218,"Ğ":219,"ğ":220,"Ġ":221,"ġ":222,"Ģ":223,"ģ":224,"Ĥ":225,"ĥ":226,"Ħ":227,"ħ":228,"Ĩ":229,"ĩ":230,"Ī":231,"ī":232,"Ĭ":233,"ĭ":234,"Į":235,"į":236,"İ":237,"ı":238,"Ĳ":239,"ĳ":240,"Ĵ":241,"ĵ":242,"Ķ":243,"ķ":244,"ĸ":245,"Ĺ":246,"ĺ":247,"Ļ":248,"ļ":249,"Ľ":250,"ľ":251,"Ŀ":252,"ŀ":253,"Ł":254,"ł":255,"Ń":256,"Ġì":257,"Ġë":258,"ìĿ":259,"Ġê":260,"íķ":261,"ëĭ":262,"ìĹ":263,"ìĿ´":264,"ëĬ":265,"ìļ":266,"Ġí":267,"ëĬĶ":268,"ê³":269,"ì§":270,"ìĦ":271,"ê°":272,"ëĭ¤":273,"ë¦":274,"Ġìĭ":275,"ìĸ":276,"Ġìŀ":277,"ìĹĲ":278,"ëı":279,"ê³ł":280,"Ġë§":281,"ìŀ":282,"íķĺ":283,"ìĸ´":284,"ìļĶ":285,"ìĭ":286,"ë¡":287,"ê¸":288,"ë¡ľ":289,"ìĦľ":290,"ëıĦ":291,"ĠìĿ":292,"ê²":293,"ëĭĪ":294,"Ġê°":295,"ìķ":296,"ê°Ģ":297,"ìł":298,"ìĬ":299,"Ġìĭł":300,"ë§":301,"Ġìķ":302,"ê¸°":303,"ì§Ģ":304,"ìĿĦ":305,"Ġìł":306,"ëį":307,"íķľ":308,"ëĵ":309,"ĠĠ":310,"ë¦¬":311,"ìĿĢ":312,"ĠìŀĪ":313,"ìľ":314,"£¼":315,"Ŀ¼":316,"´ë":317,"ĠìĹ":318,"Ġë°":319,"ëĤ":320,"êµ":321,"Ġìĺ":322,"ë¬":323,"ëĿ¼":324,"ëĭĪëĭ¤":325,"Ġê³":326,"ìĹŃ":327,"ë©":328,"ë¥":329,"ê²Į":330,"Ġëĭ":331,"Īĺ":332,"ìľ¼":333,"ë³":334,"ìĭľ":335,"ìĬ¤":336,"ĠëĤ":337,"ë°":338,"ìĤ":339,"..":340,"ĮĢ":341,"ë¦¼":342,"ì¹":343,"íķ´":344,"ì´":345,"ëį°":346,"ë©´":347,"ĠìĦ":348,"ëŀ":349,"¨¹":350,"Ġë§Ľ":351,"Ġê·":352,"Ġì§":353,"êµ¬":354,"ìĿĺ":355,"ì´Į":356,"Ġê°Ģ":357,"ìķĦ":358,"Ġë³":359,"Ġìĭłì´Į":360,"Ġë¶":361,"ĠìĤ":362,"ì£¼":363,"ì§ĳ":364,"Ġìĭłë¦¼":365,"Ġì¢":366,"ë¶":367,"ìĺ":368,"ë¥¼":369,"Ġë¨¹":370,"ëł":371,"íĬ":372,"ĠìĿ´":373,"ìĿ¸":374,"ëĵ¤":375,"Ġìĥ":376,"ìŀ¥":377,"ëĤĺ":378,"ìĹĪ":379,"ìĸ´ìļĶ":380,"ĠìĪĺ":381,"Ġê·¸":382,"ì²":383,"ì°":384,"ìĥ":385,"ìľ¼ë¡ľ":386,"ê¹":387,"Ġëĵ":388,"ëŁ":389,"íĥ":390,"±°":391,"ìĽ":392,"ë¬¸":393,"Ġëĭ¤":394,"Ġì°":395,"ĨĮ":396,"Ġì£¼":397,"Ġìĸ":398,"Ġíķĺ":399,"ìŀĪ":400,"µëĭĪëĭ¤":401,"¹Ħ":402,"ĠìķĦ":403,"Ġê²":404,"ì¹ĺ":405,"ìĻ":406,"ë§Į":407,"Ġì¢ĭ":408,"ëĬĶëį°":409,"Ġì¹":410,"Ķë":411,"ëĮĢ":412,"íĶ":413,"Ġëª":414,"ĠìĤ¬":415,"Ġíķ":416,"íĬ¸":417,"Ġê¸":418,"íĸ":419,"Ġìĺ¤":420,"ëıĻ":421,"ëĵľ":422,"Ġìĭľ":423,"ìĹĲìĦľ":424,"ìĬµëĭĪëĭ¤":425,"Ġìļ":426,"ĠëĦ":427,"Ĳĺ":428,"ĠëĤĺ":429,"Ġìľ":430,"ìŀĲ":431,"Ġëı":432,"Ġê³ł":433,"ê¹Į":434,"ê³¼":435,"ë³´":436,"ê°Ħ":437,"Ġêµ":438,"ĠìĦľ":439,"ë²":440,"ê±°":441,"Ġë³´":442,"Ġìĭłë¦¼ìĹŃ":443,"Ġíķľ":444,"¯¸":445,"ìłĲ":446,"ĠìĿ´ë":447,"ë¹Ħ":448,"ìĿĮ":449,"Ġëį":450,"ĠìĽ":451,"ìĻĢ":452,"ìĦ¸":453,"ìĪĺ":454,"Ġë§Ī":455,"ĻĶ":456,"íİ":457,"Ġìĭłì´ĮìĹŃ":458,"ìħ":459,"ģ¬":460,"ĠìķĪ":461,"Ġë²":462,"Ġë¬":463,"ëŁ¬":464,"Ġë¶Ħ":465,"ìļ©":466,"íĮ":467,"Ġë©":468,"íķĺê³ł":469,"Ġì¶":470,"Ġìłķ":471,"ë¶Ģ":472,"ìļ¸":473,"Ġ.":474,"Ġë§ĽìŀĪ":475,"Ġë§İ":476,"ìĿ¼":477,"ëįĶ":478,"ĠĠĠĠ":479,"ëª":480,"ìĤ¬":481,"ëĦ":482,"ë¬´":483,"ĠìłĢ":484,"ì¶":485,"Ġê¸°":486,"ĠìŀĲ":487,"ìĸ´ìĦľ":488,"ĠìĨĮ":489,"Ġê°Ļ":490,"ĠìĿ¸":491,"ìĽĲ":492,"ê·":493,"ë£":494,"ìŀħ":495,"Ġë§¤":496,"ĠëĶ":497,"íĸĪ":498,"ìĭł":499,"ëħ":500,"ĠìĻ":501,"íħ":502,"ķĮ":503,"ìĭ¤":504,"Ġíĺ":505,"ìĺ¤":506,"ë§Ī":507,"íĦ":508,"ĠìłĦ":509,"Ġëĵ¤":510,"ì¦":511,"¤ĳ":512,"ë¶Ħ":513,"ìĦ±":514,"ĠëĮĢ":515,"¡°":516,"íŀ":517,"Ġì§Ģ":518,"ĠìĹŃ":519,"ë§Ľ":520,"ìļ´":521,"íĦ°":522,"ìĭĿ":523,"ìĨĮ":524,"íĺ":525,"ìĤ¼":526,"ı¬":527,"ìķĺ":528,"ĳĲ":529,"´Ģ":530,"ìĥģ":531,"Ķëī":532,"Ġê²ĥ":533,"ĠìľĦ":534,"íŀĪ":535,"íķĺê²Į":536,"ĠìĹ¬":537,"...":538,"ĠìŀĪëĬĶ":539,"ìķ¼":540,"Ġë§Ľì§ĳ":541,"Ġìłľ":542,"Ġê¹":543,"ìłķ":544,"Ġë°Ķ":545,"Ġì²":546,"Ġëª¨":547,"ĠëįĶ":548,"ĠìĽĲ":549,"ìłģ":550,"Ġë¶Ģ":551,"ĠìĪ":552,"ì§Ħ":553,"ĠìĥĿ":554,"ĠìĦľìļ¸":555,"¸µ":556,"ëįĶëĿ¼":557,"Ķëī´":558,"ìļ°":559,"ëł¤":560,"ĮìĿ´":561,"ĠìĬ":562,"ìłĦ":563,"íĶ¼":564,"ëįĺ":565,"Ġì§Ħ":566,"ë¯¸":567,"ĠëĬ":568,"ëĦ¤":569,"ëĭ¹":570,"ë¸":571,"íķ´ìĦľ":572,"Ġê±":573,"ëĲĺ":574,"íİĺ":575,"ì°¨":576,"ĠìķĬ":577,"íģ¬":578,"ëŀĺ":579,"Ġë§Į":580,"ĠíĮ":581,"ĠìĹĨ":582,"ì§Ģë§Į":583,"ĠëĲĺ":584,"ìĹ¬":585,"ë°¥":586,"Ġìŀĺ":587,"ëŀĳ":588,"ĽĦ":589,"Ġë°©":590,"ìĪ":591,"ìŀħëĭĪëĭ¤":592,"ĠëĦĪ":593,"ìłľ":594,"íĨ":595,"ìĿ´ëĿ¼":596,"ìĦł":597,"ë§Ĳ":598,"íķĺëĬĶ":599,"ĠíĻ":600,"Ġêµ¬":601,"ê»":602,"ĠìĿ¼":603,"Ġì¶Ķ":604,"ê¹Įì§Ģ":605,"ĠëķĮ":606,"íķł":607,"Ġìĥģ":608,"êµŃ":609,"Ġì¸µ":610,"Ġì¡°":611,"Ġê±°":612,"Ġë©Ķëī´":613,"ĠìĬ¤":614,"Ġíĸ":615,"ĠìĺĪ":616,"Ġê³µ":617,"©ëĭĪëĭ¤":618,"ì²ľ":619,"ĠíĶ":620,"Ġíİ":621,"ĠĠĠ":622,"´íİĺ":623,"Ġìĸĳ":624,"Ġëĵ¤ìĸ´":625,"ìĸĳ":626,"íĥĢ":627,"ë¬¼":628,"Ġì£¼ë¬¸":629,"ĠëĬĲ":630,"ê¸¸":631,"ì½":632,"ë¦¬ê³ł":633,"ľêµ¬":634,"ëĭĺ":635,"ê¸Ī":636,"Ġìŀħ":637,"Ġë¹Ħ":638,"ĠëĦĪë¬´":639,"ĠëıĦ":640,"Ġíĥ":641,"Ġë¹":642,"Ġê³³":643,"íĻĶ":644,"ĠìĦł":645,"ĠìĹ°":646,"ĠìĹŃìĤ¼":647,"Ġëħ":648,"ëĵ¤ìĿ´":649,"ì¦Ī":650,"Ġì¤ĳ":651,"Ġíķ´":652,"íĻ":653,"Ġê´Ģ":654,"ëĶ":655,"ëłĪ":656,"ìłĢ":657,"Ġê°ľ":658,"ļĮ":659,"Ġì¹ĺ":660,"êµ¬ìļĶ":661,"ë³Ħ":662,"Ġë²Ī":663,"ĠìĨ":664,"Ġíı¬":665,"ê²ł":666,"ë¹":667,"ê±":668,"Ĳľ":669,"ìĭ¬":670,"ìĥĿ":671,"Ġê³łê¸°":672,"ìĽĮ":673,"Ġìļ°":674,"ê°ģ":675,"ë§Ľì§ĳ":676,"ìĹĲëĬĶ":677,"ĠíĻĶ":678,"ĠìŀĪìĹĪ":679,"ìľĦ":680,"ëĭ¤ê³ł":681,"ë°©":682,"»¤":683,"Ġì¢ĭìķĦ":684,"ì§Ī":685,"ìĦ¸ìļĶ":686,"ĠíĬ":687,"ì¡":688,"Ġê³Ħ":689,"íĤ":690,"íĥĿ":691,"ìķĪ":692,"ê°Ī":693,"ë¥´":694,"Ġì´":695,"ë©´ìĦľ":696,"ìĹħ":697,"ĠìļĶ":698,"ìĤ´":699,"ĩê²Į":700,"Ġê·¸ë¦¬ê³ł":701,"íħĮ":702,"Ġìĺ¬":703,"Ġëĵ±":704,"ĠëĤ´":705,"ê»ĺ":706,"ë¨¹":707,"ì²ĺ":708,"ë£Į":709,"Ġíİ¸":710,"Ġë¬´":711,"ê°ľ":712,"Ġìłķë§Ĳ":713,"ĠìĭĿ":714,"ĠíĽĦ":715,"Ġëĭ¨":716,"Ġì°¸":717,"ìł¸":718,"ì§ľ":719,"ìĤ°":720,"¹ë³Ħ":721,"ì¶Ķ":722,"ëĳĲ":723,"ëĬ¥":724,"ë©°":725,"ģ¼":726,"ë³¸":727,"ĠìľĦì¹ĺ":728,"ê²©":729,"Ġíģ¬":730,"íĶĦ":731,"ì¼":732,"Ġìĸ´":733,"ĠíĨ":734,"ë²Ħ":735,"Ġë°°":736,"Ġë¯¸":737,"ëĦ¤ìļĶ":738,"ìŀĦ":739,"ê·¸":740,"Ġëĺ":741,"ª½":742,"ëĬĺ":743,"Ġì°¾":744,"ìĨ":745,"íĭ":746,"Ġì¹´íİĺ":747,"ìķħ":748,"ì£":749,"ìĺĢ":750,"ê·¼":751,"Ġìŀ¬":752,"ĠìĦ¸":753,"ĠìķĮ":754,"ĠìŀĪìĸ´ìĦľ":755,"ĠìĥĿê°ģ":756,"Ġë¨¹ìĸ´":757,"íĬ¹ë³Ħ":758,"íĬ¹ë³Ħìĭľ":759,"ëĭ¨":760,"ĠëĳĲ":761,"Ġìĭ¶":762,"ĠìĦľìļ¸íĬ¹ë³Ħìĭľ":763,"Ġìļ´":764,"íĥķ":765,"Ġìľł":766,"ê³łìļĶ":767,"ë¥¸":768,"Ġë§İìĿ´":769,"ĠíĸĪ":770,"ì¤":771,"ëįĶëĿ¼êµ¬ìļĶ":772,"Ġê°ķ":773,"Ġì¢ĭìĿĢ":774,"ìķ½":775,"Ġíħ":776,"ĠëĤ¨":777,"Ġê·¼":778,"ìħĺ":779,"Ġíĺ¸":780,"ĠìĿĮ":781,"ê°Ĳ":782,"ëĬĶëį°ìļĶ":783,"Ġë°©ë¬¸":784,"ĠìĦłíĥĿ":785,"ë°ľ":786,"Ġì½":787,"Ġë°Ķë¡ľ":788,"ìľ¼ë©´":789,"ĠìĹŃìĤ¼ìĹŃ":790,"ĠìĪł":791,"Ġìĺģ":792,"ì¤ĳ":793,"íĸī":794,"ìĭľëĬĶ":795,"ëŀĢ":796,"ĠëıĻ":797,"íĶĮ":798,"ĠëĺĲ":799,"Ġì§Ħì§ľ":800,"ì£ł":801,"Ġëĵľ":802,"ê³µ":803,"Ġìŀ¥":804,"íĮĲ":805,"ĠëĬĲëĤ":806,"ĠëĶ°":807,"Ġì¤":808,"ĢìĿ´":809,"Ġê°Ħ":810,"ìĹĪìĸ´ìļĶ":811,"Ġìĸ´ë":812,"Ġê²½":813,"ĠìĿ´ëł":814,"ĠëĨ":815,"ĠìŀĪìĬµëĭĪëĭ¤":816,"Ġì§ģ":817,"ëĭ¤ëĬĶ":818,"ĠíĹ":819,"ë¸Ķ":820,"íĨµ":821,"ìħĶ":822,"ëªħ":823,"Ġë¸":824,"ë°ĺ":825,"ì²´":826,"ìħ¨":827,"ê²½":828,"Ġë°ĺ":829,"ìĶ":830,"ìķĦìļĶ":831,"Ġë¨":832,"ëĥ":833,"ĠëĪ":834,"¾¸":835,"ê°Īë¹Ħ":836,"ĠìĿ´ëłĩê²Į":837,"ëĤ¨":838,"íı¬":839,"ĠìĤ´":840,"ëĵł":841,"ë¦Ħ":842,"êµŃìĪĺ":843,"ìĹĲìļĶ":844,"ìĿ¸ëį°":845,"ĠíĮĮ":846,"ĸ¡":847,"ë¶ĢíĦ°":848,"ĠëĤ´ë":849,"ĠíĶ¼":850,"ëŁ°":851,"ìª½":852,"ìĻĶ":853,"Ġëĭ¤ìĸĳ":854,"Ġíķł":855,"ë´":856,"Ġê´Ģìķħ":857,"Ġì°¨":858,"ë²Ī":859,"ê±´":860,"ëĤ´":861,"Ġê°ĢëĬ¥":862,"Ġì¦":863,"ëĲĺìĸ´":864,"íĭ°":865,"Ġìĭľê°Ħ":866,"Ġê¼":867,"ê²ĥ":868,"íĺ¸":869,"ĠìĥĪ":870,"ĠìĤ¬ì§Ħ":871,"ĠíķĦ":872,"Ġë¨¹ê³ł":873,"ìĺģ":874,"ìľ¼ëĭĪ":875,"ĠìķĦëĭĪ":876,"ê´Ģ":877,"Ġê´Ģìķħêµ¬":878,"Ġì§ĳ":879,"ĠìŀĪìĸ´ìļĶ":880,"ë¸Į":881,"Ġê°Ĳ":882,"Ġì°į":883,"Ġì»¤":884,"Ġì¶Ķì²ľ":885,"ë°Ķ":886,"ëĭµëĭĪëĭ¤":887,"ìķĦìĦľ":888,"ëª¨":889,"íĮĮ":890,"ë¡Ŀ":891,"Ġë§Ĳ":892,"ĠëĿ¼":893,"ĠìĹ¬ê¸°":894,"íķĺê¸°":895,"ĠìłĲ":896,"ì²Ń":897,"ëĶĶ":898,"íķ©ëĭĪëĭ¤":899,"ê³łê¸°":900,"Ġë¶Ī":901,"ĠíļĮ":902,"Ġë¨¹ìĿĦ":903,"Ġíķ¨":904,"ĠëĶĶ":905,"Ġê°Ģê²©":906,"Ġì¢ĭìķĺ":907,"ìľł":908,"Ġë°Ľ":909,"ì°½":910,"Ġìĺ¤ëĬĺ":911,"Ġì´Ī":912,"µìħĺ":913,"ë§¤":914,"Ġìłģ":915,"±Ħ":916,"ê¶":917,"Ġíı":918,"ê¸Ģ":919,"íĮħ":920,"ê³Ħ":921,"Ġìļ´ëıĻ":922,"µľ":923,"ì¹´":924,"Ġìĺµìħĺ":925,"´ë¬":926,"ĠìĨĲ":927,"ëįĶëĿ¼ê³łìļĶ":928,"Ġëĭ¬":929,"ĠìĻĢ":930,"ëĭ¤ê°Ģ":931,"ĠìĺĪìķ½":932,"ì¡±":933,"ë¥ĺ":934,"íķ¨":935,"ĠëĤĺìĺ¤":936,"ëĭ¬":937,"ëĲľ":938,"Ġìµľ":939,"ĠìĤ¼":940,"ìĹĲëıĦ":941,"íĿ":942,"ìĨį":943,"ĠêµŃ":944,"ëķĮ":945,"ë³¶":946,"ìĭľê°Ħ":947,"ê²¹":948,"ĠíķĺëĤĺ":949,"ĠëĭŃ":950,"Ġê¹Ģ":951,"ĮìĿ´ë¸Ķ":952,"ì¡°":953,"ģĶ":954,"Ġíķ¨ê»ĺ":955,"´ë³":956,"ê°ķ":957,"Ġìķŀ":958,"ìłĪ":959,"ê¹Ģ":960,"Ġë¬¼":961,"ĠìŃ":962,"ìĺ¨":963,"ìłģìľ¼ë¡ľ":964,"Ġëĵ¤ìĸ´ê°Ģ":965,"Ġëģ":966,"íĴ":967,"ĠíĻĶì§Ī":968,"Ķë¡ľ":969,"ìľĦê¸°":970,"ê³³":971,"ĠëķĮë¬¸":972,"ĠìĿ´ìļ©":973,"ìĭľë©´":974,"Ġê·¸ëŀĺ":975,"ì¢":976,"ë¦¬ëĬĶ":977,"Ġë²Ħ":978,"ìŀĳ":979,"ĠìĹĦ":980,"ĠìĻĦ":981,"ë£¨":982,"Ġë¬¸":983,"ë¦°":984,"¶Ģ":985,"ĠíĥĢ":986,"ì§ģ":987,"ìĬµ":988,"êµĲ":989,"ìĦĿ":990,"íĽĦ":991,"Ġë§ĽìĿ´":992,"ĠìłĢëĬĶ":993,"ëĮĢë¬¸":994,"ìĹ°":995,"ìĪł":996,"íķ©":997,"Ġìĭ¤":998,"ĠíĨµ":999,"ĠìłķëıĦ":1000,"Ġëªħ":1001,"Ġì¹ĺì¦Ī":1002,"Ġë¶ĦìľĦê¸°":1003,"ê¾¸":1004,"ìĹĪëĭ¤":1005,"Ġëħ¸":1006,"Ġíķĺê³ł":1007,"ĠìĦľëĮĢë¬¸":1008,"íħĶ":1009,"ĠíħĮìĿ´ë¸Ķ":1010,"´ë©":1011,"íļĮ":1012,"ĠíĺĦ":1013,"ë³´ëĭ¤":1014,"ĠìŀĪëĭ¤":1015,"Ġê±¸":1016,"Ġë´":1017,"Ġëª»":1018,"ĠìĤ¬ëŀ":1019,"ìĪľ":1020,"Ġê´":1021,"ĠëĤł":1022,"ë¯":1023,"Ġë°¥":1024,"Ġíģ":1025,"ĠëĲ":1026,"ëŁ¼":1027,"ĠìĦľëĮĢë¬¸êµ¬":1028,"Ġê±´":1029,"ĠíĬ¹":1030,"ì½¤":1031,"ìĿ´íĬ¸":1032,"ĠíĿ":1033,"Ġìĸ¼":1034,"ĠëĶ±":1035,"ĠëĲľ":1036,"Ġìķ¼":1037,"Ġê°ĻìĿ´":1038,"Ġë§İìĿĢ":1039,"Ġë§ŀ":1040,"ì§ĢëĬĶ":1041,"ìĬ¤íĥĢ":1042,"ì²ł":1043,"Ġë§ĽìŀĪëĬĶ":1044,"Ġëĥ":1045,"Ġê°Ī":1046,"Ġì£¼ì°¨":1047,"ĠëŃ":1048,"ìģ":1049,"Ġìłĳ":1050,"íĤ¤":1051,"Ġë§¤ìŀ¥":1052,"íĺķ":1053,"ë¶Ī":1054,"ĠëĤ´ë¶Ģ":1055,"Ġê½":1056,"Ġì²ĺ":1057,"ê²¨":1058,"ĠëħĦ":1059,"ìĿ´ëĭ¤":1060,"ĠìŀĲë¦¬":1061,"Ġì¢ħ":1062,"ĠëķĮë¬¸ìĹĲ":1063,"Ġë¶Ħëĵ¤":1064,"ìĹĪëĬĶëį°":1065,"ì°¬":1066,"Ġëĭ¹":1067,"ìłģìĿ¸":1068,"íĹ":1069,"Ġê·¸ëŁ°":1070,"ë£¸":1071,"Ġë¦":1072,"ĠìĨĮìĬ¤":1073,"Ġëĭ¤ë¥¸":1074,"ì¸":1075,"ìĿ´ëĤĺ":1076,"ĶëģĶ":1077,"Ġìłľê°Ģ":1078,"ĠìķĦì£¼":1079,"Ġëĭ¤ìĿĮ":1080,"ê²¹ìĤ´":1081,"Ġìĭłì´ĮìłĲ":1082,"ĠìŃĪ":1083,"Ġíĳ":1084,"ëĭŃ":1085,"ĠëĦĺ":1086,"Ġ..":1087,"íĨł":1088,"Ġê¸°ë³¸":1089,"ĠìĽĶ":1090,"Ġê¹ĶëģĶ":1091,"Ġëĭ¤ìĸĳíķľ":1092,"ĠìŀĪê³ł":1093,"ĠìĿĮìĭĿ":1094,"ëħĲ":1095,"Ġì¦Ĳ":1096,"Ġì¹ľêµ¬":1097,"ëĵĿ":1098,"Ġì¤Ģ":1099,"íĿ¬":1100,"ĠìĪľ":1101,"Ġíıī":1102,"íķĺë©´":1103,"Ġê°ĻìķĦìļĶ":1104,"Ġìŀĳ":1105,"Ġê°ĻìĿĢ":1106,"ê¸°ëıĦ":1107,"íĸ¥":1108,"ĠìĹĦì²Ń":1109,"ìĥī":1110,"ì¹´íİĺ":1111,"Ġë³´ìĿ´":1112,"¸ë¦¬":1113,"ĠìĦ¤":1114,"íĸĪìĸ´ìļĶ":1115,"Ġê°ķëĤ¨":1116,"´ë©´":1117,"ëģ¼":1118,"ĠíĻķ":1119,"ì½Ķ":1120,"Ġì¢Ģ":1121,"ĠìĹĲ":1122,"ìŀ¥ëĭĺ":1123,"ìłĢíĬ¸":1124,"Ġì¡°ê¸Ī":1125,"ê¶Į":1126,"ë§ī":1127,"ëł¥":1128,"íĴĪ":1129,"ĠìĤ¬ìĿ´":1130,"íķĺìĦ¸ìļĶ":1131,"ëħĢ":1132,"íĶ¼ìĬ¤":1133,"Ġë¦¬":1134,"Ġê²Į":1135,"ĠìĿ´ë²":1136,"ëĮĢë¡ľ":1137,"ĮĪ":1138,"ĠĠĠĠĠ":1139,"ëŀľ":1140,"íķĦ":1141,"Ġë¨¹ëĬĶ":1142,"ìĿ´ìĹĲìļĶ":1143,"ĠìŀĪìĸ´":1144,"ê¸´":1145,"Ġìķ½":1146,"Ġê³µê°Ħ":1147,"´ê¸°":1148,"Ġíŀ":1149,"ì±Ħ":1150,"Ġë³¶":1151,"ĠìĿ´ëŁ":1152,"ì°ľ":1153,"´ë¬¼":1154,"ëª©":1155,"ìŀ¬":1156,"ĠëĦ¤":1157,"ì§Ŀ":1158,"Ġ...":1159,"łĪ":1160,"Ġì²ĺìĿĮ":1161,"ëĭ¤ë©´":1162,"ĠìĹ´":1163,"Ġë°ľ":1164,"ìĿ´ëŀĳ":1165,"Ġì¶ľêµ¬":1166,"íĤ¨":1167,"Ġëĸ¡":1168,"Ġë§ī":1169,"Ġì§Ģíķĺ":1170,"Ġì¶Ķê°Ģ":1171,"ĠíĶĦ":1172,"ê¼":1173,"Ġê·¼ì²ĺ":1174,"ê¾¸ë¯¸":1175,"íģ":1176,"ĲëŁ¬":1177,"ìħĶìĦľ":1178,"ëĤł":1179,"ë¯¼":1180,"íĥľ":1181,"ĠêµŃë¬¼":1182,"Ġì»¤íĶ¼":1183,"ëĤľ":1184,"íķĻ":1185,"ĠìĺģìĹħ":1186,"ë³¼":1187,"¥ì£¼":1188,"ĠíĴ":1189,"íķ´ì£¼":1190,"ĠìĻ¸":1191,"ĠĠĠĠĠĠĠĠ":1192,"ĠëĬĲëĤĮ":1193,"Ġì§Ħíĸī":1194,"ëĥ¥":1195,"ł¤":1196,"ëĭĪê¹Į":1197,"Ŀ½":1198,"ĠìłĢíĿ¬":1199,"Ġëį°":1200,"±ì°½":1201,"ĲëŁ¬ëĵľ":1202,"ìĤŃ":1203,"íĳ":1204,"ĠìĸĳëħĲ":1205,"ĠëĶĶìłĢíĬ¸":1206,"ìĭľê³ł":1207,"ìłĳ":1208,"ìľ¡":1209,"íı":1210,"Ġë³¸":1211,"ìŀĪëĬĶ":1212,"ì»¤":1213,"íģ¼":1214,"ëĭ´":1215,"ê±°ë¦¬":1216,"´ë³´":1217,"Ġë²ł":1218,"íİ¸":1219,"ëĪ":1220,"ĶĶ":1221,"ìĹĪìĬµëĭĪëĭ¤":1222,"Ġì¼":1223,"ëĵ¯":1224,"ĠëĪĪ":1225,"ĠìĤ¬ëŀĮ":1226,"ê°Ļ":1227,"Ġê³¨":1228,"ìĹĶ":1229,"Ġë§¤ìļ´":1230,"Ġë°±":1231,"ĠìĪłì§ĳ":1232,"Ġìĺ¬ëĿ¼":1233,"ìĹĨ":1234,"ë¦´":1235,"ĠëĦĵ":1236,"ëħķ":1237,"Ġì¹´":1238,"íĻĺ":1239,"ëģ":1240,"ĠìĹ°ìĦ¸":1241,"ĠëĦ£":1242,"Ġê¸Ģ":1243,"ĠíķĺëĬĶ":1244,"ìĿĮë°¥":1245,"Ġë§ĽìŀĪê²Į":1246,"ĠìŃĪê¾¸ë¯¸":1247,"ê¸°ìĹĲ":1248,"Ġê¼Ń":1249,"ĠëĤĺìĻĶ":1250,"Ī¬":1251,"Ġì¤Ģë¹Ħ":1252,"ī¬":1253,"Ġíľ":1254,"ĠìĤ¬ìļ©":1255,"íĶ¼ìĬ¤íħĶ":1256,"ì°Į":1257,"ëłĪìĿ´":1258,"£¨":1259,"Ġë¡":1260,"ì¤Ģ":1261,"ìĭłë¦¼":1262,"ì¦Ŀ":1263,"ĺìĿ´":1264,"ìĦ¤":1265,"ë³µ":1266,"ëŁ½":1267,"ëĿ¼ê³ł":1268,"Ġê·¸ëĥ¥":1269,"ë³¶ìĿ´":1270,"ëĿ¼íħĮ":1271,"Ġë°ı":1272,"Ġíķľë²Ī":1273,"Ġìļ°ë¦¬":1274,"Ġë¹ł":1275,"íķĺì§Ģ":1276,"ê¸ī":1277,"ëĿ¼íħĮìĬ¤":1278,"ĠìĹ¬ëŁ¬":1279,"´ë¥":1280,"ĠëĲĺìĸ´":1281,"ĠìĿĺ":1282,"Ġíĺ¼":1283,"ì¸ł":1284,"ĠìĿ´ëŁ°":1285,"ĠìĹŃìĭľ":1286,"ĠìĨį":1287,"Ġëĭ´":1288,"ìĺĪ":1289,"ì¶ľ":1290,"·°":1291,"Ġëª©":1292,"ĠìķĪì£¼":1293,"Ġë©Ķ":1294,"´ëĤ":1295,"Ġê·¸ëŀĺìĦľ":1296,"Ġê°Ģê²Į":1297,"Ġê³ĦëŀĢ":1298,"ìį":1299,"ì¦ĺ":1300,"Ġê¸¸":1301,"ĠìĿ´ëıĻ":1302,"ê¸°ê°Ģ":1303,"ĢìĿ´íģ¬":1304,"ë°±":1305,"Ġëĭ¤ëħĢ":1306,"Ġë©Ķëī´íĮĲ":1307,"ĠëĤĺìĻĢ":1308,"ëĿ½":1309,"íķĺìĹ¬":1310,"Ġê°ģ":1311,"Ġê°Ģìŀ¥":1312,"ĠìĤ¬ìŀ¥ëĭĺ":1313,"Ġë¨¼":1314,"Ġê°Ģì§Ģ":1315,"ĠêµĲ":1316,"Ġíĺ¸ìĦł":1317,"ĠíĻį":1318,"Ġë¶Ģëĵľ":1319,"¨ìĿ´":1320,"ëħķíķĺìĦ¸ìļĶ":1321,"ëĵ±":1322,"Ġê¸Ī":1323,"ì¶ľêµ¬":1324,"ĠìĿµ":1325,"ëħģ":1326,"Ġë¿":1327,"Ģê¹Ģ":1328,"¤ë¸Į":1329,"Ġìħ":1330,"Ġíı¬ìŀ¥":1331,"Ġì«":1332,"ì´Ī":1333,"Ġìĭłë¦¼ëıĻ":1334,"Ġíķ©ëĭĪëĭ¤":1335,"ë°ķ":1336,"Ġì°¾ìķĦ":1337,"ìĬ¤íĬ¸":1338,"ĠìļĶì¦ĺ":1339,"Ġë¸Ķë¡ľ":1340,"íķ´ìļĶ":1341,"ìĥĪ":1342,"Ġë³¼":1343,"Ġëĥī":1344,"ëĸ¡":1345,"ĠëłĪ":1346,"ì²ĺëŁ¼":1347,"ĠëĴ":1348,"ĠìŀĪìĹĪìĸ´ìļĶ":1349,"Ġì»":1350,"Ġìĭľìŀĳ":1351,"ëĭĪëĭ¹":1352,"ë§ĮìĹĲ":1353,"ĠìĺģìĹħìĭľê°Ħ":1354,"ĠìŀĲëıĻ":1355,"Ġì¢ĭìĿĦ":1356,"Ġë¨¼ìłĢ":1357,"ëĵ¤ëıĦ":1358,"ê±¸":1359,"ĠìŀĪëĬĶëį°":1360,"ë³´ëĭĪ":1361,"Ġì²´":1362,"ì¢ħ":1363,"ë¹Į":1364,"ĠëĪĦ":1365,"íĸĪëĭ¤":1366,"Ġë¹µ":1367,"Ġì°įìĸ´":1368,"Ġìĭľì¼":1369,"ĠíĽĦê¸°":1370,"ì§Ĳ":1371,"....":1372,"·¨":1373,"ëľ":1374,"¼êµŃìĪĺ":1375,"íķĺë©´ìĦľ":1376,"ĠëģĿ":1377,"įëĭĪëĭ¤":1378,"Ġëª¨ìĬµ":1379,"Ġìŀ¬ìĥĿ":1380,"ëıĦë¡Ŀ":1381,"ë¦¬ìĸ´":1382,"íĺĢ":1383,"Ġê´ľ":1384,"Ġíķ´ì£¼":1385,"Ġë¸Į":1386,"Ġì¢ħë¥ĺ":1387,"Ġê°Ķ":1388,"Ġë¨¹ê¸°":1389,"ë´¤":1390,"Ġíĳ¸":1391,"ë³Ģ":1392,"Ġìŀ¡":1393,"Ġë§¤ì½¤":1394,"ìĸ¼":1395,"Ġìķī":1396,"ĠëĨĴ":1397,"ìĹĲê²Į":1398,"Ġë³Ħ":1399,"Ġëª¨ëĳĲ":1400,"Ġê±°ë¦¬":1401,"Ġê¹Ģì¹ĺ":1402,"ĵ°":1403,"ê³¨":1404,"ĠëĬĲëĤĮìĿ´":1405,"ì¸µ":1406,"Ġë§ĪëĿ¼":1407,"ê¹ĥ":1408,"Ġë§Įëĵ¤":1409,"ĠìĤ´ì§Ŀ":1410,"ìĹĪëįĺ":1411,"ëĲ":1412,"Ġì²Ń":1413,"ĠìĭĿìĤ¬":1414,"ĠìĨĮê°ľ":1415,"Ġê±´ë¬¼":1416,"Ġì²ľ":1417,"ê²°":1418,"êµ°":1419,"Ġëĳ":1420,"ĠìĻĶ":1421,"ìĭłì´Į":1422,"ĠìłĲìĭ¬":1423,"ĠìĺĪìģ":1424,"ĠìłĢëł":1425,"ë¹µ":1426,"ĠíĨł":1427,"Ġê²½ìļ°":1428,"ë©Ķëī´":1429,"ìĿ´ëĿ¼ê³ł":1430,"Ġê¶":1431,"ëł¸":1432,"ë²ł":1433,"Ġë²Īì¶ľêµ¬":1434,"Ġíģ¬ë¦¼":1435,"ë²Ħê±°":1436,"ì»":1437,"íķĺëĭ¤":1438,"ë¡ľê¸¸":1439,"ìļĶìĿ¼":1440,"ìĽł":1441,"ê²łìĬµëĭĪëĭ¤":1442,"ĠìłĢëħģ":1443,"ìĦ±ë¹Ħ":1444,"Ġì¡":1445,"ĠëıĪ":1446,"Ġêµ¬ìĽĮ":1447,"Ġë³¶ìĿĮë°¥":1448,"ë²ķ":1449,"Ġë§ĪìĿĮ":1450,"Ġì°¸ì¹ĺ":1451,"¬ìĬ¤":1452,"ëĬĲ":1453,"íķĺëĭĪ":1454,"Ġìľ¡":1455,"Ġìĺ¤íĶ¼ìĬ¤íħĶ":1456,"Ġì½Ķ":1457,"ê¸°íİ":1458,"Ġê·Ģ":1459,"íħĮë¦¬ìĸ´":1460,"Ġìłĳê¸°íİ":1461,"Ġìłĳê¸°íİ´ê¸°":1462,"Ġë¨¹ìľ¼ë©´":1463,"ë¦½":1464,"ĠëĤĺìĺ¨":1465,"ì°®":1466,"Ġëĭ¤ìĭľ":1467,"Ġëĸ":1468,"Ġìĺ¤ëŀľ":1469,"Ġê³¼":1470,"ĠìķĦìĿ´":1471,"Ġìĺ¬ëł¤":1472,"Ġìĭłë¦¼ìłĲ":1473,"ĠìĤ¼ê²¹ìĤ´":1474,"ĠìĻĦìłĦ":1475,"ĠìķĦëĭĪëĿ¼":1476,"ë·°":1477,"ë¶ĦìĿ´":1478,"Ġìĺ¤ëĬĺìĿĢ":1479,"ĠìĿ¸íħĮë¦¬ìĸ´":1480,"ĠëĬĲê»":1481,"Ġì°½":1482,"ëĶ©":1483,"ìļ±":1484,"¬ë":1485,"ĠìĺĨ":1486,"Ġìĸ´ëĸ":1487,"Ġë¨¸ë¦¬":1488,"Ġê³³ìĿ´":1489,"ĠìĥĲëŁ¬ëĵľ":1490,"ĠìĿ´ë²Ī":1491,"Ġê°ĢìĦ±ë¹Ħ":1492,"ëħ¸":1493,"ìĦ±ìĿ´":1494,"íĸĪëĬĶëį°":1495,"ĠìķĦëĭ":1496,"ĠìĿĮë£Į":1497,"Ġëı¼":1498,"ĠíĻĺ":1499,"Ġê°ľìĿ¸":1500,"±ħ":1501,"ìĬ¹":1502,"ĠìłĢëł´":1503,"ĠìĿ´ìłľ":1504,"ĠëĬĲê»´":1505,"ìĿ´ë²Ħ":1506,"Ġê²°":1507,"íĶĪ":1508,"Ġê·¸ëł":1509,"Ġê´Ģë¦¬":1510,"ì¡Į":1511,"ëĵ¤ìĿĦ":1512,"Ġì¤Ħ":1513,"Ġë³µ":1514,"Ġì¹ľ":1515,"ëĲĺëĬĶ":1516,"ĠëĨĢ":1517,"ĠìķĬê³ł":1518,"Ġë¡ľ":1519,"ĠìĹĨëĬĶ":1520,"ìķĺìĸ´ìļĶ":1521,"ĠíķĦìļĶ":1522,"ìĮĪ":1523,"ê±°ëĤĺ":1524,"£¸":1525,"ìŀĶ":1526,"Ġìĸ¸":1527,"Ġê¸°ëĭ¤":1528,"Ġì°¸ê³ł":1529,"ĠìŀĪìľ¼ëĭĪ":1530,"ĠìĤ¬ìĭ¤":1531,"ìĶ©":1532,"´ë¥¼":1533,"Ġê´ľì°®":1534,"Ġë§¥ì£¼":1535,"ĠìŀĪìĿĦ":1536,"ĠëıĦë³´":1537,"Ġê³ĦìĨį":1538,"ĠíĶ¼ìŀĲ":1539,"Ġì¶©":1540,"Ġìĭ¬":1541,"ĠìĿ´ëĮĢ":1542,"ĠìĿ´ê³³":1543,"ë°°":1544,"ĠíķĦëĿ¼íħĮìĬ¤":1545,"ìļ©ìĭ¤":1546,"ëĿ¼ìĦľ":1547,"Ġê°ĢëĵĿ":1548,"ĠíĹ¬ìĬ¤":1549,"Ġë¨¹ìľ¼":1550,"íĳľ":1551,"Ġë§¤ìĿ¼":1552,"ìłķëıĦ":1553,"Ġíķ´ìĦľ":1554,"Ġì¢ĭìķĦíķĺëĬĶ":1555,"ĠìŀħëĭĪëĭ¤":1556,"íĻľ":1557,"Ġì§ģìłĳ":1558,"´ëĿ¼":1559,"Ġíģ°":1560,"Ġê³±ì°½":1561,"ĠëıĮ":1562,"ëŁ¬ìļ´":1563,"ìĶ¨":1564,"ì¶ķ":1565,"ìĭ±":1566,"ìĿ´ê³ł":1567,"Ġëķ":1568,"ìĻ¸":1569,"ëıĪ":1570,"ĠëĶ°ë¡ľ":1571,"ê¼¬":1572,"ĠëĤĺëĬĶ":1573,"ĶëĶĶ":1574,"Ġë³´ëĭĪ":1575,"íħĮìĿ´":1576,"ê°ĢëĬĶ":1577,"ì¿":1578,"ĠìĦ±":1579,"Ġë¬´ë":1580,"ìĸ´ì£¼":1581,"ìĬ¤íģ¬":1582,"ĠìĨĲëĭĺ":1583,"Ġì·¨":1584,"ìŀİ":1585,"ìľ¼ë©°":1586,"ëĵ¤ìĿĢ":1587,"Ġê°Ģê¹Į":1588,"Ġëĸ¡ë³¶ìĿ´":1589,"íķĺìĭľëĬĶ":1590,"Ġì¶ľ":1591,"íĺĦ":1592,"Ġíĸ¥":1593,"ĮĢêµŃìĪĺ":1594,"Ġê³łìĨĮ":1595,"ĠìĿ¸ë¶Ħ":1596,"Ġíı¬ìĬ¤":1597,"Ķë²":1598,"ìī¬":1599,"´ë°":1600,"Ġìľłëªħ":1601,"ĠìħĢ":1602,"Ġê¶ģ":1603,"ĠëŃĲ":1604,"Ġì¢ĭìķĺìĸ´ìļĶ":1605,"ĠíĬ¹íŀĪ":1606,"Ġê½¤":1607,"ì¹¨":1608,"ë¹ĦìĬ¤":1609,"ĠíĤ":1610,"ëĪĪ":1611,"ë§ģ":1612,"ĠìĥĪìļ°":1613,"Ġê°Ģìł¸":1614,"ë§Īëĭ¤":1615,"¤ìĸ´":1616,"ì¹ĺì¦Ī":1617,"ĠëĤ´ê°Ģ":1618,"Ġê¿":1619,"ìĺĢìĸ´ìļĶ":1620,"ê¸°ëĬĶ":1621,"Ġëĵ¯":1622,"ìĦ¼":1623,"Ġìĺ¨":1624,"ëĨ":1625,"ĠëĤľ":1626,"ĠìĪĺìłľ":1627,"Ġê¸°ëĮĢ":1628,"Ġìĺ¤ëŀľë§ĮìĹĲ":1629,"Ġë³´ê¸°":1630,"ë¨":1631,"ê°Ģì§Ģ":1632,"ī½":1633,"ë°Ģ":1634,"ĠìĭľìĽĲ":1635,"ëĿ¼ìĿ´":1636,"ĠìľĦì¹ĺíķľ":1637,"ĠëĲł":1638,"íķ´ë³´":1639,"ĠíĽ":1640,"ìĸµ":1641,"Ġíķĺì§Ģë§Į":1642,"Ġë¹¨":1643,"ìĺĪìļĶ":1644,"Ġê¾¸":1645,"Ġê²ĥìĿ´":1646,"Ġìŀħêµ¬":1647,"íĸĪëįĺ":1648,"Ġìķ¼ì±Ħ":1649,"Ġì§Ģíķĺì²ł":1650,"ëĦĪ":1651,"Ġìĸ¼ë§Ī":1652,"ĠëĦ¤ìĿ´ë²Ħ":1653,"ĠìĭĿê°Ĳ":1654,"ê²ĮìļĶ":1655,"ĠëĴ¤":1656,"íĸĪìĬµëĭĪëĭ¤":1657,"Ġì¹ĺíĤ¨":1658,"ë´Ĳ":1659,"Ġê¼¬":1660,"ĠìŀĲìĦ¸":1661,"ë¥´ê²Į":1662,"ìĥ¤ë¸Į":1663,"ĠìłĦë¬¸":1664,"ĠíĮĲ":1665,"ĠìĦ¸íĬ¸":1666,"ë¡ł":1667,"ìĹĲìĦľëĬĶ":1668,"ĠíķŃ":1669,"ĠìĸĳìĿ´":1670,"Ġì£¼ë³Ģ":1671,"ĠëĲ©ëĭĪëĭ¤":1672,"Ġë§Īíı¬":1673,"Ġì§Ģê¸Ī":1674,"Ġìłľê³µ":1675,"Ġê³łë¯¼":1676,"Ġëį°ìĿ´íĬ¸":1677,"ìĿ¸ëį°ìļĶ":1678,"ê°Ķ":1679,"ëħĦ":1680,"ĠíĻĶìŀ¥":1681,"Ġì¹ľìłĪ":1682,"Ġíļ":1683,"Ġê³łë¥´":1684,"ĠìĭĿëĭ¹":1685,"Ġëľ":1686,"Ġë¸Ķë¡ľê·¸":1687,"ĠìĹĨìĿ´":1688,"Ġì±Ħ":1689,"ìĭ¶":1690,"Ķë£¨":1691,"ìĹĨìĿ´":1692,"ëĤĺìļĶ":1693,"ĠíĴį":1694,"īìŀ¥":1695,"Ġì§ĢëĤĺ":1696,"Ġì¸µìĹĲ":1697,"ĠíħĮ":1698,"Ġìĵ°":1699,"ë¬´ë":1700,"Ġê´ĳ":1701,"ĠìĦľë¹ĦìĬ¤":1702,"ĠìĿ´ìĥģ":1703,"Ġë§Įì¡±":1704,"ĠíļĮìĽĲ":1705,"ĠíĪ¬":1706,"Ġìĥģíĥľ":1707,"ìĪľíĻĺ":1708,"Ġíŀĺ":1709,"ĠìĦ¼":1710,"Ġë©´":1711,"ĠìŀĲì£¼":1712,"Ġì§ģìĽĲ":1713,"ĠìłĦì²´":1714,"ĠíĹĪ":1715,"Ġë³´ë©´":1716,"ì°Įê°ľ":1717,"Ġìĺ¤íĶĪ":1718,"ĠëįĶìļ±":1719,"Ġíĭ":1720,"ë³´ê³ł":1721,"ê»ĺìĦľ":1722,"ĠëĤĺìĺ¤ëĬĶ":1723,"ë©Ķ":1724,"ìŀĪìĸ´ìĦľ":1725,"Ġë¨¹ìĸ´ëıĦ":1726,"ê¸°ë¡ľ":1727,"ĠëŃĶ":1728,"ĠìħĢíĶĦ":1729,"Ġë§µ":1730,"ìĪľëĮĢ":1731,"Ġë¯":1732,"ìķĺëĭ¤":1733,"ëł¨":1734,"ĠìĪĻ":1735,"íķĳ":1736,"Ġë°Ģ":1737,"ĠìĬ¤íĥĢ":1738,"ìħ¨ìĸ´ìļĶ":1739,"ëĳ":1740,"Ġê¹¨":1741,"Ġíĳ¸ì§Ĳ":1742,"ìį¹":1743,"ìĿµ":1744,"ĠìĿ´ë¯¸":1745,"Ġë¿Į":1746,"Ġíı¬ìĬ¤íĮħ":1747,"ĠìĪľëĮĢ":1748,"ì§Ģë§ī":1749,"ë¦¬ê°Ģ":1750,"ëįĶëĭĪ":1751,"ĠëĤ¨ë¶Ģ":1752,"ĠíĮĮìĬ¤íĥĢ":1753,"Ġê·¸ëŀĺëıĦ":1754,"Ġë²łìĿ´":1755,"ĠìŀĦ":1756,"ë¡±":1757,"ĠìĨĮì£¼":1758,"ìĨĮìĬ¤":1759,"ĠíĻķìĿ¸":1760,"ëľ»":1761,"ĠëĬĲëģ¼":1762,"ìĿ¸ì§Ģ":1763,"Ġêµīìŀ¥":1764,"ìĭĿëĭ¹":1765,"íĻĶìłĲ":1766,"Ġìłģëĭ¹":1767,"Ġì«Ħ":1768,"Ġë£¸":1769,"ì°¸":1770,"ê±°ëĵł":1771,"ì³":1772,"ĠìĶ":1773,"Ġì§ľ":1774,"ëĸ":1775,"ë¦ĩ":1776,"Ġìµľê³ł":1777,"ìĭłë¦¼ìĹŃ":1778,"ĠìķĦëĭĮ":1779,"ìĹĲìĦľëıĦ":1780,"ĠíİĺìĿ´":1781,"Ġì¢Į":1782,"Ġëª¸":1783,"Ġë³´ê³ł":1784,"ĠìľĦìĹĲ":1785,"»ìŀİ":1786,"ì¼Ģ":1787,"ëŀĲ":1788,"ìĽĮìĦľ":1789,"ĠíĻĶìŀ¥ìĭ¤":1790,"ì§¸":1791,"Ġë³Ģ":1792,"ëŁī":1793,"Ġìļ´ìĺģ":1794,"Ġê·¸ëŁ°ì§Ģ":1795,"Ġëĭ¤ëħĢìĻĶ":1796,"Ġêµīìŀ¥íŀĪ":1797,"Ġìĭ¸":1798,"Ġì£¼ìĨĮ":1799,"Ġì´Ŀ":1800,"ĠìłĢíĿ¬ëĬĶ":1801,"ì¹´ë":1802,"Ġë§İìķĦìĦľ":1803,"ĠëĶ°ëĿ¼":1804,"Ġê¶ģê¸Ī":1805,"Ġì¢ĭê³ł":1806,"Ġê·¼ëį°":1807,"Ġê²½ìĿĺ":1808,"ì°©":1809,"Ġë°ĺì°¬":1810,"ìĦ¯":1811,"į¼":1812,"Ġì£¼ë¬¸íķľ":1813,"ëĪĪìį¹":1814,"Įĵ":1815,"ĠìĿ¼ëĭ¨":1816,"ê¸°ë¥¼":1817,"Ġë°ķ":1818,"ë²½":1819,"ĠëĤ¨ë¶ĢìĪľíĻĺ":1820,"Ġëª¨ëĵł":1821,"ëĭµ":1822,"Ġê¹»ìŀİ":1823,"ì»¤íĶ¼":1824,"ìĺ¬":1825,"Ġìŀ¬ë£Į":1826,"Ġìķł":1827,"ĠìľĦì¹ĺíķ´":1828,"ì¢ĭ":1829,"Ġì¼ĢìĿ´íģ¬":1830,"Ġë§ĪëĿ¼íĥķ":1831,"ê±°ëĵłìļĶ":1832,"Ġëı¼ì§Ģ":1833,"ĦĪ":1834,"íħĮìĿ´íģ¬":1835,"ìŀ¥ìĿ´":1836,"Ġêµ¬ìĦ±":1837,"Ġìª½":1838,"ĠíĶĮ":1839,"ĠëĨĵ":1840,"¤íĬ¸":1841,"ë§ĽìĿ´":1842,"ĠìķĮëł¤":1843,"Ġê±´ê°ķ":1844,"ĠìĹ°ìĦ¸ë¡ľ":1845,"ê´":1846,"ĠìķĪëħķíķĺìĦ¸ìļĶ":1847,"Ġíĸī":1848,"Ġíķ´ìļĶ":1849,"Ġì´Īë°¥":1850,"ĠëŃĶê°Ģ":1851,"ĠëĲĺëĬĶ":1852,"Ġì¦Ŀ":1853,"ë°Ľ":1854,"ĠìĻľ":1855,"ĠìĮĪ":1856,"Ġëªĩ":1857,"ĠìłľëĮĢë¡ľ":1858,"Ġì¢ĭìķĦìļĶ":1859,"Ġëĳĺ":1860,"ĠíķĻ":1861,"ê¹ĮìļĶ":1862,"Ġì¶ľêµ¬ìĹĲìĦľ":1863,"ìĪłì§ĳ":1864,"Ġë¨¹ìĹĪ":1865,"íĥģ":1866,"íķ´ë":1867,"ĠìľĦíķ´":1868,"Ġì¡°íķ©":1869,"ĠëĺĲíķľ":1870,"ì§Ģë¡ľ":1871,"ìĿ´ëĿ¼ëĬĶ":1872,"ìĬ¤íĦ°":1873,"ëŀįëĭĪëĭ¤":1874,"ĠìĤ°":1875,"ìłĦìĹĲ":1876,"Ġìĸ´ìļ¸":1877,"Ġìļ´ëıĻìĿĦ":1878,"Ġê°Īë¹Ħ":1879,"Ġìĺ¤ëŀĺ":1880,"ĠìłľìĿ¼":1881,"ĠëĶ°ëľ»":1882,"Ġë§Īì§Ģë§ī":1883,"Ġë°ĳ":1884,"íĬĢê¹Ģ":1885,"íĹĺ":1886,"ëįķ":1887,"ë¦¬ë¥¼":1888,"ì¶Ķì²ľ":1889,"ķìĸ´":1890,"ìĦ¸ê¶Į":1891,"ë°±íĻĶìłĲ":1892,"ĠìķĬìĿĢ":1893,"ìª½ìĹĲ":1894,"Ġìĥī":1895,"´ë¬´":1896,"Ġìĭľì¼ľ":1897,"Ġë°ĸ":1898,"ì¹¼êµŃìĪĺ":1899,"ëĵ¤ê³¼":1900,"ë§Įíģ¼":1901,"ëĤĺëĬĶ":1902,"ìĽĶ":1903,"ĠìĨĮê³łê¸°":1904,"Ġë°ĶìĤŃ":1905,"Ġê±°ìĿĺ":1906,"ĠìŀĶ":1907,"ìĽĢ":1908,"Ġê²¨":1909,"ìŀĲë§Ī":1910,"Ġê³łê¸°ì§ĳ":1911,"ì¡´":1912,"Ġê°Ļëĭ¤":1913,"ĠìłĦìĹĲ":1914,"íĻ©":1915,"ìł¸ìĦľ":1916,"¿į":1917,"ê¹¨":1918,"íĥĦ":1919,"Ġë³´ìĹ¬":1920,"ĠìĽĲëŀĺ":1921,"Ġë´Ĳ":1922,"ĠíĤ¤":1923,"Ġíķĺë©´":1924,"ĠíĸĪëĬĶëį°":1925,"Ġìķ½ê°Ħ":1926,"ë³ĳ":1927,"Ġë¶Ħìĸĳ":1928,"ĠìĿ¼ë°ĺ":1929,"ê´ĳ":1930,"ìŀĲë§ĪìŀĲ":1931,"ĠĠĠĠĠĠ":1932,"ì¤Ħ":1933,"Ġìŀł":1934,"ëł¤ê³ł":1935,"Ġê²Ģ":1936,"ĩ¼":1937,"Ġìĭ¶ìĿĢ":1938,"ĠìĤ¬ìĿ´ëĵľ":1939,"ëĵ¤ìĿĺ":1940,"Ġìļ©":1941,"ĠìĽ¨ìĿ´":1942,"Ġë¶Ħëĵ¤ìĿ´":1943,"Ġì½©":1944,"ì§ĢëıĦ":1945,"Ġë³´ìĿ´ëĬĶ":1946,"ĠìĺĪìģĺ":1947,"ë¦½ëĭĪëĭ¤":1948,"Ġë¶Ģë¶Ħ":1949,"Ġë°°ëĭ¬":1950,"ì§Ģê³ł":1951,"ĠíĻįëĮĢ":1952,"Ġìį":1953,"ĠìĿ´ìľł":1954,"íı¬ì°¨":1955,"ª¨":1956,"ëİ":1957,"ĠìĿĢ":1958,"Ġë§¤ìļ°":1959,"ĠëĮĢíķĻ":1960,"ĠìŀĪìĹĪëĭ¤":1961,"ĠìĿ´ë²¤íĬ¸":1962,"ìłĲìĿ´":1963,"Ġë¨¸":1964,"ìķĦì£¼":1965,"Ġì£¼ë§Ĳ":1966,"ëĥĲ":1967,"Ġì¶Ķì²ľëĵľ":1968,"ëıħ":1969,"ĠìĥĪë¡ľ":1970,"ëĸ¼":1971,"íĪ¬":1972,"ìĿ´ê°Ģ":1973,"ĠìŀĪëĬĶëį°ìļĶ":1974,"ìĤ¼ê²¹ìĤ´":1975,"ĠìĥĿê°ģë³´ëĭ¤":1976,"Ġìĺ¬ëĿ¼ê°Ģ":1977,"Ġë§Īíı¬êµ¬":1978,"Ġê°ĸ":1979,"íķ´ëĵľ":1980,"Ġë§ĽìĿĦ":1981,"ĠìĿ´ëĤ":1982,"¼Ī":1983,"ŀĺ":1984,"ìĿ´ìĸ´":1985,"ĠìķĦëŀĺ":1986,"Ġì¦Ĳê¸¸":1987,"ĠíĺĦëĮĢ":1988,"Ġë¶Ħëĵ¤ìĿĢ":1989,"ë¹ĮëĶ©":1990,"ìĿ´ëĬĶ":1991,"ëĲĺê³ł":1992,"íģ°":1993,"ĩ´":1994,"íķ´ìķ¼":1995,"íĬ¼":1996,"ĠìķĪìĹĲ":1997,"ì¼ĢìĿ´íģ¬":1998,"ĠíĹ¤":1999,"ìķĺëĬĶëį°":2000,"ê³µê°Ħ":2001,"Ġëĭ¬ëĭ¬":2002,"ê¹Ģì¹ĺ":2003,"ì°į":2004,"Ġëª¨ìŀĦ":2005,"ĠíĻľ":2006,"ĠíĬĢê¹Ģ":2007,"Ġíģ´":2008,"ê¼¬ì¹ĺ":2009,"Ġì§Ī":2010,"Ġë³ĳ":2011,"Ġì¡´":2012,"ĠíĮĲë§¤":2013,"£Į":2014,"Ķë£¨ìĬ¤":2015,"Ġì¿":2016,"íķĺìĭľ":2017,"Ġë¶Ļ":2018,"ëłĮ":2019,"Ġê¸°ë¦Ħ":2020,"ë³¸ìłĲ":2021,"ìĺĢìĬµëĭĪëĭ¤":2022,"Ġê³¨ëª©":2023,"Ġê³łë¥´ëĵľ":2024,"ëıĮ":2025,"ëĭĪìĬ¤":2026,"ĠíĸĪìĸ´ìļĶ":2027,"ĠëĤĺìĻĢìĦľ":2028,"ĠëĤ¨ë¶ĢìĪľíĻĺë¡ľ":2029,"ĠëĬĺ":2030,"Ġë§ĮìĽĲ":2031,"ĠíĬ¸":2032,"ĠìĽ¨ìĿ´íĮħ":2033,"ĠìĮĢêµŃìĪĺ":2034,"ì§ĢìļĶ":2035,"Ġê°ĢëĬĶ":2036,"ìķĪëħķíķĺìĦ¸ìļĶ":2037,"Ġìĭľê°ĦìĿ´":2038,"Ġê·¼ì²ĺìĹĲ":2039,"Ġë§Įëĵ¤ìĸ´":2040,"ĠìĹħ":2041,"ĠìĬ¤íħĮìĿ´íģ¬":2042,"Ġë¯¸ìļ©ìĭ¤":2043,"Ġìľłëªħíķľ":2044,"íĥĪ":2045,"Ġë¬´ë£Į":2046,"íķı":2047,"Ġíķ©":2048,"Ġíķ«":2049,"Ġëª¨ë¥´":2050,"Ġíİ¸íķĺê²Į":2051,"Ġëļ":2052,"ê³±ì°½":2053,"Ġë§ĽëıĦ":2054,"ë¬´ë¦¬":2055,"ĠëĤ´ëł¤":2056,"ì¥":2057,"íķĺëĬĶëį°":2058,"Ġë©Ķëī´ê°Ģ":2059,"ģìĭ±":2060,"Ġì¤Ģë¹ĦëĲĺìĸ´":2061,"ħ¸":2062,"ê·¹":2063,"íģ¬ë¦¼":2064,"ĠìķŀìĹĲ":2065,"ëİħ":2066,"¯¤":2067,"ëĺ":2068,"íķĺìĭł":2069,"Ġì²«":2070,"ê²łëĭ¤":2071,"íĹ¤ìĸ´":2072,"Ġë³´ëĤ":2073,"Ġê²ĥëıĦ":2074,"Ġë©Ķëī´ëĬĶ":2075,"ĠìĹŃìĤ¼ëıĻ":2076,"ĠíķłìĿ¸":2077,"ĠíıīìĿ¼":2078,"Ġíľĺ":2079,"ëĤĺë¬¼":2080,"íĬ¸ëłĪ":2081,"Ġìº":2082,"Ġë©Ķëī":2083,"ìĭ¬íŀĪ":2084,"ëĶĶìĺ¤":2085,"ĠìĤ¬ëŀĮìĿ´":2086,"Ġê½ĥ":2087,"Ġìī½":2088,"Ġë¨¹ìĿĢ":2089,"Ġë¯¸ë¦¬":2090,"ë³¶ìĿĮ":2091,"Ġê°Ħëĭ¨":2092,"ë§¨":2093,"Ġëĸł":2094,"ê½":2095,"ìĭ¸":2096,"ê²¬":2097,"ìĬ¤ëŁ½":2098,"Ġë§ĽìŀĪìĸ´ìĦľ":2099,"ì¤ĳìĹĲ":2100,"ëĭĿ":2101,"ë§¥ì£¼":2102,"ĠìĿ´ë¦Ħ":2103,"íıī":2104,"Ġë¶ĢëĵľëŁ½":2105,"ë¬´ì§Ģ":2106,"ë§Ŀ":2107,"ìľ¼ìĭł":2108,"ì£¼ìĸ¼":2109,"Ġíĺķ":2110,"Ġìĸ´ëĬĲ":2111,"Ġê·¸ëŁ¬":2112,"ĠíĮĶ":2113,"Ġíİ¸ë¦¬":2114,"Ġëģĵ":2115,"Ġìĭľì¼°":2116,"íľ":2117,"íķĺë©°":2118,"ëª°":2119,"Ġê·¸ëŁ¼":2120,"Ġì¹¼êµŃìĪĺ":2121,"íİĮ":2122,"ĠëĮĢíķľ":2123,"ĠíĥĦ":2124,"Ġëħ¹":2125,"Ġì¤ĳê°Ħ":2126,"Ġëľ¨":2127,"ıĺ":2128,"ìķĮ":2129,"ĠìĪĺìĹħ":2130,"®ë°¥":2131,"ëĿ¼ëĬĶ":2132,"Ġì¤ĳìļĶ":2133,"ê²ĥëıĦ":2134,"Ġê°ĲìŀĲ":2135,"ĠìĿ´ê±°":2136,"ì¤ĺ":2137,"Ġë¬¼ë¡ł":2138,"Ġíĺ¼ë°¥":2139,"ĠìĭłìĦł":2140,"ìĭľìĦ¤":2141,"ë°ĶëĶĶ":2142,"Ġì£¼ë°©":2143,"Ġëª°":2144,"ê¹ĮìĬ¤":2145,"ĠíĴĢ":2146,"¬ë¿į":2147,"ĠìķĦì§ģ":2148,"Ġìŀ¥ìĨĮ":2149,"Ġë¦¬ë·°":2150,"ìķł":2151,"ìĬ¬":2152,"ë¨¸":2153,"ì³Ĳ":2154,"ëĭ¥":2155,"ëį°ìļĶ":2156,"Ġë´ī":2157,"ê°ĻìĿĢ":2158,"Ġë²½":2159,"Ġë§ĮëĤĺ":2160,"Ġíĥľ":2161,"ĠìĥĿê°ģìĿ´":2162,"ê³Ħíĥķ":2163,"Ġë§ŀì¶":2164,"ĠìĹ´ìĭ¬íŀĪ":2165,"íķ¨ìĿ´":2166,"¾Į":2167,"ĠìĿ¸ê·¼":2168,"êµ°ìļĶ":2169,"ë³´ë©´":2170,"ìĶĢ":2171,"Ġì£¼ì°¨ìŀ¥":2172,"ĠìĦ¤ì¹ĺ":2173,"ĠêµĲíĨµ":2174,"ì¥¬":2175,"ìĿ´ìĹĪìĸ´ìļĶ":2176,"Ġíķľëĭ¤":2177,"ĠìķĪê²½":2178,"Ġëıħ":2179,"Ġë¶Ģëĭ´":2180,"Ġë¹Ħì£¼ìĸ¼":2181,"Ġë´¤":2182,"ĠìĨįëĪĪìį¹":2183,"íļ":2184,"ê³¡":2185,"ê°Ŀ":2186,"íķĺìĭ¤":2187,"íĬ¸ëĭĪìĬ¤":2188,"ìĤ¬ë¦¬":2189,"ë¸Ķë£¨ìĬ¤":2190,"ì¹´ì¸ł":2191,"ĠìłķëıĦë¡ľ":2192,"ĠìŀĳìĿĢ":2193,"ëģĹ":2194,"ĠíļĮìĽĲëĭĺ":2195,"ĠíĦ":2196,"ìĥµ":2197,"Ġìĭłë¦¼ìĹŃë§Ľì§ĳ":2198,"ĠíĥĢìŀĦ":2199,"íı°":2200,"Ġì¼Ģ":2201,"ì£¼ì°¨":2202,"Ġë§ĪëĬĺ":2203,"Ġê¸°ë¶Ħ":2204,"Ġë¶ĢìľĦ":2205,"ĠìĥĿíĻľ":2206,"ìĿ´ëĿ¼ìĦľ":2207,"ĠíķľìŀĶ":2208,"ĠíķŃìĥģ":2209,"ìķ¤":2210,"ê°Ģë£¨":2211,"ĠìķĦìī¬":2212,"Ġíĺ¼ìŀĲ":2213,"Ġì¶©ë¶Ħ":2214,"ë¡ľëıĦ":2215,"ìĿĦëķĮ":2216,"ìŀĪê³ł":2217,"ĠìĨĶ":2218,"ĠëĦ¤ìĿ¼":2219,"Ġë§¤ì½¤íķľ":2220,"Ġì°©":2221,"ìŀħêµ¬":2222,"Ġê¹Į":2223,"ĠìŃĪê¾¸ë¯¸ë¸Ķë£¨ìĬ¤":2224,"Ġê·¸ëłĩ":2225,"Ġê·¸ëłĩê²Į":2226,"Ġê¹¨ëģĹ":2227,"Ġì«Ħê¹ĥ":2228,"ë¦Ń":2229,"ìľ¼ë¡ľëıĦ":2230,"ìĿ´ìĹĪ":2231,"íķĺìĭľë©´":2232,"ìĺĢëĭ¤":2233,"ìģĺ":2234,"ë©Ķë¦¬":2235,"ìĪĺê°Ģ":2236,"ĠëĲľëĭ¤":2237,"Ġìĺ¤íĽĦ":2238,"ĠìĦľê°ķ":2239,"ĠëĶ¸":2240,"ìķĺìĬµëĭĪëĭ¤":2241,"Ġìĥģëĭ´":2242,"ĠíĥĪ":2243,"Ġê°ĢëĬ¥íķľ":2244,"Ġë§ĲìĶĢ":2245,"Ġíĭ°":2246,"Ġê²½ìĿĺìĦł":2247,"Ġê²¨ìļ¸":2248,"Ġë§Įíģ¼":2249,"Ġë°©ë²ķ":2250,"ĠëıĦì°©":2251,"Ġìĸ¸ìłľ":2252,"Ġìĭłë¦¼ë¡ľ":2253,"Ġë¨¹ìľ¼ëĭĪ":2254,"ĠìĪĺëıĦ":2255,"ĠëĮĢíĳľ":2256,"ê°ĢëĬ¥":2257,"ĠìĹ¼":2258,"Ġì²ł":2259,"Ġìī¬":2260,"ìª½ìľ¼ë¡ľ":2261,"Ġë©ĶìĿ¸":2262,"Ġì·¨íĸ¥":2263,"Ġíļ¨":2264,"Ġì½©ëĤĺë¬¼":2265,"ìķĬ":2266,"Ġê°ĻìĬµëĭĪëĭ¤":2267,"Ġê¹ĶëģĶíķľ":2268,"ĠìĬ¤íĥĢìĿ¼":2269,"ĠëĮĵ":2270,"Ġëĵ¬ë¿į":2271,"Ġì¹ĺë£Į":2272,"ì¡±ë°ľ":2273,"Ġì¢ĮìĦĿ":2274,"ĠíĺĦëĮĢë°±íĻĶìłĲ":2275,"ëį°ìĿ´íĬ¸":2276,"ë¨¹ëĬĶ":2277,"Ġë§ĪìĿĮìĹĲ":2278,"Ġë¥":2279,"Ġë§ĽìŀĪìĹĪìĸ´ìļĶ":2280,"Ġê³łê¸°ë¥¼":2281,"ê·¸ëĭĪ":2282,"ĠìłĪ":2283,"Ġê±±":2284,"ê´Ģë¦¬":2285,"ì§Ģë¥¼":2286,"ĠíĶ¼ë¶Ģ":2287,"Ġë¨¹ìľ¼ëŁ¬":2288,"ĠìŀĪëĭ¤ê³ł":2289,"ĠëĭŃê°Īë¹Ħ":2290,"ì©":2291,"ĠíĮ¨":2292,"ìĹ¬ìĦľ":2293,"Ġìŀ¬ë¯¸":2294,"ëģĪ":2295,"ĠìĺĪìģľ":2296,"ë¡Ń":2297,"ĠìŀĪëĭ¤ëĬĶ":2298,"ìŀĪìĸ´ìļĶ":2299,"íĨ¡":2300,"íķĻêµĲ":2301,"ìĸ´ê°Ģ":2302,"ìĽĥ":2303,"Ġëįľ":2304,"ë¨¹ê³ł":2305,"ëĭŃë°ľ":2306,"Ġìĸ´ëĸ¤":2307,"Ġì¿ł":2308,"ì¯¤":2309,"Ġë³´íĨµ":2310,"Ġìŀ¥ë¯¸":2311,"ë°ĺì°¬":2312,"ìĬ¤ëŁ¬ìļ´":2313,"Ġê°ĢìĦľ":2314,"Ġëĵ¤ìĸ´ê°Ħ":2315,"ĠìŀĪìĹĪìĬµëĭĪëĭ¤":2316,"ĠëĶĶìŀĲ":2317,"ĠíĹ¬ìĬ¤ìŀ¥":2318,"ë¿":2319,"Ġì±ħ":2320,"Ġìĩ¼":2321,"ìŀĸ":2322,"ê²¼":2323,"ĠìŀĪìľ¼ë©°":2324,"ì¹ľ":2325,"ì¹ł":2326,"Ġëĵ¤ìĸ´ìĺ¤":2327,"Ġíķ´ìķ¼":2328,"ĠíĺĦìŀ¬":2329,"Ġê°ķëĤ¨ìĹŃ":2330,"Ġëķ¡":2331,"Ķë²Ī":2332,"ĠìĦ¤ëªħ":2333,"ĩ´ê·¼":2334,"½ķ":2335,"ê°ĳ":2336,"ë¦¿":2337,"ĠìľĦì¹ĺíķĺê³ł":2338,"Ġê±±ìłķ":2339,"ìĬ¤ëŁ¬":2340,"íĥĢìļ´":2341,"Ġê³ĦëŀĢì°ľ":2342,"Ġê°ľìĿ¸ìłģìľ¼ë¡ľ":2343,"ìĸ¸":2344,"Ġëĭ«":2345,"íĬ¸ë¥¼":2346,"ìĤ¬ì§Ħ":2347,"ĠëĭŃë°ľ":2348,"ì´Īë°¥":2349,"ì¹´ëħ¸":2350,"Ġì½ĺ":2351,"Ġë¬¸ìłľ":2352,"ĠìłĢëł´íķľ":2353,"ĠëĮĵê¸Ģ":2354,"ìĸ´ëıĦ":2355,"ĠìŀĪëĭµëĭĪëĭ¤":2356,"Ġìĭłì´Įë¡ľ":2357,"Ġìľ¼":2358,"ĠìĨĮê¸Ī":2359,"Ġì¹ĺìķĦ":2360,"Ġëĭ¨ê³Ħ":2361,"ëĲ©ëĭĪëĭ¤":2362,"Ġë§ĽìŀĪìĸ´ìļĶ":2363,"ĠìŀĲì²´":2364,"ĠìŀĪìĹĪëĬĶëį°":2365,"ìľĦì¹ĺ":2366,"ìŃ":2367,"ë©ĺ":2368,"êµ¬ëĤĺ":2369,"ĠìĿ´ê²Į":2370,"ĠìĿ´ê±´":2371,"ĠìĭľíĤ¤":2372,"Ġëĭ¨ì²´":2373,"Ġê·ĢìĹ¬":2374,"ĠìĺĽ":2375,"êµ¬ìĿ´":2376,"ìŀ¥ìĿ¸":2377,"ìŀ¥ìĨĮ":2378,"íĻĶë²Ī":2379,"ĠíĬĢ":2380,"Ġë¬´íķľ":2381,"ìĨ¡":2382,"Ġëĭ¤ìĸĳíķĺê²Į":2383,"ë©Ķë¦¬ì¹´ëħ¸":2384,"íĻĶë²Īíĺ¸":2385,"ìķĻ":2386,"ìĥĲëŁ¬ëĵľ":2387,"ĠìĥģìĬ¹":2388,"Ġì°¾ëĬĶ":2389,"ĠíĨµíķ´":2390,"ê½ĥ":2391,"Ġì¾Į":2392,"ìŀ¡":2393,"ìĭŃ":2394,"Ġê³³ìĿĢ":2395,"ê²łìĸ´ìļĶ":2396,"ħëĭĪëĭ¤":2397,"ìĹĩ":2398,"ë¦¬ìĬ¤":2399,"ĠìłĦíĻĶë²Īíĺ¸":2400,"ì¹´ë¡±":2401,"Ġì²ľìĽĲ":2402,"Ġê¿Ģ":2403,"ĠìĿ´ëĤł":2404,"Ġì£¼ê±°":2405,"Ġê³łê¸ī":2406,"Ġì§ĢìĹŃ":2407,"ìĿ´ì§Ģ":2408,"ë§Įíķľ":2409,"Ġì¹¼":2410,"ëıĻìķĪ":2411,"Ġìĭľê·¸ëĭĪ":2412,"Ġë§Īëł¨":2413,"Ġíĳľ":2414,"ìĭłì´ĮìĹŃ":2415,"ĠìĶ¹":2416,"Ġê·ľ":2417,"Ġìĥģëĭ¹":2418,"Ġë²Ħê±°":2419,"ëıĦë¡ľ":2420,"ìĬĪ":2421,"íķ´ëıĦ":2422,"Ġíķĺë£¨":2423,"ĠëĤłìĶ¨":2424,"ĠëıĮìķĦ":2425,"Ġìŀ¥ë¯¸ë§¨":2426,"Ł¬":2427,"ì§Ģê°Ģ":2428,"Ġê¸°ìĸµ":2429,"ĠìľĦíķľ":2430,"ë¹Ľ":2431,"ìĶ¬":2432,"Ġê°ĲìĤ¬":2433,"Ġë²Īì¶ľêµ¬ìĹĲìĦľ":2434,"ĠìŀĪëıĦë¡Ŀ":2435,"Ġë§Īë¬´ë¦¬":2436,"ë¶Ģë¶Ħ":2437,"Ġê³łê¸°ê°Ģ":2438,"ë¨¹ë°¥":2439,"Ħë¦¬":2440,"Ġê³łì¶Ķ":2441,"Ġíĺ¹":2442,"ĠìķĬëĬĶ":2443,"ìį¨":2444,"º¼":2445,"ëĭī":2446,"Ġìĭ±":2447,"íĬľ":2448,"Ġë²ĦìĦ¯":2449,"ëı¼":2450,"ì´ī":2451,"Ġíķĺê¸°":2452,"Ġíķľìŀħ":2453,"ê·ľ":2454,"Ġíı¬ì°¨":2455,"Ġëĭ¤ìĿĮìĹĲ":2456,"ĠìĻ¸ê´Ģ":2457,"ëĨĵ":2458,"íķĺì§Ģë§Į":2459,"ë¦¬íķĦ":2460,"Ġì¦Ĳê¸°":2461,"ĠëĪĪìĹĲ":2462,"Ġë¸Ķë¡ľê±°":2463,"Ġì¾Įìłģ":2464,"ëŀĮ":2465,"ĠìĿ´ìķ¼":2466,"ìĿ¸ê°Ģ":2467,"ĠìķĬìķĺ":2468,"ĠìķĮìķĦ":2469,"Ġê°Ģê²©ìĿ´":2470,"íĳ¸":2471,"¨ìĸ´":2472,"ëĭ¤ë³´ëĭĪ":2473,"íķľëĭ¤":2474,"Ġëĵł":2475,"ĠìĭľìĪł":2476,"ëª¬":2477,"ëł¤ìĦľ":2478,"Ġìĺģìĥģ":2479,"ĠìŀĳìĦ±":2480,"ĠìĹ´ê³ł":2481,"Įëĵľ":2482,"ìĬ¨":2483,"ìĻķ":2484,"íĻį":2485,"´ëĤĺ":2486,"ëĵ¬":2487,"ìĪĻ":2488,"ëĸ¡ë³¶ìĿ´":2489,"ìĹĪê³ł":2490,"Ġëĭ¤ëĵ¤":2491,"Ġê²ī":2492,"Ġì¡°ìļ©":2493,"ĠìĺĨìĹĲ":2494,"ìĿ´ì£ł":2495,"Ġê°ĳ":2496,"ĠíķĺìĿ´":2497,"ìĤ¬ë¹Ħ":2498,"Ġê³µê°Ĳ":2499,"Ġë©Ķëī´ë¥¼":2500,"Ġë§ĽìŀĪìĸ´":2501,"Ġì¡°ëªħ":2502,"ë§¥":2503,"ìĭľìĹĲ":2504,"Ġê°Ģë©´":2505,"ì£¼ëĬĶ":2506,"Ġìĭłë¦¼ë¡ľê¸¸":2507,"Ġìĥ¤ë¸Į":2508,"Ġë§ĽìŀĪê³ł":2509,"ì¼ľ":2510,"ì¹¼":2511,"ëıĻìĤ°":2512,"ë³´ëĬĶ":2513,"Ġìĭłë¦¼ìĹŃìłĲ":2514,"Ġë²Į":2515,"Ġë§¤ë¬¼":2516,"ìĪĢ":2517,"ëĤ´ìĤ°":2518,"ĠëĥĦ":2519,"Ġë§ĽìĿĢ":2520,"Ġëĭ¤ìĿ´ìĸ´":2521,"Ġê³µê°ĦìĿ´":2522,"Ġê¸Īë°©":2523,"ë¦¬ì§Ģ":2524,"ëĤ¬":2525,"ìĬ¤íħ":2526,"ĠìŀĲìĹ°":2527,"ëł¤ìļĶ":2528,"ê²łì§Ģë§Į":2529,"ìħĶìķ¼":2530,"ĠìĹ¬ìĦ±":2531,"Ġì§ģìĽĲë¶Ħ":2532,"ì²ľëıĻ":2533,"Ġì£¼ë¬¸íĸĪìĸ´ìļĶ":2534,"Ġë¬´ìĹĩ":2535,"Ġê°Ħìŀ¥":2536,"ìĺģìĥģ":2537,"ĠíļĮìĭĿ":2538,"Ġë°ĽìķĦ":2539,"ì°¸ì¹ĺ":2540,"Ġíĸīë³µ":2541,"¯ë¶Ī":2542,"Ġê³ģ":2543,"ë¶ģ":2544,"Ġì°°":2545,"ĠíĻĢ":2546,"ĠìĿ¼ìļĶìĿ¼":2547,"Ġíģ¬ê²Į":2548,"Ġìłĳê·¼":2549,"¬ë½ķ":2550,"ĠìķĬìķĦìĦľ":2551,"Ġë¬¸ìĿĺ":2552,"Ġë¦¬íķĦ":2553,"ëĲł":2554,"Ġì¢ĭëĭ¤":2555,"ëĦĽ":2556,"ĠëĤ¨ìŀĲ":2557,"Ġìĸ´ëł¤":2558,"ĠëĦĵìĿĢ":2559,"Ġì»¬":2560,"ë²łìĿ´":2561,"ĠìŀĪê²Į":2562,"ê²łì£ł":2563,"ĠíİĺìĿ´ì§Ģë¡ľ":2564,"ĠìłĢëıĦ":2565,"ìĭłìĿ´":2566,"íĶĦëĿ¼":2567,"Ġë°°ê°Ģ":2568,"Ġíľ´ë¬´":2569,"Ġëª©ë¡Ŀ":2570,"Ġê°Ģê¹Įìļ´":2571,"Ġìĭľê·¸ëĭĪì²ĺ":2572,"ĠíĢ":2573,"Ġê³±":2574,"ì£¼ìĦ¸ìļĶ":2575,"ìŀĲë¦¬":2576,"ĠëįĶë°ĶëĶĶ":2577,"ĠìĹ¬ê¸°ìĦľ":2578,"Ġìķŀìľ¼ë¡ľ":2579,"ĠìĤ¬ëŀĮëĵ¤ìĿ´":2580,"Ġë¯¼":2581,"ëģĶ":2582,"Ħ¤":2583,"ëĿ¼ë©´":2584,"ĠìķĪëĤ´":2585,"ĠíĻķìĭ¤":2586,"ì»¨":2587,"ĠìŀĪì§Ģë§Į":2588,"ìĻĢìĦľ":2589,"Ġìĭłì´ĮìĹŃë§Ľì§ĳ":2590,"Ġë¹¼":2591,"Ġë¨¹ìĸ´ìķ¼":2592,"ìħ¨ëĭ¤":2593,"ĠìĹ¬ê¸°ëĬĶ":2594,"ì¡°ê±´":2595,"ĠìŃī":2596,"ìķ¡":2597,"ĠìĪĺìļĶ":2598,"Ġì°Ĳ":2599,"ĠìķĦíĮĮ":2600,"ĠìŀĲê·¹":2601,"ĠìĻķ":2602,"ĠìķĬìķĦ":2603,"ĠìĹĨìĸ´ìĦľ":2604,"Ġê±°ë¦¬ìĹĲ":2605,"ë§ĮëĳĲ":2606,"ëĵľë¦¬":2607,"ĠìĭľìĦ¤":2608,"ìĭĿìľ¼ë¡ľ":2609,"Ġêµ¬ê²½":2610,"Ġì¢ĭìķĺëĭ¤":2611,"Ġê¹ĶëģĶíķĺê³ł":2612,"ê¹ĥì§ĳ":2613,"»ê²Į":2614,"ìĿ´ì§Ģë§Į":2615,"ĠìĤ´íİ":2616,"ĠëĲľìŀ¥":2617,"ĠíĦ°":2618,"Ġìŀ¥ë¯¸ë§¨ìĪĢ":2619,"ĠëįĶë°ĶëĶĶíķı":2620,"ì«":2621,"ëıĦê°Ģ":2622,"ĠëĮĢê¸°":2623,"Ġìĸ´ëĶĶ":2624,"ëĶĶìĸ´":2625,"Ġë¶ĢëĵľëŁ¬ìļ´":2626,"Ġë°ĳë°ĺì°¬":2627,"ëĬĶì§Ģ":2628,"ĠëĤ®":2629,"ĠëĦī":2630,"ĠìĽĮ":2631,"ìĺ¤ìĬ¤íģ¬":2632,"Ġê²ĥìĿĦ":2633,"Ġë¶Ģì¡±":2634,"ĠìĬ¤íĦ°":2635,"ì½ĺ":2636,"ê¼¼":2637,"¬ìĺģ":2638,"ë¡ľëĬĶ":2639,"Ġì£¼ë¨¹ë°¥":2640,"ìŀĲê¸°":2641,"Ġë©Ģ":2642,"Ġì¢ĭìķĦìĦľ":2643,"ĠëıĻìĺģìĥģ":2644,"ĠêµŃë¬¼ìĿ´":2645,"ĠíĤ¤ìĺ¤ìĬ¤íģ¬":2646,"ìıĺ":2647,"ê¹Ŀ":2648,"ëĦī":2649,"ìĽĲë£¸":2650,"ĠëĦīëĦī":2651,"ë³´ë":2652,"Ġê²ĥìľ¼ë¡ľ":2653,"Ġë¶Ģì¶Ķ":2654,"ĠëıĻìķĪ":2655,"Ġê°ĦíĮĲ":2656,"ìħĶëıĦ":2657,"ëłĪìĿ´íģ¬":2658,"ìŀĸìķĦìļĶ":2659,"ì£¼ìĭľ":2660,"ĠìķĦë©Ķë¦¬ì¹´ëħ¸":2661,"ìĨĲ":2662,"Ġì§ģìŀ¥ìĿ¸":2663,"ĠëĨĴìĿĢ":2664,"ì±ħ":2665,"ĬìĿĢ":2666,"Ġë§ĺ":2667,"Ġìĭłê¸°":2668,"Ġì£¼ìĭľ":2669,"ĠìĿ¼ë³¸":2670,"ĠíħĮìĿ´ë¸ĶìĿ´":2671,"Ġìĭłì¶ķ":2672,"Ġê°ľíĨµ":2673,"Ġíģ¬ë¡ľ":2674,"íķĦëĿ¼íħĮìĬ¤":2675,"Ġê°Ģì§Ģê³ł":2676,"ëĺĲ":2677,"Ġìķħ":2678,"Ġìĺ¥":2679,"Ġìĭłì´Įë§Ľì§ĳ":2680,"Ġë¨¹ìĹĪìĸ´ìļĶ":2681,"íĥ±":2682,"ĠíķĺëĭĪ":2683,"Ġë§İìķĦ":2684,"Ġë§ĮëĳĲ":2685,"ĠìĤ¬ìĿ´ì¦Ī":2686,"Ġë°ľê²¬":2687,"Ġì»¨":2688,"Ġìĥ¤ë¸Įìĥ¤ë¸Į":2689,"íĢ":2690,"ë¯¸ìļ©ìĭ¤":2691,"ĠëķĮëĬĶ":2692,"Ġê¼¼":2693,"ĠíĶĦë¡ľ":2694,"Ġë°±ìĪľëĮĢ":2695,"ĠìĹ°ìĦ¸ëĮĢ":2696,"ĠëĴ·":2697,"Ħë¦¬íĭ°":2698,"ìĵ°":2699,"íķŃ":2700,"íķĺëĭ¤ê³ł":2701,"ëŀĦ":2702,"ĠëĤĺëĪ":2703,"Ġë§Īìĭľ":2704,"Ġë§ĽìŀĪëĭ¤":2705,"Ġìľłì§Ģ":2706,"Ġê°ĲìĦ±":2707,"ĠëĤ´ë¶ĢëĬĶ":2708,"Ġìĸ´ëĸ»ê²Į":2709,"Ġìı":2710,"ìĿ´ë©´":2711,"ĠìĦŀ":2712,"Ġìĥ¤":2713,"ì¹ĺíĤ¨":2714,"Ġìĺ¤ë¥¸":2715,"Ġìĺ¤ëİħ":2716,"Ġë¶Īíİ¸":2717,"Ġìµľê·¼":2718,"Ġê°ģì¢ħ":2719,"ìĸ´ëĤĺ":2720,"Ġê·¸ëĮĢë¡ľ":2721,"Ķë¸":2722,"ĠìĺĪìłķ":2723,"ëĶ°":2724,"Ġìļ°ë¦¬ëĬĶ":2725,"Ġë¬´ì¡°ê±´":2726,"ĠìĿĺìŀĲ":2727,"ĮëĵľìľĦì¹ĺ":2728,"Ġì±":2729,"Ġëĭ´ë°":2730,"Ġëįķ":2731,"Ġë§ĽìŀĪìĹĪëĭ¤":2732,"Ġêµ¬ë§¤":2733,"ĠìľĦì¹ĺëĬĶ":2734,"ì¤įëĭĪëĭ¤":2735,"ĠíķĦìĪĺ":2736,"ĠìĻĢìĦľ":2737,"Ġë§¤ìļ´ë§Ľ":2738,"ĠëĤĺìĻĶìĸ´ìļĶ":2739,"ìĹ¼":2740,"ĠìĤ¬ëŀĳ":2741,"ìłĲìĿĢ":2742,"Ġë§İê³ł":2743,"Ġì¡±":2744,"Ġë¬´íķľë¦¬íķĦ":2745,"Ġë³´ìĮĪ":2746,"ìļ´ëį°":2747,"Ġë¹Ħë¹":2748,"ê¿":2749,"íķĺëĤĺ":2750,"íĶ¼íĶĮ":2751,"Ġê³µê¸ī":2752,"ë¯Ģ":2753,"Ġë§īêµŃìĪĺ":2754,"ìĥĪìļ°":2755,"ì¿ł":2756,"ĠìĦľê°ķëĮĢ":2757,"íį¼":2758,"Ġìĭłì´Įë³¸ìłĲ":2759,"Ġíķ´ë":2760,"íħĲ":2761,"ĠìłĦìļ©":2762,"Ġëĵ¤ìĸ´ìĦľ":2763,"Ġíİ¸ìķĪ":2764,"íĴį":2765,"Ġìĭ¤ëĤ´":2766,"Ġë°¥ì§ĳ":2767,"ì¸¡":2768,"Łģ":2769,"ëĵľëĬĶ":2770,"ë²¼":2771,"ëĥī":2772,"ìĬµëĭĪëĭ¹":2773,"Ġë¸ĮëłĪìĿ´íģ¬":2774,"Ġê°Ģìł¸ëĭ¤":2775,"Ĳë§Į":2776,"Ġì£":2777,"ĠëĿ":2778,"ëĿ¼ìĬ¤":2779,"Ġì§ĢëĤľ":2780,"ĠìĸĳíĮĮ":2781,"Ġì´ī":2782,"ĠíĸĪëĭ¤":2783,"Ġê¸ĢìĹĲ":2784,"Ġë©Ķë°Ģ":2785,"ëĤĺê²Į":2786,"Ġë§¤ëł¥":2787,"Ġë§Ľì§ĳìĿ´":2788,"ê¸¸ëŀĺ":2789,"Ġíķ´ëıĦ":2790,"ìķĪì£¼":2791,"Ġë¶ĪíĮĲ":2792,"ĠëıĪê¹ĮìĬ¤":2793,"ĠíľĺíĬ¸ëĭĪìĬ¤":2794,"ĠìĤ¬ìĹħ":2795,"ĠìķĬìĿĦ":2796,"ĠëĲĺê³ł":2797,"Ġì¤ĳêµŃ":2798,"Ġíŀĺëĵ¤":2799,"Ġëĭ«ê¸°":2800,"Ġìĭłë¦¼ìĦł":2801,"Ġíķĺìĭľ":2802,"ĠëĬ¦":2803,"ìĿ´ëĿ¼ë©´":2804,"Ġê³µë¶Ģ":2805,"ëĭĲ":2806,"ê°ĢëĿ½":2807,"ĠíķĺëĬĶëį°":2808,"ì¹ĺê³¼":2809,"Ġêµ¿":2810,"Ġê¸°ë¶ĦìĿ´":2811,"Ġìŀħë§Ľ":2812,"íģĲ":2813,"ĠìĪĺê°Ģ":2814,"ì½©":2815,"Ġê°ľìĿĺ":2816,"ĠëĵľëĶĶìĸ´":2817,"Ġê°ĢëĬ¥íķ©ëĭĪëĭ¤":2818,"ĠìĻĢìĿ¸":2819,"Ġë²ĦìĬ¤":2820,"ì»¤ë¦¬":2821,"Ġìĥģëĭ¹íŀĪ":2822,"ìĹ´":2823,"Ġê³Ħëĭ¨":2824,"ĠìķĮê³ł":2825,"ĠìĤ¬ì§ĦìĿĦ":2826,"ĠìĻĢìĤ¬ë¹Ħ":2827,"ĠëĦ£ìĸ´":2828,"Ġê³łìĨĮíķľ":2829,"ĠìĭľìĽĲíķľ":2830,"Ġë¿Įëł¤":2831,"Ġìį¨":2832,"ìĬ´":2833,"ĠìĸĳëıĦ":2834,"Ġìĸ´ê¹¨":2835,"ĠëĳĲíĶ¼":2836,"Ġê¹ĶëģĶíķĺê²Į":2837,"Ġë¹¨ë¦¬":2838,"íķĺëĭ¤ê°Ģ":2839,"Ġìĺ·":2840,"ëĵľë¦Ħ":2841,"Ġê¸°êµ¬":2842,"ĠìłĦíĻĶ":2843,"ëĦ¤ìĿ¼":2844,"Ġë°Ľê³ł":2845,"ĠìĹ¬ëŁ¬ë¶Ħ":2846,"ī´":2847,"ĠìĿ´ìłĦ":2848,"ë¬´ìĭ¤":2849,"ĠìĽĲíķĺëĬĶ":2850,"Ġêµ¬ì¡°":2851,"Ġë¹ĦêµĲ":2852,"Ġì§ĳì¤ĳ":2853,"ë°Ķë¡ľ":2854,"Ġëªħë¬¼":2855,"Ġë¹łë¥´ê²Į":2856,"ĠìĿ´ë²ĪìĹĲ":2857,"íĬľëĶĶìĺ¤":2858,"ĠíĢĦë¦¬íĭ°":2859,"Ġì±Ļ":2860,"ìĩ":2861,"ĠìŀĪìĿĮ":2862,"ĠìĹĺ":2863,"Ġëĭµ":2864,"Ġì§±":2865,"ìĿ¸ìĿ´":2866,"Ġê³łê¸°ëŀĳ":2867,"ë³ĳìĽĲ":2868,"ë§ŀ":2869,"ìĺ¤ëĬĶ":2870,"Ġë¹Į":2871,"Ġìļ°ëıĻ":2872,"Ġê´ĳê³ł":2873,"ĠìĪĻìĦ±":2874,"Ġë¶ĢëĵľëŁ½ê³ł":2875,"Ġë§ŀì¶°":2876,"íķ´ë³":2877,"ĠìŀĪê¸°":2878,"ĠìĿ´ê²ĥ":2879,"ê¹Ĳ":2880,"íĬ¸ë¡ľ":2881,"Ġêµ½":2882,"Ġìĭłì´ĮìĹŃìĹĲìĦľ":2883,"Ġëĵ±ìŀ¥":2884,"ĠìĦ¸íĮħ":2885,"Ġê°ķëĤ¨êµ¬":2886,"ĠêµĲìłķ":2887,"Ġë³Ħë¡ľ":2888,"Ġëĸ¨ìĸ´":2889,"ĠëĶ°ëľ»íķľ":2890,"ìĹĦ":2891,"ìĸ´ìļ©":2892,"ëĤĻ":2893,"ìŀĪëĭ¤":2894,"ĠëĤĺì¤ĳìĹĲ":2895,"Ġëį®ë°¥":2896,"ĠìĻ¼":2897,"ĠìłĦíĺĢ":2898,"ĠìĹŃìĦ¸ê¶Į":2899,"Ġì¢ĭìķĺëįĺ":2900,"ĠìŀĲë¦¬ê°Ģ":2901,"ĠíķĺìĿ´ë³¼":2902,"Ġìĭłê²½":2903,"ĠìŀĪìľ¼":2904,"ìĿĺëıĦ":2905,"ë²¨":2906,"Ġìĭłë¦¼ìĹŃìĹĲìĦľ":2907,"ĠíķľêµŃ":2908,"Ġê²ĥìĿĢ":2909,"Ġê³µê¸°":2910,"Ġì§ĳìĹĲ":2911,"Ġì§ĳìĹĲìĦľ":2912,"ëŀľëĵľ":2913,"Ġëĭ¤ëħĢìĻĶìĸ´ìļĶ":2914,"ìĥģìĿ´":2915,"ëĭĺìĿ´":2916,"Ġë°ĽìĿĦ":2917,"ĠíĥĢìŀħ":2918,"ĠíĿ¡":2919,"ĠìķĦíĮĮíĬ¸":2920,"Ġëĭ´ë°±":2921,"íķĺëŁ¬":2922,"ëłĩê²Į":2923,"ĠìĬ¬":2924,"Ġì¶Ķìĸµ":2925,"ĠíĿĳ":2926,"ĠíĽ¨":2927,"Ġìłģëĭ¹íŀĪ":2928,"Ġì¹´ë":2929,"Ġë§Ľì§ĳìľ¼ë¡ľ":2930,"Ġê³µì§Ģ":2931,"ë¹ł":2932,"Ġìļ°ìĦł":2933,"ĠëĤ´ëıĪ":2934,"Ġëĭ¤ìĿ´ìĸ´íĬ¸":2935,"Ġê³ģëĵ¤":2936,"Ġê¸ī":2937,"ë³´ëĭ¤ëĬĶ":2938,"Ġë§Īì¹ĺ":2939,"íĥĢìŀĦ":2940,"Ġíķ´ëĭ¹":2941,"ëłĪìĬ¤":2942,"ìħ¨ëĬĶëį°":2943,"ê°Īë¹Ħì°ľ":2944,"ĠìĤ¬ìŀ¥ëĭĺìĿ´":2945,"Ġë¶ĢëĵľëŁ¬":2946,"ĠìĿ´ëĮĢìĹŃ":2947,"Ġì¿łíĤ¤":2948,"ĠìĺĽëĤł":2949,"Ġìĵ":2950,"Ġë°¤":2951,"ìĭľì£ł":2952,"êµ¬ë§Ī":2953,"ĠìĿ´ìĸ´":2954,"Ġì¢ĭìĬµëĭĪëĭ¤":2955,"Ġì¹¨":2956,"ìłĦì²ł":2957,"Ġê²Ģìĥī":2958,"Ġì¡±ë°ľ":2959,"ì§ķìĸ´":2960,"íķľëį°":2961,"ìĽĢìĿ´":2962,"ìļ°ìĬ¤":2963,"íĶ¼ìŀĲ":2964,"Ġì´¬ìĺģ":2965,"ĠìĨĮìĬ¤ê°Ģ":2966,"Ġìī½ê²Į":2967,"Ġì´īì´ī":2968,"ĠíľĺíĬ¸ëĭĪìĬ¤íĶ¼íĶĮ":2969,"´¤":2970,"ìłģìĿ´":2971,"íĻķ":2972,"Ġì°¾ìľ¼":2973,"Ġìľ¡ìĪĺ":2974,"Ġì°½ì²ľëıĻ":2975,"ĠëĥĦìĥĪ":2976,"ìĮĢêµŃìĪĺ":2977,"ë¦¬ëĭī":2978,"ëŀ¨":2979,"ìłķë³´":2980,"ë°©ë¬¸":2981,"ĠìĦ¸ëĮĢ":2982,"ê°ĲëıĻ":2983,"ë´¤ëĬĶëį°":2984,"ĠìĨĶì§ģ":2985,"Ġíĩ´ê·¼":2986,"ìĿĺìĽĲ":2987,"ëįĶêµ°ìļĶ":2988,"ĠìĹĨê³ł":2989,"ë´ī":2990,"ë²Īì§¸":2991,"ì¹´ìķ¼":2992,"ĠìĪĺìłľë²Ħê±°":2993,"Ġë´ĲëıĦ":2994,"ë»":2995,"Ġë¼Ī":2996,"ĠëįĶë¸":2997,"Ġì£¼ë¬¸ìĿĦ":2998,"íĭĢ":2999,"Ġë¨¹ê³łìĭ¶":3000,"ĠëĦĵê³ł":3001,"Ġì¢ħë¥ĺê°Ģ":3002,"Ġìĸ¼ë§ĪëĤĺ":3003,"Ġê¼¼ê¼¼":3004,"ĠíĽ¨ìĶ¬":3005,"ì§ĢìķĬ":3006,"ĠìŀĪëįĺ":3007,"ì£¼íĥĿ":3008,"ìŀĲì¹´ìķ¼":3009,"ì¶ĺ":3010,"Ġë§Įëĵł":3011,"ĠìĹ°ê²°":3012,"ĠìļĶë¦¬":3013,"Ġíľ´":3014,"ìĦ¼íĦ°":3015,"ĠëĶ¸ê¸°":3016,"êº¼":3017,"ì§ķ":3018,"ëĿ¼ëĸ¼":3019,"ìŀ¥ìĿĦ":3020,"Ġì°ľ":3021,"ìĻģìĭ±":3022,"ĠëĤĺìĦľ":3023,"ë³´ìĦ¸ìļĶ":3024,"Ġë§Īì¹´ë¡±":3025,"ĠìķĬê²Į":3026,"ê°ĲìĿ´":3027,"ĠìĥĪë²½":3028,"ëĭŃê°Īë¹Ħ":3029,"ĠĠĠĠĠĠĠĠĠĠĠĠĠĠĠĠ":3030,"ë¦´ê²ĮìļĶ":3031,"ĠìĺĪìģĺê²Į":3032,"Ġíļ¨ê³¼":3033,"ĠìĽĮëĤĻ":3034,"ìĿ´ë©°":3035,"ĠìŀĪëįĶëĿ¼êµ¬ìļĶ":3036,"Ġìĭłì´ĮìĹĲìĦľ":3037,"Ġëĵ±ëĵ±":3038,"ìĺĢëĬĶëį°":3039,"Ġë¸Ķ":3040,"ķìĸ´ë¹µ":3041,"ë¡Ńê²Į":3042,"ìŀī":3043,"ë¬´ëĤĺ":3044,"Ġê°Ģê¹Ŀ":3045,"ìĹĪëĬĶëį°ìļĶ":3046,"Ġê¸°ì¤Ģ":3047,"ĠìĹ°ìĸ´":3048,"íķĺë©´ìĦľëıĦ":3049,"Ġê³łê°Ŀ":3050,"ë²ħ":3051,"Ġì¸µìľ¼ë¡ľ":3052,"ë¨¹ìĿĦ":3053,"Ġìĸ´ëł":3054,"ĠëĿ¼ë©´":3055,"ë¶Īê°ĲëıĻ":3056,"Ġì§Ń":3057,"Ġìĺ¤ìłĦ":3058,"ĠìĹ°ëĿ½":3059,"íħĮìĿ¼":3060,"Ġëĵ±ìĿ´":3061,"ì¼ĢìĿ´":3062,"ĠìŀĦëĮĢ":3063,"Ġë°ĸìĹĲ":3064,"Ġìĩ¼íķĳ":3065,"ìĿ´ëĵľ":3066,"ê²ģ":3067,"ìłĲìĿĦ":3068,"ì¦Ļ":3069,"Ġìĭ¤ìłľ":3070,"ĠìĨĲëĭĺìĿ´":3071,"Ġë§Īëł¨ëĲĺìĸ´":3072,"ê°ĢìĦľ":3073,"ëĵ¤ìĹĲê²Į":3074,"ĠìķĦë¬´ë":3075,"ì¹ĺë¯¸":3076,"Ġì¢ĭëįĶëĿ¼êµ¬ìļĶ":3077,"ĠìĿ¸ìĥĿ":3078,"Ġì¤ĳìĭ¬":3079,"Ġìĺ¬ë¦¬":3080,"Ġê°Ģê²©ëıĦ":3081,"ë³¶ìĿĮë°¥":3082,"Ġë¶ĦìľĦê¸°ê°Ģ":3083,"Ġê±¸ìĸ´":3084,"Ġê¸°ëĭ¤ë¦¬":3085,"Ġê¾¸ì¤Ģ":3086,"íľ´":3087,"Ġëªħë¬¼ê¸¸":3088,"ìĿ´ìķ¼":3089,"ìĹĪì§Ģë§Į":3090,"ĠìĹĨìĿĦ":3091,"ë¨¹ìľ¼ë©´":3092,"Ġíģ¬ë¦¬ìĬ¤":3093,"Ġìĸ¼íģ°":3094,"Ġì¹ľêµ¬ê°Ģ":3095,"Ġë§īë¶Īê°ĲëıĻ":3096,"ĠíķĦìļĶíķľ":3097,"ĠíĽĮ":3098,"Ġë¯¿":3099,"Ġíį¼":3100,"ĠëĦĪë¬´ëĤĺ":3101,"ĠìŀĪìĹĪê³ł":3102,"ĠëĬĲëĤĦ":3103,"ĠìĹĦë§Ī":3104,"ĠìĸĳëħĲìĿ´":3105,"Ġë°Ķë":3106,"ĠìĥĮëĵľìľĦì¹ĺ":3107,"ëĦĲ":3108,"Ġì§ĢëıĦ":3109,"ĠìĹŃìĤ¬":3110,"ĠìĹ¬ë¦Ħ":3111,"ĠìĹ¬ìĿĺëıĦ":3112,"Ġìĥģê°Ģ":3113,"Ġìĸ´ì©":3114,"Ġë¨¹ìĸ´ë³´":3115,"Ġë°©ë¬¸íķľ":3116,"Ġì¶Ķê°Ģë¡ľ":3117,"ĠìĹ°ìĦ¸ë¡ľê¸¸":3118,"ĠíĻįíķ©":3119,"ĠìĭĿê°ĲìĿ´":3120,"ê³¤":3121,"Ġìĭ«":3122,"Ġë°ĶëĶĶ":3123,"ìĬ¤ê°Ģ":3124,"ë¦¼ì²ľ":3125,"ì¹ľêµ¬":3126,"ì§ĳìĿ´":3127,"Ġì£¼ëĬĶ":3128,"ĠëĤ´ìļ©":3129,"ĠìŀĲë¦¬ìĹĲ":3130,"Ġë½":3131,"ìĿ´ëıĦ":3132,"Ġë°Ŀ":3133,"ĠìĿ´íĽĦ":3134,"ĠëĮĢë¶Ģë¶Ħ":3135,"Ġìłľì£¼":3136,"ĠìĥģíĻ©":3137,"ĠëıĦë¦¼ì²ľ":3138,"ĠìłĢíĿ¬ê°Ģ":3139,"ĠëĳĺìĿ´":3140,"ĠìķĦìĿ´ìĬ¤":3141,"ìī½":3142,"ĢëĵĿ":3143,"ìĹŃìĤ¼":3144,"ìľ¼ë©´ìĦľ":3145,"ë°¤":3146,"Ġê°Ģì¡±":3147,"Ġê·¸ë¦ĩ":3148,"ìŀĪìĬµëĭĪëĭ¤":3149,"ĠìķĦë¬´":3150,"Ġëª¨ëĵ¬":3151,"ĠìķĦëĭĪê³ł":3152,"Ġë¬¸íĻĶ":3153,"íģ´ë":3154,"ë¹ĮëĿ¼":3155,"ĠíĹ¤ìĦ¼":3156,"Ġëĵłëĵł":3157,"ëıĦë¦¬":3158,"ìľ¼ë¡ľëĬĶ":3159,"íĺ¼":3160,"ê²¨ìĦľ":3161,"Ġê·¸ëŁ°ëį°":3162,"ĠìĿ´ìķ¼ê¸°":3163,"ë¶ĦìĹĲ":3164,"ê»ı":3165,"ĠëıĦìĭľ":3166,"ĠëıĻëĦ¤":3167,"ĠìĥĪì½¤":3168,"Ġë¶Ħëĵ¤ëıĦ":3169,"ê°ĻìĿ´":3170,"ëļ":3171,"Ġìĭ¹":3172,"ìĭľì¼ľ":3173,"ìŀĪìĸ´":3174,"Ġê³łê¹ĥì§ĳ":3175,"ĠìĿ¸íĶĦëĿ¼":3176,"ìĺ¤íĶ¼ìĬ¤íħĶ":3177,"ĠìĬ¹":3178,"Ġëĵ¤ìĸ´ê°Ķ":3179,"Ġì½ľ":3180,"ĠëĺĲëĬĶ":3181,"íķĺê¸°ëıĦ":3182,"ĠíĶĦë¦¬":3183,"ĠëĥīìĤ¼":3184,"ĠíĪ¬ìŀĲ":3185,"ì¢ĭìĿĢ":3186,"ŀĺëıĦ":3187,"Ġì¡´ë§Ľ":3188,"ĠìĹ¼ìĥī":3189,"ëķ":3190,"Ġë£¨":3191,"êµ¬ê°Ģ":3192,"Ġìĭłë¦¼ë§Ľì§ĳ":3193,"íĥĳ":3194,"ĠëĤĺìĺ":3195,"ë³Ħë¡ľ":3196,"ëª¨ìŀĦ":3197,"ìĭłìĿ´ìıĺ":3198,"ĠíĻķìĭ¤íŀĪ":3199,"ë¯Ģë¡ľ":3200,"ĠëįĶë¸Ķ":3201,"Ġíģ¬ë¦¬ìĬ¤ë§Ī":3202,"ìĬ·":3203,"Ġì§¬ë½ķ":3204,"Ġë³´ëĭ¤":3205,"ĠìĿ´ë¥":3206,"ìĦ¸íĬ¸":3207,"ĠìĿ¸ìĬ¤íĥĢ":3208,"íĸĪê³ł":3209,"ĠìľĦíķ´ìĦľ":3210,"ĠíĮĶë¡ľ":3211,"ĠìĬ¤íĬ¸ëłĪ":3212,"ĠìĺĪìłĦ":3213,"Ġì¤ĳìĹĲ":3214,"ĠìĤ¼ìĤ¼":3215,"Ġëĵ¤ìĸ´ê°Ģë©´":3216,"ìĹ°íŀĪ":3217,"´ëĿ¼ë§¤":3218,"ì¿¼":3219,"ìĬ¤íĦ°ëĶĶ":3220,"ĠíĻľìļ©":3221,"ĠìºĲ":3222,"ì¹Ń":3223,"Ġë¨¹ìĹĪëĬĶëį°":3224,"ìŀ¥ìĹĲ":3225,"Ġìĺ¤ëĬĶ":3226,"Ġìĺ¤ì§ķìĸ´":3227,"ĠìĿ´ë£¨":3228,"ĠìĨĮìĭłìĿ´ìıĺ":3229,"ĠëĮĢë°ķ":3230,"ĠíĸĦ":3231,"ĠìĻĦìĦ±":3232,"ĠíĨµì¦Ŀ":3233,"Ġëĭ´ìķĦ":3234,"ĠëıĦë³´ë¡ľ":3235,"ĠìĿ´ê³³ìĿĢ":3236,"Ķë²ł":3237,"ìĭŃëĭĪëĭ¤":3238,"Ġê°ĢëģĶ":3239,"ĠìķĦë§Ī":3240,"Ġë¶Ħê±°ë¦¬":3241,"Ġìłķë³´":3242,"ìķ¼ëģ¼":3243,"ĠìĦľìļ¸ìĭľ":3244,"ĠíĬ¹ë³Ħ":3245,"ĠíĨ¡":3246,"ĠíĹ¤ìĸ´":3247,"Ġë§Ĳê³ł":3248,"Ġë³¸ìłĲ":3249,"Ġìļ°ë¦¬ê°Ģ":3250,"Ġë¬´ìĹĩë³´ëĭ¤":3251,"ĠëĤ´ëıĪëĤ´ìĤ°":3252,"íĪ":3253,"ìĿ´ê¸°":3254,"ìĸ´ìł¸":3255,"ĠìĭłìĽĲ":3256,"ì²Ļ":3257,"Ġíķĺë©´ìĦľ":3258,"íĦ¸":3259,"ĠìĦłìĥĿ":3260,"ĠìļĶëłĩê²Į":3261,"Ġê°ĦìĿ´":3262,"ĠìĻĦë²½":3263,"ĠëªħëıĻ":3264,"Ġê½ī":3265,"Ġê°ĻìĿĢëį°":3266,"ĠëĨĢëŁ¬":3267,"Ġíģ´ë¦¬ëĭī":3268,"íļį":3269,"ĠìķĦë¬´ëŀĺëıĦ":3270,"ì·¨":3271,"Łì§ĳ":3272,"ì§Ģì§Ģ":3273,"ëŀį":3274,"Ġìĭłì´ĮìĹĲ":3275,"ĠìĪ¯ë¶Ī":3276,"ĠíĻĪ":3277,"Ġì´Īì½Ķ":3278,"ê¶Ī":3279,"ĠíıīìĨĮ":3280,"Ġì¹´ì¸ł":3281,"ëŀĻ":3282,"ìŀ¥ìĿĢ":3283,"ìĭłëĭ¤":3284,"Ġë§Ľì§ĳìĿĦ":3285,"ĠìĥĿê¸´":3286,"ìĥĿíĻľ":3287,"Ġê·¼ìľ¡":3288,"Ġê°Ģê²©ìĿĢ":3289,"Ġì¢ĭìķĺìĬµëĭĪëĭ¤":3290,"Ķë¡ľëĤĺ":3291,"ĠìłĦì²´ìłģìľ¼ë¡ľ":3292,"ìĮĢ":3293,"ìĭľê¸¸":3294,"ĠíķĺìĭľëĬĶ":3295,"Ķëª¨":3296,"Ġë§ĪìĤ¬":3297,"ĠìĿ¸ê¸°":3298,"Ġëĵ¤ê³ł":3299,"ìķ¼ì§Ģ":3300,"Ġë©Ķëī´ëıĦ":3301,"ĠëıĻìŀĳ":3302,"íĮĮìĬ¤íĥĢ":3303,"Ġì½ĶìĬ¤":3304,"êµ´":3305,"ìĹŃìĦ¸ê¶Į":3306,"ê¹Ķ":3307,"Ġëĭ¤ëĭĪ":3308,"Ġíķ´ë³´":3309,"ĠìĽĲë£¸":3310,"Ġë¹ĦìĬ·":3311,"íĻĶë":3312,"Ġíİ¸ìĿĺ":3313,"íķ¨ìĿĦ":3314,"Ġê·ľëª¨":3315,"ëĤĺê³ł":3316,"íĻĶê°Ģ":3317,"ëĳĲë¶Ģ":3318,"ëŁ°ì¹ĺ":3319,"Ġë¶Ļìĸ´":3320,"Ġê·ĢìĹ¬ìļ´":3321,"Ġë¹Ħë¹Ķ":3322,"ì£¼ê³ł":3323,"Ġêµ°":3324,"Ġìłķê¸°":3325,"ë¥´ëĬĶ":3326,"Ġë°°ë¶Ģ":3327,"Ġìĭľê°ĦìĿĦ":3328,"ĠìĿ´ìļ©íķł":3329,"Ġëħ¸ëŀĺ":3330,"ĠìĻ¸ë¶Ģ":3331,"ĠíĻĺê²½":3332,"Ġê´ľì°®ìĿĢ":3333,"ë©´ìłģ":3334,"ëłģ":3335,"ìĻĦ":3336,"Ġë³´ìŀħëĭĪëĭ¤":3337,"íĮĮìĿ´":3338,"ë§Īì°¨":3339,"ìĭĿìĿĦ":3340,"Ġê³³ìĿĦ":3341,"Ġíı¬ëıĦ":3342,"Ġê°ķì¶Ķ":3343,"ĠíĥĢê³ł":3344,"Ġëª©ìĤ´":3345,"Ġëĥīìŀ¥":3346,"Ġìľ¡ì¦Ļ":3347,"ìĿ´ìĹĲ":3348,"Ġë§¨":3349,"ĠìłĬìĿĢ":3350,"ëĿ¼ëıĦ":3351,"ëŀ«":3352,"ë¬¸ìĹĲ":3353,"Ġë³´ëĬĶ":3354,"ĠìĹ¬ìľł":3355,"ĠëĲĺë©´":3356,"Ġë°©íĸ¥":3357,"ĠìĬ¤ì¿¼":3358,"Ġíı¬íķ¨":3359,"ë¹Ĺ":3360,"ĠìĻĢíĶĮ":3361,"Ġìµľìĥģ":3362,"Ġìŀłìĭľ":3363,"ìĩĦ":3364,"ìĿ´ëĭĪ":3365,"Ġê³§":3366,"Ġë¨¹ìĹĪëĭ¤":3367,"Ġì°¬":3368,"ĠìķĦìī½":3369,"Ġë§İìķĺ":3370,"ìĤ¼ê³Ħíĥķ":3371,"ìłķìĿĦ":3372,"Ġê³³ìĹĲ":3373,"ìĽĮìļĶ":3374,"Ġëĭ¨ë¬´ì§Ģ":3375,"Ġìĭ¶ìĸ´ìĦľ":3376,"ĠëıĻì¹ĺë¯¸":3377,"ĠìµľëĮĢ":3378,"ĠìĹĲìĦľ":3379,"íģ´":3380,"íĥĪì¶ľ":3381,"ìĬ¤ëŁ½ê²Į":3382,"Ġìĸ´ëłµ":3383,"Ġíģ¬ë¦¬ìĬ¤ë§ĪìĬ¤":3384,"ëĭ¤ëĭĪ":3385,"ì§ĢíĦ¸":3386,"Ġê°Ģë³":3387,"Ġìĸĩ":3388,"Ġíķĺì§Ģ":3389,"Ġê³łêµ¬ë§Ī":3390,"ê±°ìļ´":3391,"Ġë§ĪìļĶ":3392,"ìĭĿìĿ´":3393,"ìĤ¼ê²¹":3394,"ĠìĹĨìĸ´":3395,"ĠìĥģíĴĪ":3396,"ĠëıĦëĦĽ":3397,"Ġëĵ±ìĿĺ":3398,"ĠíıŃ":3399,"Ġë²ĦíĦ°":3400,"ĠíĿĶ":3401,"ĠëĤĺìĻĶìĬµëĭĪëĭ¤":3402,"Ġëĭ¤ëħĢìĺ¨":3403,"ìĭłì´ĮìłĲ":3404,"ĠìĦ¼ìĬ¤":3405,"íĬ¸ëłĪë¹Į":3406,"Ġìĥ¤ìĽĮ":3407,"Ġì±Ļê²¨":3408,"ìĭľìŀ¥":3409,"ìĬ¤íĨł":3410,"íĬ¸ê°Ģ":3411,"ĠìĹ¬ëĵľë¦Ħ":3412,"ë¥´ê³ł":3413,"Ġìĸ´ë¬":3414,"ĠìĨĮê°ľíķ´":3415,"ìĦ±ìĿ´ëĦ¤":3416,"Ġê¾¸ë©°":3417,"ĠìħĢíĶĦë°Ķ":3418,"ìľ¨":3419,"ë°ĸ":3420,"ëĮĢê°Ģ":3421,"Ġê°ĻìķĦìĦľ":3422,"Ġëª¨ìĸĳ":3423,"Ġíĥķ":3424,"Ġì½Ķë¡ľëĤĺ":3425,"ĠìĿ´ëŁ¬":3426,"ĠëĲľìŀ¥ì°Įê°ľ":3427,"ëıĦë¦¬íĥķ":3428,"ìĿ´ëĦĪ":3429,"ê°ĢëĵĿ":3430,"ĠìĿ´ìŀĲì¹´ìķ¼":3431,"ëĤĺìĦľ":3432,"ĠìĻģìĭ±":3433,"ĠëĮĢìĦ±ìĿ´ëĦ¤":3434,"ĠìĦłíĺ¸":3435,"ì¶Ķê°Ģ":3436,"Ġíĺ¸ìłĲ":3437,"ì¤ĳìķĻ":3438,"ĠìĤ¼ê³Ħíĥķ":3439,"ĠìĿĮìĭĿìĿĦ":3440,"ĠëĿĦ":3441,"Ġëģ¼":3442,"ĠëŁ¬":3443,"ĠìŀĪëĦ¤ìļĶ":3444,"ĠìĦľìļ¸ëĮĢ":3445,"ë²ĦíĦ°":3446,"Ġìĺ¤ëĬĺëıĦ":3447,"Ġëĵ¤ìĸ´ê°ĢìĦľ":3448,"ĠìĿĮìĭĿìĿ´":3449,"ĠìķīìķĦ":3450,"ĠíĴįë¶Ģ":3451,"Ġê°Īë¹Ħì°ľ":3452,"Ġì¶©ë¶ĦíŀĪ":3453,"Ġê°Ģë³į":3454,"ìĿ´ìĬ¤":3455,"ëĵ¤ë¡ľ":3456,"ĠìķĪìĭ¬":3457,"Ġì£¼ë¬¸íķĺë©´":3458,"Ġìŀ¬ë°©ë¬¸":3459,"Ġìĭ¶ìĿĦ":3460,"ĠíŀĪ":3461,"Ġë§ĪëĿ¼ìĥ":3462,"íķĺìļ°ìĬ¤":3463,"Ġê°Ģìļ´ëį°":3464,"Ġë¨¹ìĿĮ":3465,"ì¹ĺê°Ģ":3466,"ĠĠĠĠĠĠĠ":3467,"ë¬´ì¹¨":3468,"Ġì§Ģìĥģ":3469,"ĠìłľíĴĪ":3470,"Ġë¶ĢëıĻìĤ°":3471,"ìłĦë¬¸":3472,"ĠíĻĶë©´":3473,"ĠëĳĲë¶Ģ":3474,"Ġìĺ¤ëĬĺìĿĺ":3475,"ĠìĹĲìĬ¤":3476,"Ġê²Įëĭ¤ê°Ģ":3477,"Ġì¶ľêµ¬ë¡ľ":3478,"ĠíİĺìĿ´ì§Ģ":3479,"ĠìĥĪë¡ľìļ´":3480,"ìĬ¤íħľ":3481,"Ġíģ¬ë¡ľíĶĮ":3482,"Ġìĸ´ë¬µ":3483,"ëŀ©":3484,"ìĦ¸ìļ©":3485,"íĮ¨":3486,"ĠìłķíĻķ":3487,"ĠëĮĢë¡ľ":3488,"ëĦ¤ì¦Ī":3489,"ì½ľ":3490,"ĠìĹ°ëĮĢ":3491,"ĠìŀĲë¦¬ë¥¼":3492,"ĠìķīìķĦìĦľ":3493,"ĠëĳĺëŁ¬":3494,"ì¤ĺìķ¼":3495,"ìĹ½":3496,"ĠìŀĪìľ¼ë©´":3497,"Ġê°Ģë³´":3498,"ĠìķĦìĤŃ":3499,"ë³´ìĮĪ":3500,"Ġê±·":3501,"ĠìĿ¼ìĿ´":3502,"ì°ľëĭŃ":3503,"ĠíĶĦëĿ¼ìĿ´":3504,"ìĽłìĸ´ìļĶ":3505,"ĠìłĦë¬¸ìłĲ":3506,"ëĤ´ë":3507,"Ġì¢ĭê²Į":3508,"Ġíķ´ë¬¼":3509,"ĠëĤĺë¦Ħ":3510,"Ġë§ĽìŀĪëĭ¤ê³ł":3511,"ĠëĮĢì¤ĳ":3512,"ìļ´ëıĻ":3513,"ëĭĺìĿĺ":3514,"Ġíı¬íĨł":3515,"ì¤¬":3516,"ĠëĵľìħĶ":3517,"ĠëĿ¼ëĸ¼":3518,"Ġëĭ¹ë©´":3519,"íĹ¤":3520,"Ġê¸°ë³¸ìľ¼ë¡ľ":3521,"Ġì°½ê°Ģ":3522,"ëĭµê²Į":3523,"ĠíķĻìĥĿ":3524,"ĠëĶĶìŀĲìĿ¸":3525,"Ġëįķë¶ĦìĹĲ":3526,"ĺìĸ´":3527,"łĮ":3528,"ìĿ´ì¦Ī":3529,"ê°ĢìļĶ":3530,"ë¦¬ìĹĲ":3531,"ëŀ¬":3532,"ìĺ¥":3533,"Ġì£¼ìĿĺ":3534,"ĠìĿ¸ìĩĦ":3535,"ìļ´ëĵľ":3536,"ëįĺëį°":3537,"ê·¸ëŀ¨":3538,"Ġì¦ī":3539,"Ġë¬¼ìĸ´":3540,"ê³³ìĹĲ":3541,"ĠìĤ¬ìĿ´ìĹĲ":3542,"Ġì°¸ê³łë¡ľ":3543,"Ġì¹´ëłĪ":3544,"ìĿ´ìĦľ":3545,"ì§Ģê²Į":3546,"ìĹŃìĹĲìĦľ":3547,"Ġìĸĺ":3548,"ĠìķĦì¹¨":3549,"Ġìĺ¤ë©´":3550,"ê³¼ëĬĶ":3551,"ìĤ¬ê°Ģ":3552,"ìĤ¬ë¥¼":3553,"ĠìĥĿê²¼":3554,"ĠìŀħìķĪ":3555,"ĠíĻĶìĿ´íĬ¸":3556,"ĠìĹ¬ê¸°ìĹĲ":3557,"êµĲíĨµ":3558,"ĠíĿĲ":3559,"Ġë³Ħë¹Ľ":3560,"Ġë¡ľìłľ":3561,"Ġë³´ëĤ´ê¸°":3562,"ê°Ģë©´":3563,"ë°Į":3564,"Ġë¶ķìĸ´ë¹µ":3565,"Ġê·¸ë¦¬":3566,"Ġëĭ¤íĸī":3567,"ĠìķĦëĬĶ":3568,"ì¹ĺëĬĶ":3569,"ĶëĦĪ":3570,"ê·ł":3571,"ĠíĮĮìĿ´":3572,"ĠìĹĨëĭ¤":3573,"ĠëĲĺê²Į":3574,"íĤ¬":3575,"ëĭ¨ìľ¼ë¡ľ":3576,"ĠëĿ¼ìĬ¤íĬ¸":3577,"íĸ¥ìĿ´":3578,"Ġë§īì°½":3579,"ĠíĶĦëłĪ":3580,"ĠìĿµíĺĢ":3581,"Ġì²´íģ¬":3582,"ë¬´ëĦĪ":3583,"ĠìĦľë¹ĦìĬ¤ë¡ľ":3584,"Ġë§ĺìĹĲ":3585,"íķľëĭ¤ê³ł":3586,"ĠìłĦìĦ¸":3587,"Ġìĭ¶ìĹĪëĬĶëį°":3588,"Ġë¶Īê°Ģ":3589,"Ġë§İìĿĢëį°":3590,"ĠìĿ´ëıĻíķĺê¸°":3591,"ì»¬":3592,"Ġì£½":3593,"ìķŀ":3594,"Ġë¨¹ìĹĪìĬµëĭĪëĭ¤":3595,"Ġë¨¹ìĹĪëįĺ":3596,"íĬĢ":3597,"ìĽĲìĿ´":3598,"Ġë°Ķëĭ¥":3599,"Ġê±´ë":3600,"Ġìĸĳê¼¬ì¹ĺ":3601,"Ġë¹Ħë²¼":3602,"Ġê³łê¸°ëĬĶ":3603,"Ġìŀ¬ë°Į":3604,"ĠëĦ£ê³ł":3605,"ĠìĨĮê°ľíķ´ëĵľ":3606,"Ġì¤ĳìļĶíķľ":3607,"Ġë²Įìį¨":3608,"Ľ°":3609,"Ġìŀĩ":3610,"ìĸ´ìķ¼":3611,"ĠìĿ½":3612,"ĠìĿĦ":3613,"ĠìķĻ":3614,"Ġê°Ģê¸°":3615,"ĠíķĺëĦ¤ìļĶ":3616,"Ķë£¸":3617,"Ġê¸´":3618,"ìŀĲê°Ģ":3619,"ĠëĲĺìĹĪ":3620,"Ġìŀħì£¼":3621,"Ġìŀħìŀ¥":3622,"Ġë°©ë¬¸íĸĪ":3623,"Ġëħ¸ìĦł":3624,"ĠìĤ¬ìŀ¥ëĭĺê»ĺìĦľ":3625,"ĠìĻĶìĸ´ìļĶ":3626,"Ġìĺ¬ëł¤ìĦľ":3627,"Ķë²łíģĲ":3628,"Ġëĥīìŀ¥ê³ł":3629,"Ġë©Ķëª¨":3630,"Ġêµ¬ìļ´":3631,"íĭ±":3632,"Ġê²½ìłĦì²ł":3633,"ĠëĤĺìĺ¤ê³ł":3634,"Ġëĵ¤ìĸ´ê°ĢëĬĶ":3635,"ĠëĤĺìĻĢìļĶ":3636,"ëľ¨":3637,"Ġë¹¨ê°Ħ":3638,"Ġëĭ¬ëĭ¬íķľ":3639,"Ġê»":3640,"ëĭ¤ë³´ë©´":3641,"Ġë³´ëĿ¼ë§¤":3642,"Ġì£¼íĥĿ":3643,"ì¶©":3644,"ĠìĿ¸íķ´":3645,"Ġì²¨":3646,"íĶ¼ë¶Ģ":3647,"íĶĦë¡ľ":3648,"Ġì»¤íĶĮ":3649,"Ġë§ŀê²Į":3650,"ìģľ":3651,"ĠëĤĺìĻĶëĭ¤":3652,"ĠìĹŃìĭľëĤĺ":3653,"Ġëĥīë©´":3654,"ëĭµëĭĪëĭ¹":3655,"ĠìĤ¼ìĤ¼ëĭ¹":3656,"ĠìĹ¬ìŀĲ":3657,"Ġì£¼ë¬¸íķĺê³ł":3658,"Ġíĥ±":3659,"ìĤ°ëıĻ":3660,"ĠíĸĪìĬµëĭĪëĭ¤":3661,"ê³łê¸°ì§ĳ":3662,"Ġë°Ľìľ¼":3663,"Ġë§¤ìŀ¥ìĿ´":3664,"ĠìŀĳìĹħ":3665,"íķ´ì£¼ìĦ¸ìļĶ":3666,"Ġëª¨ìĬµìĿĦ":3667,"ĠìĦ¼íĬ¸ëłĪë¹Į":3668,"ë²łìĿ´íĦ°":3669,"ìĿ´ë¥¼":3670,"ëŀŃ":3671,"Ġì£¼ìĦ¸ìļĶ":3672,"Ġìĭľê¹Įì§Ģ":3673,"ĠìĿ´ëĿ¼":3674,"ë£¹":3675,"ë¯¸ìĹĦ":3676,"Ġë¹Ī":3677,"ê¶ĮìĿ´":3678,"Ġëĭ¬ì½¤":3679,"ĠëĤłìĿ´":3680,"Ġë§ŀëĬĶ":3681,"ë°ķìĬ¤":3682,"ëł¸ìĸ´ìļĶ":3683,"ĠìĦ¼íĦ°":3684,"Ġë³´ëĤ´":3685,"ëıĦìĿ¸":3686,"ì£¼ìħĶìĦľ":3687,"ì¹ĺë£Į":3688,"Ġìĺ¤íŀĪ":3689,"ĠìĿ¸ìĥģ":3690,"Ġë°©íĥĪì¶ľ":3691,"Ġì£¼ë¬¸íĸĪëĭ¤":3692,"Ġì¢ĭìķĦíķ´ìĦľ":3693,"Ġëĵ±ìĿĦ":3694,"ĠíĸĪì§Ģë§Į":3695,"ëĥł":3696,"ĠìĻĦë£Į":3697,"Ġì¹ĺì¦Īê°Ģ":3698,"ĠìŃĪìĤ¼":3699,"ĠíŀĻ":3700,"ë´¤ìĸ´ìļĶ":3701,"ĠìĭĿìĤ¬ë¥¼":3702,"Ġíĺ¹ìĭľ":3703,"Ġì»¬ëŁ¬":3704,"Ġë§ĪìļĶëĦ¤ì¦Ī":3705,"ĠëĽ°":3706,"íķĺëįĶëĿ¼êµ¬ìļĶ":3707,"ë¦¬ëıĦ":3708,"ëĤĮ":3709,"ëĿ¼ìĿ¸":3710,"íķ´ì§Ģ":3711,"íĬ¹":3712,"Ġê·¸ë¦¼":3713,"íĬ¸ëĤ¨":3714,"ĠìĽĢ":3715,"ëª½":3716,"ĠìĨĮíĴĪ":3717,"ĠëĮĢíķ´":3718,"ĠìŀĺëĿ¼":3719,"ĠìĿ¼íĴĪ":3720,"Ġì°¾ê¸°":3721,"ĠìĤ´ìķĦ":3722,"Ġì«ĢëĵĿ":3723,"ìĬ¹ì²ł":3724,"ë´ĲìļĶ":3725,"Ġë¥¼":3726,"Ġìĺ¤íŀĪëł¤":3727,"Ġê°Ģìķ¼":3728,"ĠìĿ´ìģĺ":3729,"ĠìĪĺìĪł":3730,"ìħī":3731,"íĸĪì§Ģë§Į":3732,"ë§ĪíĨł":3733,"ĠëĤĺìĺ¤ëĬĶëį°":3734,"ĠíķĺëĤĺìĶ©":3735,"Ġë°¥ìĿĦ":3736,"ê°ĻìķĦìļĶ":3737,"Ġê³¨ëĿ¼":3738,"ëģĦ":3739,"Ġìĸ´ìļ¸ë¦¬ëĬĶ":3740,"ë¬´ëĦĪë¬´":3741,"Ġë»":3742,"íķĺìĭľê³ł":3743,"ì§ĢìĹĲ":3744,"ëĤ©":3745,"Ġë§Ľë³¼":3746,"Ġìĸ¹":3747,"Ġê³łìĭľ":3748,"ĠìķĪìª½":3749,"ĠìĿ¸ìłķ":3750,"Ġë°ĶëŀįëĭĪëĭ¤":3751,"Ġê±°ìĭ¤":3752,"Ġê±°ê¸°ìĹĲ":3753,"Ġë¨¹ìĸ´ë³´ê³ł":3754,"Ġëħ¸ê³ł":3755,"ì½ĶìĬ¤":3756,"Ġê²Įìĭľ":3757,"Ġë¸ĮëŁ°ì¹ĺ":3758,"Ġê¿Ķ":3759,"¥ì§ĳ":3760,"´íĳ¸":3761,"µíħĮìĿ¼":3762,"Ġëŀ":3763,"Ġë·°":3764,"ëĭ¤ë¦¬":3765,"Ġë§Ŀ":3766,"íķĺëĭ¤ëĬĶ":3767,"ĠìķĶ":3768,"Ġê°Ģê³ł":3769,"Ġë§¤ì£¼":3770,"ëįĶëĿ¼ëıĦ":3771,"Ġê´Ģìĭ¬":3772,"Ġì§ģì§Ħ":3773,"ìĺģì£¼ì°¨":3774,"ê¶ģ":3775,"ìĹĨëĬĶ":3776,"Ġë¸ĮëĿ¼":3777,"ĠìĿ¸íħĮë¦¬ìĸ´ê°Ģ":3778,"Ġì±ĦìĨĮ":3779,"ĠíĬ¸ëłĪìĿ´":3780,"Ġê¹Įì§Ģ":3781,"íĪ¼":3782,"Ġì°Į":3783,"ìŀĪê²Į":3784,"ìĪĺëıĦ":3785,"Ġë¶ĦìĿ´":3786,"Ġë©ĭ":3787,"ĠëĮĢíĺķ":3788,"Ġêµ¬ë¹Ħ":3789,"Ġë¹Ħíķ´":3790,"ĠìŀĪìĹĪëĬĶëį°ìļĶ":3791,"Ġë¯¸ëĭĪ":3792,"ì£½":3793,"ĠëĶ°ëĿ¼ìĦľ":3794,"ĠíĮĮìĿ¸":3795,"Ġê°Ģê²©ìĹĲ":3796,"ëķĮë¬¸ìĹĲ":3797,"ĠìĨĮìĬ¤ìĹĲ":3798,"ëł¥ìĿ´":3799,"ìĤŃë©´":3800,"Ġë²łíĬ¸ëĤ¨":3801,"ĠíĨłíķĳ":3802,"ëĳĳ":3803,"Ġë°ķìĬ¹ì²ł":3804,"ĠëļĿ":3805,"Ġìĭ±ìĭ±":3806,"Ġì¹´ì¸łìĹħ":3807,"ìŁģ":3808,"ë¡Ģ":3809,"Ġê·¹":3810,"Ġê·¸ëķĮ":3811,"ì¹ĺë¥¼":3812,"Ġë§ĽìŀĪìĹĪ":3813,"Ġë¶ĢíĦ°":3814,"ĠìĺĪìłĦìĹĲ":3815,"ëĶĶë£¸":3816,"Ġëĭ¨ê³¨":3817,"Ġë°°ê³ł":3818,"ë¸ĮëŀĢ":3819,"ëĶĶìłĢíĬ¸":3820,"íļĮìĭĿ":3821,"ĠëĦĺëĤĺ":3822,"ĠìĽĶìĦ¸":3823,"Ġìķ½ìĨį":3824,"Ġì²´íĹĺ":3825,"ì«Ħ":3826,"ìĸ´ë¥¼":3827,"ë§İ":3828,"´ëł¤":3829,"Ġìĥ´íĳ¸":3830,"Ġíķĺê²Į":3831,"ìŀĪëĬĶëį°":3832,"ëª»":3833,"Ġíĺľ":3834,"Ġì§ĢìĿ¸":3835,"Ġìłľëª©":3836,"ë¯¸ê°Ģ":3837,"íķłëķĮ":3838,"Ġì¡°ê°ľ":3839,"Ġìļ°ìĪĺ":3840,"ì¼ĵ":3841,"Ġìĭľê°ĦìĹĲ":3842,"Ġë°ĽëĬĶ":3843,"Ġëĭ¬ëĿ¼":3844,"Ġíģ´ë":3845,"ĠíĿ¥":3846,"Ġê¶Į":3847,"Ġê²°ìłķ":3848,"ë°°ì¶Ķ":3849,"ĠìķĮëł¤ëĵľ":3850,"Ġê°ĲìĤ¬íķ©ëĭĪëĭ¤":3851,"Ġë°ĶëĢ":3852,"ĠíĶĦë¦¬ë¯¸ìĹĦ":3853,"íķĺìħĶìĦľ":3854,"ëį¸":3855,"ëĮĢìĹĲ":3856,"ê±°ìĹĲìļĶ":3857,"ìĪĺë¡Ŀ":3858,"Ġê°ĻìķĦ":3859,"ĠìĻł":3860,"ĠìŀĪìĹĪëįĺ":3861,"ĠìŀĪëĭ¤ë©´":3862,"ĠëĬĲê»´ì§ĢëĬĶ":3863,"Ġê°ĳìŀĲê¸°":3864,"ĠìĬ¤íĦ°ëĶĶ":3865,"ë¸ĮëŀĢìĬ¤":3866,"ê³łë¦¬":3867,"ë¦¬ìĸ¸":3868,"Ġë³´ìĭľë©´":3869,"Ġíķľìª½":3870,"Ġë§Īìĭľê³ł":3871,"ĠìĻĢìĿ´":3872,"ìĦ±ìĿĦ":3873,"ĠìĹ¬ê¸´":3874,"ëįĶëĿ¼êµ¬":3875,"ë§ĲìĿ´":3876,"Ġì¸µìĿĢ":3877,"íĻĶë¡ľ":3878,"ĠëĳĲíĪ¼":3879,"ĠíĮĮëĬĶ":3880,"ìĻĶìĸ´ìļĶ":3881,"Ġë°ľìĥĿ":3882,"Ġë©Ķëī´íĮĲìĿĦ":3883,"Ġíı¬ìŀ¥ë§Īì°¨":3884,"ìĽłëįĺ":3885,"Ġì¹¼ì¹¼":3886,"ĠëĤĺìĺµëĭĪëĭ¤":3887,"Ġê°Ģë³įê²Į":3888,"ë¡¤":3889,"Ġìł¤":3890,"Ġì§§":3891,"Ġë¶ģ":3892,"ĠìĤ¬ë¬´ìĭ¤":3893,"ĠìĭľíĤ¨":3894,"Ġíķľìļ°":3895,"ĠìĽĲìŀ¥ëĭĺ":3896,"Ġì§Ħíķľ":3897,"Ġì§Ħë£Į":3898,"ĠìĦłë¬¼":3899,"ëłĪíİĺ":3900,"ë¹Ļ":3901,"Ġìĭ¶ëĭ¤":3902,"Ġì°¨íĻį":3903,"ìľ¼ëĭĪê¹Į":3904,"ĠëĦ£ìĸ´ìĦľ":3905,"ìĬ¤íĬ¸ë¦¼":3906,"Ġê·ĢìĹ½":3907,"ĠìķĦëĭĲ":3908,"ì¡Įìĸ´ìļĶ":3909,"ĠëķĲ":3910,"Ġê°Ħëĭ¨íķĺê²Į":3911,"ĠìĭłìĦłíķľ":3912,"Ġê³ģëĵ¤ìĹ¬":3913,"ìĦľìļ¸":3914,"ĠìĭľìĬ¤íħľ":3915,"ë¶Ħëĵ¤ìĿ´":3916,"ĠìĹĨìĬµëĭĪëĭ¤":3917,"Ġê³³ìĿ´ëĿ¼":3918,"Ġë¯¸ëıĦìĿ¸":3919,"ìĨĶ":3920,"ĠìĪłìĿĦ":3921,"Ġëĵľë¦¬":3922,"ĠíĬ¹ìĿ´":3923,"ĠìĽĶìļĶìĿ¼":3924,"Ġì§Ģíķĺì¸µ":3925,"ĠëĶĶìłĢíĬ¸ë¬¸":3926,"Ġê¸Īìķ¡":3927,"Ġëı¼ì§Ģê³łê¸°":3928,"Ġê¾¸ì¤ĢíŀĪ":3929,"íķĺëĦ¤ìļĶ":3930,"ê¸°ë¦Ħ":3931,"íķľê²Į":3932,"ë©´ë":3933,"ëł¹":3934,"Ġë§¤ë§¤":3935,"ĠìľĦìĥĿ":3936,"ĠëĦĪë¬´ëĦĪë¬´":3937,"Ġìĥģíģ¼":3938,"ĠëıĦìłĦ":3939,"Ġëħ¼":3940,"Ġë²Īì§¸":3941,"Ġë°°ë¶Ī":3942,"ĠëĤ¨ìĿĢ":3943,"Ġìŀ¥ìłĲ":3944,"ĠëģĮ":3945,"Ġëĥł":3946,"Ġê½¤ëĤĺ":3947,"ĠìĿĢê·¼":3948,"ìŀħêµ¬ìĹŃ":3949,"ĠëĤłìĶ¨ê°Ģ":3950,"ĠíĨ¡íĨ¡":3951,"ĠëĮĢì¤ĳêµĲíĨµ":3952,"ëĩ":3953,"íķĺê±°ëĤĺ":3954,"ëıĦë¥¼":3955,"ëį©":3956,"ëį®ë°¥":3957,"ĠëĤĻ":3958,"Ġë¨¹ìŀĲ":3959,"ëłī":3960,"Ġì£¼ìĭł":3961,"Ġì£¼ìħĶìĦľ":3962,"ĠëĤĺìĺ¬":3963,"Ġìĭłë¦¼ìĹŃìĪłì§ĳ":3964,"Ġìĭłì´ĮìĹŃìĹĲ":3965,"Ġìłķë¦¬":3966,"íŀĮ":3967,"Ġì§ĢìĨį":3968,"ìķĺëįĺ":3969,"ìłķìĭĿ":3970,"Ġë¶Ģë¶ĦìĿ´":3971,"ĠìĺĪìĥģ":3972,"íĻĶë¥¼":3973,"ëĶ±":3974,"Ġì°įìĸ´ìĦľ":3975,"ĠëĿ¼ë©ĺ":3976,"ĠëĶĶì§ĢíĦ¸":3977,"ì¹´ìĺ¤":3978,"ĠëĤĺìĺ¤ê¸°":3979,"ĠëĬĲëĤĮìĿĺ":3980,"Ġì¹´íħĮ":3981,"Ġì²ŃìĨĮ":3982,"Ġíĳ¸ì§Ĳíķĺê²Į":3983,"ĠìķħëıĻ":3984,"Ġì°ľëĭŃ":3985,"ë°ĸìĹĲ":3986,"ë¼Ī":3987,"íķĺìĿ´":3988,"íķĺì£ł":3989,"ë¦¬ìķĦ":3990,"ĠìŀĪëįĶëĿ¼ê³łìļĶ":3991,"ìĬ¤íĪ¬":3992,"ë§ĮìĿĺ":3993,"Ġìļ¸":3994,"ìĿĮìĭĿ":3995,"Ġê¸°ëĬ¥":3996,"ĠìĥĿë§¥ì£¼":3997,"Ġìĥģì¶Ķ":3998,"Ġë¯¸ëĤĺ":3999,"Ġì¹´íİĺë¥¼":4000,"íĺ¸ìłĲ":4001,"ë¶Īê³łê¸°":4002,"Ġë¶Ħëĵ¤ìĹĲê²Į":4003,"Ġëĭ¹ìĹ°íŀĪ":4004,"Ġë¿Ĳë§Į":4005,"Ġê³¼ìĿ¼":4006,"Ġíĸ¥ìĿ´":4007,"Ġì£¼ë³ĢìĹĲ":4008,"ĠëĨĵìĹ¬":4009,"Ġë§Īì§Ģë§īìľ¼ë¡ľ":4010,"ì¥¬ìĸ¼":4011,"Ġìľ¼ë¡ľ":4012,"ĠìĹĺë¦¬":4013,"ĠíĻįíķ©íĥķ":4014,"Ġì¹´íħĮê³łë¦¬":4015,"ëĤ¸":4016,"ë¥ł":4017,"ì£¼ë©´":4018,"ì£¼ìĭľê³ł":4019,"ì§ĳëĭĪëĭ¤":4020,"Ġê·¸ë£¹":4021,"Ġìĭłë¦¼ìĹŃìĹĲ":4022,"íĸĪëĭµëĭĪëĭ¤":4023,"ë¶Ħëĵ¤":4024,"ĠìĬĪ":4025,"Ġê±°ìļ¸":4026,"ĠìĬ¤ìĭľ":4027,"Ġì£¼ë¬¸íĸĪìĬµëĭĪëĭ¤":4028,"Ġê³Ħìĭł":4029,"Ġê³Ħíļį":4030,"ìĺĢëįĺ":4031,"ĠëĤ¨íİ¸":4032,"Ġì¢ħë¥ĺëıĦ":4033,"ĠìĨĲëĭĺëĵ¤ìĿ´":4034,"ĠìłĦì²´ê¸Ģ":4035,"ĠìĦ¤ì¹ĺëĲĺìĸ´":4036,"íĢĺìĸ´":4037,"ĠìĦłìĥĿëĭĺ":4038,"ëłģíĥķ":4039,"Ġìµľìĥģëĭ¨ìľ¼ë¡ľ":4040,"ì¤ĳìķĻìĦł":4041,"Ġëħ¸ê³łìĤ°ëıĻ":4042,"Ġì°¨íĻįë£¸":4043,"ĠìĮĢ":4044,"ìľ¼ëĤĺ":4045,"Ġì¹µíħĮìĿ¼":4046,"Ġë³´ëĭĪê¹Į":4047,"Ġë§Īìĭ¤":4048,"ìĭ¤ìĿ´":4049,"ĠìĹ¬íĸī":4050,"ĠíİĮ":4051,"Ġë¹Ħì¥¬ìĸ¼":4052,"Ġì¢ĭìķĦíķĺìĭľëĬĶ":4053,"ë´Ħ":4054,"íķĺê¸°ìĹĲ":4055,"ĠíļĮìĤ¬":4056,"Ġëĭ¹ìĿ¼":4057,"ĠëıĪì¹´ì¸ł":4058,"ìĥ¤ë¸Įìĥ¤ë¸Į":4059,"ìĽĢìĿĦ":4060,"ĠëĶĶìŀĲìĿ´ëĦĪ":4061,"ìº":4062,"Ġì¢ģ":4063,"ëłĢ":4064,"Ġëĭ¤ë¥´":4065,"ë²Į":4066,"ĠìķĪìłĦ":4067,"ĠìķĬëıĦë¡Ŀ":4068,"ë¹Ī":4069,"Ġìĸ´ìļ°":4070,"ê·¸ëłĪìĿ´":4071,"Ġì¶Ķì²ľíķ©ëĭĪëĭ¤":4072,"Ġì²ĺìĿĮìĹĲ":4073,"ĠëĬĲëĤĮìĿĦ":4074,"Ġë¹µì§ĳ":4075,"ĠëĨĴìķĦ":4076,"ĠíĻĺìŀĲ":4077,"ĠëĮĢíķĻìĥĿ":4078,"Ġì²łíĮĲ":4079,"ë»Ĳ":4080,"ìĬ¤íĪ¬ëĶĶìĺ¤":4081,"ìļĶë¦¬":4082,"ëį°ìĿ´":4083,"ĠìĤ¶":4084,"ĠìĿ´íĻĶ":4085,"ĠìĿ´ëª¨":4086,"íħĮìĿ´ë¸Ķ":4087,"ë§ĪëĿ¼":4088,"Ġê¹Ķ":4089,"ĠìĿ¼ì°į":4090,"Ġë¬´ìĬ¨":4091,"ĠíĽĦìĹĲ":4092,"ĠëıĻìĥĿ":4093,"íĶĮëŀĢ":4094,"ĠìłģíĺĢ":4095,"Ġë²Ħê±°ë¦¬":4096,"ĠëĦ£ìĸ´ì£¼":4097,"Ġê°ĶëĬĶëį°":4098,"Ġë¨¹ìľ¼ë©´ìĦľ":4099,"Ġê³łìĨĮíķĺê³ł":4100,"ë´Ĳìķ¼":4101,"Ġì¹ľìłĪíķĺê²Į":4102,"Ġì¶Ķì²ľëĵľë¦½ëĭĪëĭ¤":4103,"Ġë³ĳìĽĲ":4104,"ìŃĪ":4105,"ĠìŀĳìĦ±ìĿ¼":4106,"ëĥīë©´":4107,"ĠìĻ¼ìª½":4108,"ìŀĺ":4109,"Ġìĭłì²Ń":4110,"íķľíħĮ":4111,"Ġì£¼ë¥ĺ":4112,"Ġì¢ĭê²ł":4113,"ìĪĺìľ¡":4114,"Ġë¶Ħë¦¬":4115,"ĠìŀĲìľł":4116,"Ġë¶Ģíĥģ":4117,"Ġìĥģê¶Į":4118,"ĠìĿĮìķħ":4119,"ê³µìĽĲ":4120,"Ġê°Ĳì¹ł":4121,"ĠëĲĲ":4122,"ĠíŀĲ":4123,"ë²łë¦¬":4124,"ĠìĪĻì£¼":4125,"ĠìŀĦíĶĮëŀĢ":4126,"Ġìłĳê·¼ìĦ±ìĿ´":4127,"į½":4128,"ĠëłĮ":4129,"ê³±":4130,"ĠìĤ¬ëĿ¼":4131,"ĠëĤĺëıĦ":4132,"Ġë¶ĦìłķëıĦ":4133,"ëįĶìĬ¤íĥĢ":4134,"ĠëĮĢìĭł":4135,"Ġì¡°ë¦¬":4136,"Ġíı¬ìĿ¸":4137,"ĠìļĶê±°":4138,"ĠìĦ¸íĥģ":4139,"Ġë¶ĦìľĦê¸°ëıĦ":4140,"Ġì¹´ì¹´ìĺ¤":4141,"Ġê²½ìļ°ê°Ģ":4142,"ĠìĽ¨ìĿ´íĮħìĿ´":4143,"ĠìĨįëĪĪìį¹íİĮ":4144,"Į¤":4145,"ë¦İ":4146,"ë¡ľìļ´":4147,"ê°Ģê¸¸":4148,"Ġêµ³":4149,"ĠìĿ´ëķĮ":4150,"Ġë°ĶëĿ¼":4151,"ĠìĥĿíģ¬ë¦¼":4152,"ĠëĬĶ":4153,"ĠëķĮëıĦ":4154,"ĠìĹ°ë§Ĳ":4155,"Ġëĵ±ë¡Ŀ":4156,"ĠëıĻìĭľìĹĲ":4157,"ĠëĵľëĬĶ":4158,"Ġê±¸ìĸ´ìĦľ":4159,"ĠëŃĺ":4160,"Ġì¦Ĳê²¨":4161,"ĠíĭĢ":4162,"Ġì½ĺì¹ĺì¦Ī":4163,"Ħ¤ìļĶ":4164,"ĠíĸĦë²Ħê±°":4165,"Ġêº":4166,"ìĿ´ëĦ¤ìļĶ":4167,"ë¦¬ë·°":4168,"ë¥´ë©´":4169,"ì°Ķ":4170,"ĠìķĦìĭľ":4171,"Ġíķ¸":4172,"ĠìŀĲìĭł":4173,"ĠìŀĲê¾¸":4174,"ë§ĪíĬ¸":4175,"ìĥģìĿĦ":4176,"Ġê¹ľ":4177,"íĨ¤":4178,"Ġì¶Ķìļ´":4179,"Ġê³³ìĿ´ìĹĲìļĶ":4180,"íĶĦëłĪ":4181,"Ġë¨¹ìĸ´ë³¸":4182,"êµĲìłķ":4183,"Ġëĭ¹ê³¡":4184,"Ġì¹ľêµ¬ëŀĳ":4185,"ĠíĨłë§ĪíĨł":4186,"ì³¤":4187,"Ġë´īì²ľ":4188,"Ġíĥľê·¸":4189,"ĠëĤĺëĪł":4190,"ìĿ´ìĹĪëĭ¤":4191,"Ġíģ¼":4192,"ĠìĪĺì§Ģ":4193,"ĠìķĦê¸°":4194,"Ġë³´ëĵľ":4195,"ìĪĺìļĶ":4196,"ëŁ¬ìĦľ":4197,"Ġë§ĽìŀĪìĹĪëįĺ":4198,"Ġëª¨ë°ľ":4199,"Ġì§Ħìĭ¬":4200,"ì²ľíŀĪ":4201,"ĠíĸĪëįĺ":4202,"ĠëĤ¨ê²¨":4203,"ê°ĲìĿĦ":4204,"ĠëĪĮ":4205,"ĠíĮĮíĭ°":4206,"Ġì°¨ëıĮ":4207,"ê¹Ģë°¥":4208,"ĠíħĮìĿ´ë¸ĶìĹĲ":4209,"Ġì¹´ìļ´":4210,"Ġì²ľì²ľíŀĪ":4211,"ĠìłĲìĭ¬ìĭľê°Ħ":4212,"ĠëĨĢëŀĲ":4213,"ĠíħĮëĿ¼ìĬ¤":4214,"Ġíĳ¸ì§Ĳíķľ":4215,"Ġêµ¬ìĦ±ëĲĺìĸ´":4216,"Ġê±´ê°ķíķľ":4217,"Ġë¸ĮëłĪìĿ´íģ¬íĥĢìŀĦ":4218,"ë°Ķë¡ľìļ°":4219,"ª¼":4220,"Ġíķĺìĭ¤":4221,"ĠìķĦíĺĦ":4222,"ĠëĤĺê°Ģ":4223,"Ġê³łê³ł":4224,"Ġë³´ìĦ¸ìļĶ":4225,"ìĪĺë¥¼":4226,"Ġê°Ļìķĺìĸ´ìļĶ":4227,"ìĪ¯":4228,"Ġê±°íķ´":4229,"Ġë²Īíĺ¸":4230,"Ġì°¾ìľ¼ìĭł":4231,"ëĭ¬ì½¤":4232,"ìłĪìĿ´":4233,"Ġë¶ĦìľĦê¸°ë¥¼":4234,"ĠíĬ¹ì§ķ":4235,"ĠìĹ¬ëŁ¬ê°Ģì§Ģ":4236,"ĠëĬĲê»´ì§Ģ":4237,"Ġê²°ìłľ":4238,"ĠìĥĪìļ°íĬĢê¹Ģ":4239,"Ġì¶Ķì²ľëĵľëł¤ìļĶ":4240,"Ġëļľ":4241,"ë¬´ì§Ģê²Į":4242,"Ġìĺ¤ë¥¸ìª½":4243,"ĠíĶĦëĿ¼ìĿ´ë¹Ĺ":4244,"ĠìĿ´íĻĶìĹ¬":4245,"ĠìĮĵ":4246,"ĠëŁ":4247,"ê°Ģê²©":4248,"ì§Ģìĸ´":4249,"ìĬ¤ë¥¼":4250,"Ġìĭłë¦¼ìĹŃì¹ĺê³¼":4251,"ĠìķĪëĲĺ":4252,"Ġê¸°ì¡´":4253,"Ġê±°ì£¼":4254,"ĠëıĦìĽĢìĿ´":4255,"ĠìĨ¡":4256,"ĠíħĲ":4257,"ĠëĿ¼ëĬĶ":4258,"ìľłìĿĺ":4259,"Ġì´ĪìĹŃìĦ¸ê¶Į":4260,"Ġìķ¼ë¬´ì§Ģê²Į":4261,"ë§īêµŃìĪĺ":4262,"Ġë¨¸ë¦¬ë¥¼":4263,"Ġìĸ¸ëĭĪ":4264,"ĠíĹĪë¦¬":4265,"Ġìłģëĭ¹íķľ":4266,"Ġíĺķíĥľ":4267,"ĠìŀĲì²´ê°Ģ":4268,"Ġì¹´ìļ´íĦ°":4269,"ìĹ´ê¸°":4270,"ëĬĳ":4271,"Ġìķķ":4272,"ê¸°ê³ł":4273,"Ġê³łëł¤":4274,"ĠëĮĢë¹Ħ":4275,"Ġë§ĮëĵľëĬĶ":4276,"ĠìĬ¤íİĺ":4277,"ĠìĬ¤íĬľëĶĶìĺ¤":4278,"Ġìŀħì§Ģ":4279,"Ġê³³ìľ¼ë¡ľ":4280,"ĠìĹ°ìĬµ":4281,"Ġì¢ĭìķĦíķĺëĬĶëį°":4282,"Ġìĭ¶ìĸ´":4283,"ë´ħëĭĪëĭ¤":4284,"Ġê¹Ģë°¥":4285,"ëĵ¯ìĿ´":4286,"ĠëłĪëª¬":4287,"Ġíģ¬ë¦¼ì¹ĺì¦Ī":4288,"ĠíĤ¹":4289,"Ġë²łìĿ´ì»¨":4290,"íķ´ë´¤":4291,"ĠìĤ°ì±ħ":4292,"íģ°ê°Īë¹Ħ":4293,"ĠíļĮìĽĲëĭĺëĵ¤":4294,"ëģĪíķľ":4295,"ĠëªħëıĻì¹¼êµŃìĪĺ":4296,"Ġê»į":4297,"Ġì°¾ìľ¼ìĭłëĭ¤ë©´":4298,"¯ëį°":4299,"ìĿ´ìĹĪìĬµëĭĪëĭ¤":4300,"Ġê²¸":4301,"ĠìĿ¸ê¸°ê°Ģ":4302,"ìĨĮë°Ķ":4303,"ĠëĲĺìĹĪìĬµëĭĪëĭ¤":4304,"ĠìĺĪë»Ĳ":4305,"ĠìŀħìĹĲ":4306,"Ġê³Ħìĭľ":4307,"Ġë°©ë¬¸íķ´":4308,"Ġìłģìļ©":4309,"ĠíĺĦìŀ¥":4310,"Ġì¹ľêµ¬ìĻĢ":4311,"Ġì§ľìŀ¥":4312,"Ġë³Ģê²½":4313,"ĠíķĻêµĲ":4314,"Ġìį°":4315,"ĠìĪĺìĹħìĿĦ":4316,"Ġëª°ëŀĲ":4317,"ĠìıĻ":4318,"·Ķ":4319,"¹ê¶Ī":4320,"ìĿ´ìĺĪìļĶ":4321,"ê¸°ìĹĲëıĦ":4322,"Ġë³´ë":4323,"Ġì£¼ë¡ľ":4324,"ĠìķĦëĬĳ":4325,"Ġíķ´ë³":4326,"ĠëĤĺìĿĺ":4327,"Ġëıĭ":4328,"ëŁ¬ìĬ¤":4329,"ĠëĮĢíķ´ìĦľ":4330,"ĠìķĬëĤĺìļĶ":4331,"ĠíĮ¥":4332,"ĠíĻ©":4333,"ë¬¼ìĿ´":4334,"Ġê³łê¸°ìĻĢ":4335,"ë¨¹ìĸ´":4336,"ìŀĦëĮĢ":4337,"ĠìĹ¬ê¸°ê°Ģ":4338,"ĠíĨµíģ°ê°Īë¹Ħ":4339,"Ġì¢ħì¢ħ":4340,"Ġì¹ľêµ¬ëĵ¤ê³¼":4341,"ëł¥ìĿĦ":4342,"Ġë°ľëĿ¼":4343,"Ġë¹łì§Ī":4344,"ĠìĪľëĮĢíĥĢìļ´":4345,"Ġíķ©ë¦¬":4346,"ĠíĥĢìŀĦìĬ¤íĬ¸ë¦¼":4347,"Ġì°¾ìľ¼ìĭľëĬĶ":4348,"ëĭ¤ë¥¸":4349,"Ġê°ĢìĿĦ":4350,"ìĿ¸ëĭ¤":4351,"ìĿ¸ëĵľ":4352,"ìĤ¬íķŃ":4353,"ëĦ·":4354,"ĠíĮ¬":4355,"ìĦłìĿĦ":4356,"Ġë¬´ë¦İ":4357,"Ġë°©ë¬¸íķ´ìĦľ":4358,"Ġê°ĲëıĻ":4359,"Ġìĸ¼êµ´":4360,"ĠìĹĲìĸ´":4361,"Ġë°±ê¹Ģì¹ĺ":4362,"ì»·":4363,"ĠëĤĺìĺ¨ëĭ¤":4364,"ĠíĪ¬ë£¸":4365,"ĠíĶĮëłĪìĿ´":4366,"ĠíĺķìĦ±":4367,"Ġì¾Įìłģíķľ":4368,"ĠìķĻë²ĦíĦ°":4369,"ìĺ·":4370,"ìŀ¥êµŃ":4371,"ì²´ë":4372,"Ġë§İìĬµëĭĪëĭ¤":4373,"íķłìĪĺ":4374,"Ġìĸĳë°°ì¶Ķ":4375,"Ġëĵ¤ìĸ´ê°Ī":4376,"Ġë¹Ħìĭ¸":4377,"ĠëıĦë¡ľ":4378,"íĻĢ":4379,"ĠìļĶê¸°":4380,"Ġì°¾ê³ł":4381,"ĠëĳĲë²Īì§¸":4382,"ĠìľłëıĻ":4383,"ĠëĤ¨ìķĦ":4384,"ĠìĨĲìĿ´":4385,"ĠíķĺëĤĺíķĺëĤĺ":4386,"Ġë´Ħ":4387,"Ġìħĭ":4388,"Ġìŀ¡ê³ł":4389,"Ġìŀ¡ìķĦì£¼":4390,"ëĨĢ":4391,"ĠíļĮìĽĲê¶Į":4392,"Ġíı¬ìĬ¤íĮħìĿĢ":4393,"Ġê²½ìĿĺì¤ĳìķĻìĦł":4394,"Ġìĺ¤ëŀĺëĲľ":4395,"ĠìĿ´ìľłê°Ģ":4396,"Ġëª©ë¡ĿìĹ´ê¸°":4397,"ĠìĤ´íİ´ë³´":4398,"²ê¸¸":4399,"Ġê°ĵ":4400,"ìĭľíĤ¤":4401,"ì£¼ìĭľëĬĶ":4402,"Ġê·¸ë§Įíģ¼":4403,"Ġëĭ¤ê°Ģ":4404,"Ġì¢ĭëįĶëĿ¼ê³łìļĶ":4405,"Ġì¹Ń":4406,"Ġìļķ":4407,"Ġë§ĽìŀĪìĿĦ":4408,"íŀĪëĬĶ":4409,"ĠìĬ¤ì½ĺ":4410,"ĠìĦ¸ìĥģ":4411,"ĠìĺģíĻĶ":4412,"ìħ¨ìĬµëĭĪëĭ¤":4413,"ĠëĿ¼ê³ł":4414,"ĠíļĮìłĦ":4415,"Ġê°Ģê²©ëĮĢ":4416,"ĠìłģìłĪ":4417,"ĠíħĮìĿ´ë¸ĶëıĦ":4418,"ĠëĤłì¹ĺ":4419,"Ġìķ¼ìĻ¸":4420,"ĠëĤ´ë¶ĢìĹĲ":4421,"ĠìĨĮìĬ¤ëıĦ":4422,"Ġëĭ¤ìĿĮìĹĲëĬĶ":4423,"Ġë³´ìĿ´ê³ł":4424,"ëĵ¯íķľ":4425,"ëł¸ëĭ¤":4426,"Ġë§µì°Ķ":4427,"íľ´ë¬´":4428,"Ġë§ĲìĶĢëĵľ":4429,"Ġíĺ¹ìĿĢ":4430,"Ġê³µê°Ĳíķľ":4431,"ĠíŀĲë§ģ":4432,"Ġì¸":4433,"Ġëī´":4434,"ìĿ´ìĹĪëĬĶëį°":4435,"Ġìĭłë°ľ":4436,"ë¥Ń":4437,"ì§ĳìĿĦ":4438,"ëĵ¤ìĸ´":4439,"Ġìĸµ":4440,"Ġíķĺëĭ¤ê°Ģ":4441,"íĬ¸ëĬĶ":4442,"Ġíķľëģ¼":4443,"ĠìłĦë¶Ģ":4444,"ĠìķĬì§Ģë§Į":4445,"ĠëķĮë§Īëĭ¤":4446,"Ġëĺĳ":4447,"ĠìłĲìłĲ":4448,"ĠíķĺëĤĺëıĦ":4449,"ĠëĤ´ë¶Ģê°Ģ":4450,"Ġíĳ¹":4451,"Ġë¡¤":4452,"Ġê°ģê°ģ":4453,"Ġëª¨ìĬµìŀħëĭĪëĭ¤":4454,"ĠìĿ´ë²ĪìĹĲëĬĶ":4455,"Ġì»¨ìħī":4456,"Ġë§ĪìĤ¬ì§Ģ":4457,"Ġíı¬ëıĦëª°":4458,"Ġíĥ±ê¸Ģ":4459,"ĠìĽĢì§ģ":4460,"Ġê¿Ķë°Ķë¡ľìļ°":4461,"Ġíķ¸ëĵľ":4462,"Ġê±°íķ´ì°¸ì¹ĺ":4463,"·Ķíİĺ":4464,"īĲ":4465,"íķĺëįĶëĿ¼ê³łìļĶ":4466,"ìĭ¹":4467,"ì§Ģë©´":4468,"ĠìŀĪì£ł":4469,"ĠìĹī":4470,"ë¥´ë¥":4471,"Ġì§ł":4472,"ĠìĿ´ìĽĥ":4473,"Ġì£¼ìĿ¸":4474,"ìĿĮìĿ´":4475,"ìħľ":4476,"Ġë¬µ":4477,"ĠìķĬìķĦìļĶ":4478,"ê¹Įì§ĢëĬĶ":4479,"Ġê³³ìĹĲìĦľ":4480,"ĠìĹŃìĤ¼ìłĲ":4481,"Ġíķ´ìĤ°":4482,"ĠëĤ¨ëħĢ":4483,"Ġê²½íĹĺ":4484,"ĠëĭŃê³łê¸°":4485,"ĠìĪľê°Ħ":4486,"ĠìķĪì£¼ê°Ģ":4487,"Ġì°¾ìķĦê°Ģ":4488,"ê±¸ë¡ľ":4489,"Ġë¸Įëŀľëĵľ":4490,"Ġìĭ¬ì§Ģìĸ´":4491,"Ġëķħ":4492,"Ġì¤ĳê°ĦìĹĲ":4493,"Ġì¹ĺë£Įë¥¼":4494,"Ġê³µê¸°ë°¥":4495,"ĠíĽĮë¥Ń":4496,"Ġìĸ´ìļ°ëŁ¬":4497,"íķľì§Ģ":4498,"ĠìĪĺëĤ©":4499,"Ġìĺ¤ìĭľëĬĶ":4500,"ë²Ķë¡ľ":4501,"ĠìķĪìľ¼ë¡ľ":4502,"Ġë¶ĦìĭĿ":4503,"ìĺ¤ë©´":4504,"ĠìłĦíĨµ":4505,"ê»į":4506,"ĠìĬ¤íĶĦ":4507,"Ġê³µìĺģì£¼ì°¨":4508,"ë¬¼ìĿĦ":4509,"Ġê·¼ì²ĺìĹĲìĦľ":4510,"Ġë°±ë²Ķë¡ľ":4511,"ê³¨ëª©":4512,"Ġë§Įì¡±ìĬ¤ëŁ¬":4513,"ê´ĳê³ł":4514,"ëı¼ì§Ģ":4515,"Ġì¡°ìļ©íķľ":4516,"ĠíĮĮìĿ¸ìķł":4517,"ĠìĹĺë¦¬ë²łìĿ´íĦ°":4518,"ìĿ´ëŀįëĭĪëĭ¤":4519,"ĠìŀĶë":4520,"ê²Ģ":4521,"ìĹĪëĭµëĭĪëĭ¤":4522,"ì°°":4523,"Ġëĭ¤ë¥´ê²Į":4524,"ĠëĤĺíĥĢ":4525,"Ġë§ĽìŀĪëįĶëĿ¼êµ¬ìļĶ":4526,"ëª¸":4527,"ĠìĿ¸ì¦Ŀ":4528,"ĠìķĬìķĺìĸ´ìļĶ":4529,"ë°¥ì§ĳ":4530,"Ġíķ´ê²°":4531,"ìķĪê²½":4532,"ĠìĥĿê°ģëĤĺëĬĶ":4533,"Ġë¸Ķë£¨":4534,"Ġê´ľíŀĪ":4535,"Ġë²Īì¶ľêµ¬ë¡ľ":4536,"Ġë¥´ë":4537,"Ġë¨¹ìĿĮì§ģ":4538,"ìļķ":4539,"ì§¤":4540,"Ġìłĵ":4541,"ĠëĤ¬":4542,"íķ´ì§Ħ":4543,"ë³´ë¦¬":4544,"Ġë§İìķĦìļĶ":4545,"ìŀħëĭĪëĭ¹":4546,"Ġê³łê¸°ëıĦ":4547,"Ġê³ĦìĤ°":4548,"Ġìĸ´ë¦°":4549,"Ġìĸ¼ë¥¸":4550,"Ġìķ¼ëĵ¤":4551,"Ġì²Ńê²°":4552,"ì¡Įëĭ¤":4553,"Ġì¡´ìŀ¬":4554,"ëĭĲëĿ¼":4555,"Ġë¯¿ê³ł":4556,"ĠíĹ¤ìĦ¼ëįĶìĬ¤íĥĢ":4557,"Ġì½ľëĿ¼":4558,"Ġê³°":4559,"ìĭľë¯¸":4560,"íķ´ì§ĢëĬĶ":4561,"Ġìĭłë¦¼ìĹĲìĦľ":4562,"Ġë¨¹ëĭ¤ê°Ģ":4563,"Ġìĺ¤íĶ¼ìĬ¤":4564,"ĠìłĢìĿĺ":4565,"ĠìĨĮë¬¸":4566,"Ġê¹į":4567,"ĠëĲĺìĹĪìĸ´ìļĶ":4568,"ĠìĿ¼ìĥģ":4569,"ĠíĶ½":4570,"ĠëıĦìĻĢ":4571,"Ġê°ľë°ľ":4572,"Ġìĸ´ì°Į":4573,"Ġì°įê³ł":4574,"ìĨįëĪĪìį¹":4575,"ĠíģĲ":4576,"Ġê²ĮìŀĦ":4577,"ĠíĴĪ":4578,"ëĲĲ":4579,"Ġì¶©ìłĦ":4580,"Ġê°ĢëĵĿíķľ":4581,"ë¨¸ë¦¬":4582,"ĠíļŁì§ĳ":4583,"ëĳ¥":4584,"Ġì«Ħë©´":4585,"ĠìĹ°ìĦ¸ë¡ľê°Ģê¸¸":4586,"Ġë§ŀì¶¤":4587,"ê¿Ī":4588,"ĠìĨĶì§ģíŀĪ":4589,"Ġìĺ¬ë¦¬ë¸Į":4590,"¸Į":4591,"ê°Ģê°Ģ":4592,"ìĭľëĭ¤":4593,"Ġëĵ£":4594,"ìĪĺì¦Ŀ":4595,"ëĲĺë©´":4596,"Ġëĵ¤ìĸ´ìŀĪ":4597,"Ġì¹ĺê³¼":4598,"ìĤ´ìĿ´":4599,"Ġëĵľìĭ¤":4600,"ë²ĪìĹĲ":4601,"ĠíĽĦê¸°ë¥¼":4602,"Ġì¢ħë¥ĺìĿĺ":4603,"Ġê¹Ģì¹ĺì°Įê°ľ":4604,"ìĽłëĭ¤":4605,"Ġë§ĪìĿĮìĿ´":4606,"ëĬĲëĿ¼":4607,"Ġëı¼ìļĶ":4608,"Ġê²°êµŃ":4609,"Ġë¬´ëł¤":4610,"Ġê¾¸ëįķ":4611,"Ġìŀħêµ¬ìĹĲ":4612,"ĠíħĮë§Ī":4613,"Ġíŀĺëĵł":4614,"Ġê°ĸì¶Ķ":4615,"Ġìĸ¸ìłľëĤĺ":4616,"ĠìĬ¤íĦ°ëĶĶë£¸":4617,"Ġìĭ¤ìłľë¡ľ":4618,"Ġìĭ«ìĸ´":4619,"Ġë°ķìĬ¹ì²łíĹ¤ìĸ´":4620,"ĵ¨":4621,"ìĦ¬":4622,"ìľ¼ìĭ¤":4623,"Ġì§Ĳ":4624,"Ġë¨¹ê²Į":4625,"ìŀĲë©´":4626,"Ġê¸°ê³Ħ":4627,"ĠìŀĲëŀĳ":4628,"ĠìĿ¸íĦ°":4629,"Ġíĺĳ":4630,"ìĺ¤ëİħ":4631,"Ġìłľë¡ľ":4632,"Ġì¡°ê°ģ":4633,"íĥĢìĽĮ":4634,"Ġê³³ê³³ìĹĲ":4635,"Ġëĭ¨ì§Ģ":4636,"Ġìĭ¶ìĸ´ìļĶ":4637,"ĠìķĦëĭĪì§Ģë§Į":4638,"ĠìłķëıĦìĿĺ":4639,"ĠíĿĺ":4640,"ĠëĲľëĭ¤ê³ł":4641,"ĠìĿĮìĭĿìłĲ":4642,"ĠìĹ´ì°¨":4643,"ë°ķìĿ´":4644,"ĠëłĪíĬ¸ë¡ľ":4645,"Ġì²Ńìķ½":4646,"Ġë³µì¸µ":4647,"Ġì§Ģê¸ĪìĿĢ":4648,"ĠìĮĪìŀ¥":4649,"ê¸°ìĻĢ":4650,"ì§ĢìĹŃ":4651,"Ġë°Ķë²łíģĲ":4652,".....":4653,"ëŀµ":4654,"Ġë§ĽìĿĺ":4655,"êµ¬íķĺê³ł":4656,"ìķĦìĽĥ":4657,"ĠìĿ´ê²ĥëıĦ":4658,"ìĥ·":4659,"íĶĮìĿ´":4660,"Ġë²ķ":4661,"Ġë¬»":4662,"Ġëĵ¤ìĹĪìĸ´ìļĶ":4663,"Ġì£¼ë¬¸ìĿĢ":4664,"ĠìķĮìķĺëĬĶëį°":4665,"ë²Īíĺ¸":4666,"ĠìĤ¬ì§ĦìĿĢ":4667,"ĠíĺĦê´Ģ":4668,"Ġê³µê°ĦìĿĦ":4669,"íĻĺê²½":4670,"Ġë³Ħë¯¸":4671,"Ġë°ĸìĹĲìĦľ":4672,"ĠíĬĢê²¨":4673,"Ġìłĳê·¼ìĦ±":4674,"ĠìķĬìķĦëıĦ":4675,"íķ´ë³¼":4676,"Ġë¸ĶëŀĻ":4677,"Ġëĥłëĥł":4678,"¨¸ë¦¬":4679,"Ġìıĺ":4680,"ìĭ¼":4681,"ê²Ĳ":4682,"íķľìŀĶ":4683,"ĠìŀĪêµ¬ìļĶ":4684,"Ġë°¸":4685,"Ġê·¸ëŀ¬":4686,"ĠìķĦê¹Į":4687,"Ġì¹ł":4688,"ëĵľë¥¼":4689,"ëĵľë¦½ëĭĪëĭ¤":4690,"ë²Ķ":4691,"ìĪĺìłľ":4692,"ĠëĮĢì°½":4693,"ìļ°ëıĻ":4694,"ĠëĲĺë©´ìĦľ":4695,"Ġêµ¬ë¶Ħ":4696,"Ġêµ¬ìĦ±ìĿ´":4697,"Ġë©Ķëī´ëĵ¤ìĿ´":4698,"Ġíĸĩ":4699,"Ġê°ľìĽĶ":4700,"Ġì¹´íİĺê°Ģ":4701,"Ġíĺ¸íħĶ":4702,"ĠìĻ¸ìĹĲëıĦ":4703,"Ġì»·":4704,"Ġê²°ê³¼":4705,"Ġì°¸ê³łíķĺìĦ¸ìļĶ":4706,"ĠìĦ±ê³µ":4707,"Ġì¦Ŀê°Ģ":4708,"íĹ¤ëŀĢ":4709,"Ġë°ĶëĢĮ":4710,"ĠìķĦëĭĲê¹Į":4711,"ëĿ¼íģ´ë":4712,"ë¥´ë":4713,"ìķĦíĬ¸":4714,"ì£¼ë¡ľ":4715,"ì£¼ìħ¨ìĸ´ìļĶ":4716,"ĠëĤĺìģĺ":4717,"ìĻĢíĶĮ":4718,"ìĪĺëĬĶ":4719,"ìĤ¬ì¶ľ":4720,"ì¶°":4721,"ìĺ¤ëįĶ":4722,"ìłķìĿ´":4723,"ĠìĬ¤íģ¬":4724,"Ġê³³ìĿ´ëĭ¤":4725,"íĤ¹":4726,"Ġíİ¸ìĿ´ëĿ¼":4727,"íĶĦíĥĳ":4728,"ĠíħĮìĿ´":4729,"ìĿ¸ëį°ëıĦ":4730,"íĮĮíĭ°":4731,"ĠëĶĶìłĢíĬ¸ì¹´íİĺ":4732,"Ġë³¸ê²©":4733,"ìĺĪìķ½":4734,"ì»µ":4735,"Ġê¸°ëĭ¤ë¦¬ëĬĶ":4736,"ìĬ¤íģ¬ë¦¼":4737,"Ġê¿Ī":4738,"Ġì±ĦìĽĮ":4739,"Ġëĭ¤ëħĢìĻĶìĬµëĭĪëĭ¤":4740,"Ġë°ĳìĹĲ":4741,"ĠëıħíĬ¹":4742,"ìŃī":4743,"Ġì°¾ëĬĶëĭ¤ë©´":4744,"ĠìĿ´ëŁ¬íķľ":4745,"Ġê²Įìĭľë¬¼":4746,"Ĳģ":4747,"ŀŃ":4748,"ëĭ¤ìļ´":4749,"íķĺëĭĪê¹Į":4750,"ĠìĿ´ìłķëıĦ":4751,"Ġì£¼ìħ¨ìĸ´ìļĶ":4752,"Ġíķĺë©°":4753,"ĠíķĺëįĶëĿ¼êµ¬ìļĶ":4754,"Ġìĺ¤ê³ł":4755,"ë³´ìĿ´":4756,"ê±°ëĿ¼":4757,"ìĪĺìĪĺ":4758,"Ġì§ĢìłĲ":4759,"ë§ĽìĿĦ":4760,"Ġê¹Ĭ":4761,"Ġë°ĶëŀĮ":4762,"Ġë°ĶëĭĲëĿ¼":4763,"Ġê³µìĤ¬":4764,"ìľĦìĹĲ":4765,"Ġë¬´ê²Į":4766,"Ġìĸ´ë§Ī":4767,"Ġì°¾ìĿĦ":4768,"Ġì°¨ë¡ľ":4769,"Ġì°įìĿĢ":4770,"Ġê±´ì¡°":4771,"ĠíĬ¹ìľłìĿĺ":4772,"Ġë¡¯ëį°":4773,"Ġìĺ¤íĶ¼ìĬ¤íħĶìĿĢ":4774,"ë¨¼":4775,"Ġìļ´ìĺģìĭľê°Ħ":4776,"ĠìĿ´ìľłëĬĶ":4777,"ĠìĿĢìĿĢ":4778,"Ġìĺ¬ëĿ¼ê°Ģë©´":4779,"Ġë²½ë©´":4780,"ĠìķĪê²½íħĮ":4781,"ĠëĤ¨ìŀĲì¹ľêµ¬":4782,"Ġìĭľê·¸ëĭĪì²ĺëŀ©":4783,"ĠìķĬìĿĦê¹Į":4784,"ëļľ":4785,"ìŃĪê¾¸ë¯¸":4786,"ëĿ¼íģ´ëŀŃ":4787,"ìĩ¼":4788,"íĩ´ê·¼":4789,"ê¸ĭ":4790,"Ġë§ĽìĹĲ":4791,"ì§ĳìĿĢ":4792,"ëĦĺ":4793,"ĠìłĦì²ł":4794,"ë¶Ħëĵ¤ìĿĢ":4795,"Ġì£¼ë¬¸íĸĪ":4796,"ĠëıĦìĭ¬":4797,"ëĵ¤ìĿ´ëŀĳ":4798,"Ġìļ°ìľł":4799,"ĠìļĶëŁ°":4800,"ĠìĪłìķĪì£¼":4801,"Ġëĵľìĭľë©´":4802,"ĠíĮĮìļ´ëĵľ":4803,"Ġì°¨ëŁī":4804,"ĠìĤ¬ì§ĦìĿ´":4805,"Ġë°ĽìĿĢ":4806,"Ġë°¥ëıĦ":4807,"Ġë³¶ìķĦ":4808,"Ġì»¤íĶ¼ë¥¼":4809,"ĠëĪĪìĿ´":4810,"ì¤Ģëĭ¤":4811,"ĠëĥīëıĻ":4812,"ĠëłĪìĿ¸ëĵľ":4813,"ëıĪê¹ĮìĬ¤":4814,"ĠíĬ¹íŀĪëĤĺ":4815,"ĠìĦ¸íĬ¸ë©Ķëī´":4816,"ĠíķŃìłķ":4817,"ĠíħĮíĹ¤ëŀĢ":4818,"Ġìª½ìĹĲ":4819,"Ġìĸ¸ìłľëĵł":4820,"Ġìŀ¬ë¯¸ê°Ģ":4821,"ĠìĹ°ëĿ½ì²ĺ":4822,"Ġìłķê¸°íľ´ë¬´":4823,"Ġíı¬íĨłì¡´":4824,"ĠëĿ¼ìĬ¤íĬ¸ìĺ¤ëįĶ":4825,"Ġë¯¸ëĤĺë¦¬":4826,"ĠëĤłì¹ĺìķĮ":4827,"Ġë°±ë²Ķë¡ľê¸¸":4828,"ìĤ¬ì¶ľëĺĲ":4829,"ëĴ":4830,"ìĸĢ":4831,"íķĺëįĺ":4832,"ë¡¯":4833,"ê°ĢìĬ¤":4834,"ê°ĢëłĪ":4835,"ìĬ¤íĬľëĶĶìĺ¤":4836,"Ġë¨¹ìĸ´ìĦľ":4837,"ëĮĢì°Įê°ľ":4838,"ë³´ê¸°":4839,"Ġë³´ìĭ¤":4840,"ë¶ĢëıĻìĤ°":4841,"ìĿ¼ìĿ´":4842,"Ġê¸°ê°Ħ":4843,"ìķ¼ëĵ¤":4844,"Ġë¶ĢìĤ°":4845,"ĠìĿ¼ëĮĢ":4846,"Ġê±°ê¸°":4847,"ĠíĥĿ":4848,"Ġê³³ìŀħëĭĪëĭ¤":4849,"Ġíı¬ê°ĢëłĪ":4850,"ê²łëĦ¤ìļĶ":4851,"Ġëĭ¨íĴĪ":4852,"ìĺĢê³ł":4853,"ĠìĺĪìķ½ìĿĦ":4854,"ì§ģíķľ":4855,"Ġëħ¸íĬ¸":4856,"Ġê·¸ëŁ°ê°Ģ":4857,"Ġìĭłì´ĮìłĲìĿĢ":4858,"Ġê¸°ë³¸ì°¬":4859,"ĠìĪľëĳĲë¶Ģ":4860,"ĠìĿµìĿĢ":4861,"ĠìĻĶìĬµëĭĪëĭ¤":4862,"Ġì§ĢëĤĺê°Ģ":4863,"Ġë²łìĿ´ì»¤ë¦¬":4864,"Ġì´Ŀíıī":4865,"Ġìª½ìľ¼ë¡ľ":4866,"ĠìķĮìķĦë³´":4867,"ĠíĬ¹ë³Ħíķľ":4868,"Ġë§ĪëĿ¼ìĥ¹ê¶Ī":4869,"ĠëłĪìĿ¸ëĵľëŀį":4870,"ëŃ":4871,"Ġê°Ģêµ¬":4872,"Ġìĭłì´Įëį°ìĿ´íĬ¸":4873,"ìŀĲë¥¼":4874,"ìķĺëĬĶëį°ìļĶ":4875,"ĠëĲĺëĬĶëį°":4876,"ĠìŀĺíķĺëĬĶ":4877,"ê·¸ë¦ĩ":4878,"ĠìķĮê²Į":4879,"ĠëĳĲê°ľ":4880,"Ġì½ķ":4881,"ê±´ì§Ģ":4882,"Ġìłĳìĭľ":4883,"ĠêµŃë¬¼ìĹĲ":4884,"ĠëĦĵìĸ´ìĦľ":4885,"ĠìĿ´ë²ĪìĹĶ":4886,"ĠìĪĺìłľë¹Ħ":4887,"Ġê¼¬ì¹ĺ":4888,"ĠíĥĦìĤ°":4889,"ĠìłĪëĮĢ":4890,"ë¿Ĳ":4891,"ĠëĤĺëĪĦ":4892,"ĠëłĮì¦Ī":4893,"íķĺìħ¨":4894,"ëĿ¼íĶ¼":4895,"ìĭľê¸°":4896,"ìĬ¤íĢĺìĸ´":4897,"ê¹ĢìĿ´":4898,"ëŁ´":4899,"Ġì¢ĭëĭ¤ê³ł":4900,"Ġìĺ¤ìħĶìĦľ":4901,"Ġìĭľë¶ĢíĦ°":4902,"Ġë³´ê´Ģ":4903,"Ġë§Īì¹¨":4904,"ĠìķĪëĤ":4905,"íĮĶ":4906,"Ġë§İëĭ¤":4907,"ĠìŀĪëĬĶì§Ģ":4908,"ì§Ħëĭ¤":4909,"ĠìĥĿìĥĿ":4910,"ĠìĬµ":4911,"ì°¨ìĿ´ì¦Ī":4912,"ĠìĿ¼ë¶Ģ":4913,"ëĭĺëĵ¤":4914,"Ġìĺ¬ë¦¬ê³ł":4915,"Ġìĸ´ìĤ¬ì¶ľëĺĲ":4916,"Ġë°°ì¶Ķ":4917,"ì¤ĳê°Ħ":4918,"íķĺê¸°ìĹĲëıĦ":4919,"ĠìłĲìĿĢ":4920,"Ġë¶Ħëĵ¤ê»ĺ":4921,"ĠëĬĲëĤĮìľ¼ë¡ľ":4922,"ìĭłë¦¼ìłĲ":4923,"Ġì»µ":4924,"Ġê°Ķëĭ¤":4925,"ĠìŀĲìĦ¸íķľ":4926,"Ġê´ĳìĸ´":4927,"Ġì§ģìĽĲë¶ĦìĿ´":4928,"Ġë¬´ë£Įë¡ľ":4929,"ĠìĿ¸ê·¼ìĹĲ":4930,"Ġì¼Ģìĸ´":4931,"Ġë©Ģë¦¬":4932,"ĠìĥĪì½¤ëĭ¬ì½¤":4933,"Ġêµ¬ë¹ĦëĲĺìĸ´":4934,"ĠìĻłì§Ģ":4935,"ë³´ë¦¬íĬ¼":4936,"ľ©":4937,"ê³łì¶Ķ":4938,"ìłł":4939,"Ġë§ĽëĤĺ":4940,"ì£¼ìĭľë©´":4941,"Ġìĭłë¦¼ëį°ìĿ´íĬ¸":4942,"Ġíķĳ":4943,"ĠìķĪìłķ":4944,"ĠìĿ¸ëıĦ":4945,"ĠìłĦë§Ŀ":4946,"Ġë§Įëĵľ":4947,"Ġì£¼ë¬¸íķ´ìĦľ":4948,"ĠíĬ¸ë¦¬":4949,"Ġë°°ì¹ĺ":4950,"ĠëĳĲê°Ģì§Ģ":4951,"Ġë°©ë¬¸íķ´ë³´":4952,"ĠìĪłìĿ´":4953,"íı¬ìŀ¥":4954,"ĠìłĲìĿ´":4955,"Ġë¶Īêµ¬íķĺê³ł":4956,"ìłĪìŀĦ":4957,"íĽĦëĿ¼ìĿ´":4958,"´ë©Ķ":4959,"Ġëĭ¹ê·¼":4960,"Ġê¸°ë³¸ìłģìľ¼ë¡ľ":4961,"ëª©ìĤ´":4962,"Ġê³¨ëŀĲ":4963,"Ġë°±ëħĦ":4964,"ĠëĴ¤ìĹĲ":4965,"ĠëĴ¤ë¡ľ":4966,"Ġì¡°íķ©ìĿ´":4967,"ëĥĲê³ł":4968,"Ġê°ĦíĮĲìĿ´":4969,"íħĲëį°":4970,"ĠëĮĢë¡ľë³Ģ":4971,"ĠìķĦê¸°ìŀĲê¸°":4972,"ĠìŀĶëľ©":4973,"Ġë°ķìĬ¹ì²łíĹ¤ìĸ´ìĬ¤íĪ¬ëĶĶìĺ¤":4974,"ì§±":4975,"Ġíķĺëĭ¤":4976,"ĠíķĺëĬĺ":4977,"ëĮĢë°©":4978,"Ġë³´ìĿ¼":4979,"Ġì¶ķ":4980,"ĠìĨĮìļĶ":4981,"ĠìłĦì£¼":4982,"Ġëĵ¤ê¹¨":4983,"ĠìĽĲëĳĲ":4984,"ëĲĺìĹĪ":4985,"ìĿ´ëĿ¼ëĭĪ":4986,"Ġê³µìľł":4987,"ì²ľìĽĲ":4988,"Ġì¤ĳëıħ":4989,"Ġìĺ¬íķ´":4990,"Ġë¬´ì²Ļ":4991,"ĠíĮĮì±Ħ":4992,"ĠíĶ¼íĭ°":4993,"Ġê°ĢëĬ¥íķĺëĭ¤":4994,"ê²ĥìĿ´":4995,"ëĶĶìħĺ":4996,"Ġëĭ¬ëł¤":4997,"´ë©°":4998,"ĠëĦĺìĸ´":4999,"ĠìĦ¤ëłĪ":5000,"ĠìĹĲê·¸":5001,"ìľ¡ìĭĿëĭ¹":5002,"ëľ¸":5003,"Ġíķ´ì£¼ìĦ¸ìļĶ":5004,"Ġë§Įëĵ¤ìĸ´ì£¼":5005,"ĠìĿ´ìłľëĬĶ":5006,"ĠëĮĢíķĻê°Ģ":5007,"ĠìĹħë¬´":5008,"Ġëĭ¨ì²´ìĦĿ":5009,"ĠìĤ´íİ´ë³":5010,"Ġë£¨íĶĦíĥĳ":5011,"Ġìķ¼ëĵ¤ìķ¼ëĵ¤":5012,"ĠìŁģ":5013,"ĠìŀĬ":5014,"ìĸ´ë¨¹":5015,"ë©Ķëī":5016,"ë°į":5017,"ì§ĳìĹĲìĦľ":5018,"ìĿ¸ê±°":5019,"Ġê·¸ëıĻìķĪ":5020,"Ġëĭ¤ë§Į":5021,"Ķëĥ":5022,"Ġë³´ìĿ¸ëĭ¤":5023,"ĠìĽĥ":5024,"Ġë§ĽìŀĪëįĶëĿ¼ê³łìļĶ":5025,"ë§Īì¹´":5026,"ĠìłĦë°ĺ":5027,"ìĥģíļĮ":5028,"Ġìŀĺëª»":5029,"Ġì£¼ë¬¸íķł":5030,"Ġíģ¬ê¸°":5031,"ĠìĦ¸ë¸ĮëŀĢìĬ¤":5032,"ê°ĲìŀĲ":5033,"ĠëĵľìĭľëĬĶ":5034,"Ġìŀ¥êµ°":5035,"ĠíĮĮë³´ë¦¬íĬ¼":5036,"Ġì¢ĭìķĺê³ł":5037,"Ġì²ĺëŁ¼":5038,"Ġë¹łë¥¸":5039,"ĠëĲĺìĸ´ìŀĪ":5040,"Ġê°ģìŀĲ":5041,"Ġë¿Ĳ":5042,"ĠìļĶì¦ĺìĿĢ":5043,"Ġê´Ģë¦¬ë¥¼":5044,"Ġìµľê³łìĿĺ":5045,"Ġìŀłê¹Ĳ":5046,"ĠëĬĺìĸ´":5047,"ê°ĳëĭĪëĭ¤":5048,"Ġì¡´ë§Ľíĥ±":5049,"Ġíģ´ëŀĺ":5050,"ĠìķħëıĻíı¬ì°¨":5051,"Ġë°¸ëŁ°":5052,"ìĹ£":5053,"ëıĦìĤŃë©´":5054,"ëĭĪê°Ģ":5055,"ê°Ģë¥¼":5056,"ìłĵ":5057,"Ġìĭłê·ľ":5058,"ìľ¼ëŁ¬":5059,"ìĭľëįĶëĿ¼êµ¬ìļĶ":5060,"ì¹¸":5061,"ì£¼ë¬¸":5062,"ìĥ¤":5063,"Ġì¢ĭê²łëĭ¤":5064,"Ĳĺìĸ´":5065,"ĠìĨĮíĻĶ":5066,"íĸĪìĿĦ":5067,"ìĺ¤ê³ł":5068,"ìĺ¤ëĬĺ":5069,"íĺľ":5070,"Ġìłľê±°":5071,"ĠìĹĨìĸ´ìļĶ":5072,"ĠìĹĨì§Ģë§Į":5073,"Ġìĸĳê½ĥ":5074,"Ġë¹Ħìĭ¼":5075,"Ġê°ľë³Ħ":5076,"ì§ĪìĿ´":5077,"ĠìļĶì²Ń":5078,"Ġìĸ´ìłľ":5079,"ĠìĺģìĪĺì¦Ŀ":5080,"ĠëĤĺìĺ¤ë©´":5081,"Ġê¹Ģê°Ģë£¨":5082,"Ġê±´ì¶ķ":5083,"Ġìĸ¼ê·¸ëłĪìĿ´":5084,"Ġì¹ľêµ¬ëĬĶ":5085,"Ġì¡°ê¸ĪìĶ©":5086,"Ġìĺ¬ëĿ¼ê°Ħ":5087,"ĠìĻĶëĭ¤":5088,"ĠíĨłìļĶìĿ¼":5089,"Ġì°½ë¬¸":5090,"Ġê³łë¯¼íķĺëĭ¤ê°Ģ":5091,"ĠìĬ¤íĥĢë²ħ":5092,"ë³¶ìĿĮíĥķ":5093,"ĠíĮ¨íĭ°":5094,"Ġìĵ´":5095,"Ġê¼¼ê¼¼íķĺê²Į":5096,"ĠìĿ´ë£¨ìĸ´":5097,"ĠíĮĮìĿ¸ìķłíĶĮ":5098,"ĠíħĮìĿ´íģ¬":5099,"®¤":5100,"Ġì³":5101,"íķĺìĺĢìĬµëĭĪëĭ¤":5102,"êµ¿":5103,"ìĭľëĤĺìļĶ":5104,"Ġìĭłë¦¼ìĹĲ":5105,"Ġì£¼ê³ł":5106,"ĠíķĺëįĶëĿ¼ê³łìļĶ":5107,"ĠìĦľë¡ľ":5108,"ìĦ¸ëĮĢ":5109,"ĠìĿ¸ìĽĲ":5110,"Ġë°ĶëĤĺ":5111,"ĠëĲĺì§Ģ":5112,"ìĹ¬íĸī":5113,"íĨ±":5114,"Ġì£¼ë¬¸íĸĪëĬĶëį°":5115,"Ġì¤ĳìĹĲìĦľ":5116,"Ġê°ľë°©":5117,"ĠëĤ´ë¦¬":5118,"Ġëĭ¤ìĸĳíķĺê³ł":5119,"ìĺģìłĲ":5120,"Ġë´ħëĭĪëĭ¤":5121,"Ġë§ŀìĿĢ":5122,"Ġê°ĪìķĦ":5123,"ĠìĦ¤ê³Ħ":5124,"ëģ¼ë¦¬":5125,"ĠëłĪìĬ¤íĨł":5126,"Ġê¶ģíķ©":5127,"Ġëĵ¯íķľ":5128,"ĠíĮĲë§¤íķĺê³ł":5129,"ĠëģĵìĹ¬":5130,"ĠíĥķìĪĺìľ¡":5131,"ĠìĿ´íĻĶìĹ¬ëĮĢ":5132,"Ġê¹įëĳĲ":5133,"Ġëħ¸íĬ¸ë¶ģ":5134,"ìı":5135,"ìĵ":5136,"ë¦ī":5137,"ĠìķĦë¦Ħ":5138,"Ġë³´ê¸Ģ":5139,"Ġíķľë§Ī":5140,"Ġìłķìĭł":5141,"Ġê°ĻëĦ¤ìļĶ":5142,"ë§ĪëĬĺ":5143,"ë§ĽëıĦ":5144,"ìĨĮê³±ì°½":5145,"ìłĦê³¨":5146,"ìĸĳëħĲ":5147,"ì½Ķë":5148,"Ġíĥģ":5149,"ë©´ìĦľëıĦ":5150,"Ġë°°íĽĦ":5151,"Ġì½ĶëĦĪ":5152,"ĠëĤ´ëĤ":5153,"Ġëĭ¤ìĿĮìĿĢ":5154,"Ġëĭ¤ìĿĮìĹĶ":5155,"Ġë³¶ìĿĮ":5156,"Ġì§Ħíĸīíķĺê³ł":5157,"íıŃ":5158,"ĠìķĦìĿ´ìĬ¤íģ¬ë¦¼":5159,"´ëĿ¼ê³ł":5160,"Ġë°Ģíģ¬":5161,"Ġì«Ħê¹ĥíķľ":5162,"Ġê¸°ìĸµìĿ´":5163,"ì«Ħê¹ĥ":5164,"±ĥ":5165,"ĠíĮĢ":5166,"ĠìĿĳ":5167,"ëĿ¼ìĽĮ":5168,"ĠìĦŃ":5169,"ì£¼ìĭł":5170,"ĠìĪĺìłĢ":5171,"ì²´ë¥¼":5172,"Ġíķĺê²łìĬµëĭĪëĭ¤":5173,"ĠëĦĲ":5174,"Ġìĭłë¦¼ìĹŃì¹´íİĺ":5175,"Ġë§Īê°Ĳ":5176,"ĠìĨĮê°Īë¹Ħì°ľ":5177,"ĠëĮĢì²´":5178,"ĠìĽĲì¡°":5179,"ĠëĲĺëĬĶëį°ìļĶ":5180,"ìĦłìĥĿ":5181,"ê»ĳ":5182,"Ġìĥģíĺ¸":5183,"Ġíİĺ":5184,"ìĸĳê¼¬ì¹ĺ":5185,"ĠìĹ°íĥĦ":5186,"ìłĢëħģ":5187,"Ġê°ľìĦł":5188,"Ġíģ¬ê³ł":5189,"ê³µë°©":5190,"ĠìĤ´ìĿ´":5191,"ë°ĶìĤŃ":5192,"Ġìłģìĸ´":5193,"Ġëħ¸ë¦ĩ":5194,"Ġìĸ¼ìĿĮ":5195,"ĠëĲľëĭµëĭĪëĭ¤":5196,"Ġë§¤ìŀ¥ìĹĲìĦľ":5197,"ĠìĨĮìĬ¤ëĬĶ":5198,"ĠìĨįìĿ´":5199,"Ġì°įìĸ´ë¨¹":5200,"ìĿ´ë²ĦìĦ¯":5201,"Ġìĭ¬íĶĮ":5202,"Ġê°Ģê¹ĮìĽĮìĦľ":5203,"ĠìŀĲìĦ¸ë¥¼":5204,"Ġë³´ë©´ìĦľ":5205,"Ġìĭ¸ìĦľ":5206,"Ġëı¼ì§Ģê°Īë¹Ħ":5207,"ĠìĿ´ë¥¸":5208,"ĠíĮĶë¡ľìĽĮ":5209,"ĠíĮĶë¡ľìŀī":5210,"ĠìĭłìĽĲìĭľìŀ¥":5211,"Ġëĭ¤íĸīíŀĪ":5212,"Ġê±´ëĦĪ":5213,"ĠìŀĦíĶĮëŀĢíĬ¸":5214,"ĠëŁ°":5215,"ĠìĬ¤íİĺìħľ":5216,"ë§Īì¹´ìĦ¸":5217,"ìķĶ":5218,"ìĭľëĬĶëį°":5219,"ìĬ¤íĤ¤":5220,"ĠìĪĺëĭ¤":5221,"ĠíķĺëŁ¬":5222,"ëĮĢê°Īë¹Ħ":5223,"ĠíķľìĭĿ":5224,"Ġë§İìķĺìĸ´ìļĶ":5225,"ìĦ±ìĿĺ":5226,"ĠìĹŃíķł":5227,"ë¸Ĳ":5228,"Ġë¹Ľ":5229,"Ġìļ°ìĤ¼ê²¹":5230,"ìķĪê¸¸":5231,"Ġíİ¸ìĿ¸ëį°":5232,"Ġëĭ¨ëıħ":5233,"ëĳĲê³ł":5234,"Ġë¨¹ìĸ´ë´¤ëĬĶëį°":5235,"Ġê°ķìĤ¬":5236,"Ġìĺģíĸ¥":5237,"Ġë°ĺë³µ":5238,"Ġë¶Īê³łê¸°":5239,"ĠíĿ¬":5240,"ĠíĿ°":5241,"Ġë§ŀìĿ´":5242,"ĠìĨĮìĬ¤ë¥¼":5243,"Ġë¹łìł¸":5244,"ĠìĿĺë£Į":5245,"ĠëĪĦë¦´":5246,"ĠìķīìĿĦ":5247,"Ġê²½ìļ°ìĹĲëĬĶ":5248,"ĠìŀĲìĦ¸íŀĪ":5249,"ĠìĨĶìĨĶ":5250,"ĠìĿ´ëĤłìĿĢ":5251,"ëŀĦê¹Į":5252,"ì¿łíĤ¤":5253,"ĠëĬ¦ìĿĢ":5254,"ĠìĬ¤íĦ°ëĶĶì¹´íİĺ":5255,"Ġíķ´ìĤ°ë¬¼":5256,"ìĿ´ê¸°ëıĦ":5257,"ê¸°ë§Į":5258,"Ġë§ĽëĤľ":5259,"ĠìĿ´ìĸ´ìĦľ":5260,"ĠìķĦìĭľì£ł":5261,"Ġì¢ĭìĿĮ":5262,"Ġìľ¤":5263,"ë³´ê¸Ģ":5264,"ĠìķĪìª½ìĹĲ":5265,"Ġë¶Ħëªħ":5266,"ìļ©ìľ¼ë¡ľ":5267,"Ġë§ĽìŀĪìĿĮ":5268,"Ġê¸°íĥĢ":5269,"ëįĺì§Ģ":5270,"Ġë§ĮìĦĿ":5271,"ì²ľì§ĳ":5272,"Ġìĸĳê°Īë¹Ħ":5273,"íĥĢë¡ľ":5274,"ìłĢê²ĥ":5275,"Ġíģ¬ëłĪíİĺ":5276,"Ġíģ¬ëĿ¼íģ´ëŀŃ":5277,"íĺ¸ìĦł":5278,"Ġì¶Ķì²ľíķĺëĬĶ":5279,"ĠíħĮìĿ´ë¸Ķë§Īëĭ¤":5280,"Ġë§¤ìŀ¥ìĿĢ":5281,"Ġì¦Ĳê±°ìļ´":5282,"ĠíĶĦëŀľ":5283,"Ġë²łìĬ¤íĬ¸":5284,"ëĵ±íķĻêµĲ":5285,"Ġì²´íĺķ":5286,"ĠëĪĦê°Ģ":5287,"Ġë¨¹ê¸°ë¡ľ":5288,"Ġê·Ģíķľ":5289,"Ġê°ĢìĦ±ë¹Ħê°Ģ":5290,"ìłķëıĦë¡ľ":5291,"ĠìĿ´ë²¤íĬ¸ëıĦ":5292,"Ġìĭľì¼°ëĬĶëį°":5293,"Ġì¤ĳê°Ħì¤ĳê°Ħ":5294,"Ġê°ĲìŀĲíĬĢê¹Ģ":5295,"ĠëĳĺìĿ´ìĦľ":5296,"ĠëĽ°ìĸ´":5297,"Ġì°Įê°ľ":5298,"Ġê»įëį°":5299,"ĠëłĪìĬ¤íĨłëŀĳ":5300,"ìĿ´ìĥģ":5301,"ìĸ´ìļ¸":5302,"ê°Ģê²Į":5303,"ìĭľíĶ¼":5304,"ìĬ¤ìĿĺ":5305,"ëĤĺë©´":5306,"ê¹¥":5307,"ëŁŃ":5308,"Ġìĭłì´ĮìĹŃë¯¸ìļ©ìĭ¤":5309,"ê·Ģ":5310,"ìĨĮê°Ģ":5311,"ìĨĮíķľ":5312,"Ġë°Ķê¹¥":5313,"ĠëįĶíķ´":5314,"ĠìĥĿìĿ¼":5315,"ìļ°ê³ł":5316,"ìłĦíŀĪ":5317,"ìĪ¯ë¶Ī":5318,"ìłľë¥¼":5319,"Ġë¹Ħë¡¯":5320,"ê±´ë¬¼":5321,"Ġëĵ±ìĭ¬":5322,"Ġì°¸ìĹ¬":5323,"ĠëĳĲë¦¬":5324,"ĠìĹŃìĤ¼ìĹŃìĹĲìĦľ":5325,"ìħĶìļĶ":5326,"ĠíļĮë³µ":5327,"ê³ĦëŀĢ":5328,"ë¥ĺìŀ¥":5329,"ĠíĨµíķ´ìĦľ":5330,"ì¸Ħ":5331,"Ġì¼ĢìĿ´":5332,"ĠìķĪì£¼ë¡ľ":5333,"ì¢ħë¥ĺ":5334,"Ġëª¨ìĬµìĿ´":5335,"ĠìłĢëħģìĹĲ":5336,"´ë°Ľ":5337,"ĠìĿ´ëĤ´":5338,"ë¿Ĳë§Į":5339,"Ġìľ¼ëľ¸":5340,"ĠìĭľíĤ¤ë©´":5341,"ĠíļĮìĭĿìŀ¥ìĨĮ":5342,"Ġì°°ëĸ¡":5343,"Ġíİ¸ìķĪíķľ":5344,"ĠìĿ´ê²ĥìłĢê²ĥ":5345,"ĠëĥĦìĥĪê°Ģ":5346,"Ġë½ĳ":5347,"Ġìłĵê°ĢëĿ½":5348,"Ġë³´ê¸Ģë³´ê¸Ģ":5349,"¨¸":5350,"²Ħ":5351,"¶Ħ":5352,"Ġìĺ®":5353,"ìĬ¤ë¡ľ":5354,"ìķĦëħ¸":5355,"ëĤĺë²ł":5356,"ì²¨":5357,"ĠìĦľìĦľ":5358,"Ġë©´ë°":5359,"Ġëĵ¤ìĹĪëĭ¤":5360,"Ġì§Ģë°©":5361,"ëĦ¤ìļ©":5362,"ĠìĹĨëĬĶëį°":5363,"ĠëķĮê°Ģ":5364,"Ġì¡°ìłĪ":5365,"Ġì°¸ìĪ¯":5366,"Ġì§ģíĻĶ":5367,"ë¸Ķë¡ľ":5368,"Ġë°ĺë¯¸":5369,"ê±´ëį°":5370,"Ġë¨¹ìĿĦìĪĺ":5371,"ëĲľëĭ¤":5372,"íĿ¥":5373,"ĠíĨµíĨµ":5374,"Ġê°Īë¦Ń":5375,"ĠíĻĺìĥģ":5376,"Ġì¶ľíĩ´ê·¼":5377,"ìĿµìĬ¤":5378,"ì¢ĭê²Į":5379,"Ġíķ«íĶĮ":5380,"Ġê°Ħëĭ¨íķľ":5381,"Ġì«Ħê¹ĥì«Ħê¹ĥ":5382,"Ġìĵ¸":5383,"Ġì§Ńì§¤":5384,"ìĹŃìĤ¼ìĹŃ":5385,"ĠìµľëĮĢíķľ":5386,"Ġíķ©ë¦¬ìłģìĿ¸":5387,"ĠìĹīëį©":5388,"ĠíķŃìłķìĤ´":5389,"ê²¸":5390,"ë¦¬ë¹Ħ":5391,"ëĤŃ":5392,"ĠìĦĿ":5393,"ìĿ¸ëĵ¯":5394,"ë³´ìĿ´ëĬĶ":5395,"ê°ĦíĮĲ":5396,"Ġë§Īë²¨":5397,"ĠĠĠĠĠĠĠĠĠ":5398,"íĦ±":5399,"ë¶ĦìľĦê¸°":5400,"ìļ°ëĭĪ":5401,"ĠëĲĺìĹĪëĭ¤":5402,"ĠëĲĺê²łìĬµëĭĪëĭ¤":5403,"ĠìļĶìĥĪ":5404,"Ġë¯¸ëŀĺ":5405,"Ġë¨¹ìĸ´ë´¤":5406,"ë§¤ìļ´":5407,"ĠíĥĢì½Ķ":5408,"ĠëħĦëĮĢ":5409,"ĠíĻĺìĬ¹":5410,"íĺĦëıĻ":5411,"Ġì§Ģíķĺì²łìĹŃ":5412,"Ġìĥģíĥľë¡ľ":5413,"Ġë°Ģë¦¬ìĸ¸":5414,"ĠìķłíĶĮ":5415,"Ġëĵ¤ìĸ´ìĺ¤ë©´":5416,"Ġë¬¸ìłľê°Ģ":5417,"ĠìĶ¹ëĬĶ":5418,"ĠìķĬìķĺì§Ģë§Į":5419,"Ġì¤ĳêµŃì§ĳ":5420,"Ġëĭ¹ê³¡ìĹŃ":5421,"ĠìĿ¸íĦ°ëĦ·":5422,"ëĮ":5423,"ĠëĿ½":5424,"ìĿ´ìĸ´ìĦľ":5425,"ì§¬ë½ķ":5426,"ëĭ¤ê¸¸":5427,"ĠìŀĪê³łìļĶ":5428,"ĠìĿ´ìģľ":5429,"Ġì£¼ìĭľëĬĶ":5430,"Ġìĸ»":5431,"ì¹ĺê³ł":5432,"ĶëĦ¤ìļĶ":5433,"ĠìĤ¬ì£¼":5434,"íĬ¸ëıĦ":5435,"ĠìĭľìĹĲ":5436,"Ġíķľê°ĢëĵĿ":5437,"ĠìĽ¨":5438,"Ġë§ĽìŀĪìĬµëĭĪëĭ¤":5439,"ĠìĪ¨":5440,"ĠìĥĿê¸°":5441,"Ġë©Ķëī´ë¡ľ":5442,"ĠíĻĶëł¤":5443,"ĠìĥĿê°ģìĿĦ":5444,"ĠëĳĲê»ĺ":5445,"Ġê°ķíķľ":5446,"Ġì°¨ë¥¼":5447,"Ġê°ĢëĬ¥íķĺê³ł":5448,"ëª¨ìĬµ":5449,"ê°ķìłķ":5450,"ĠìķŀìĹĲìĦľ":5451,"ĠëģĬ":5452,"Ġë¬¸ìĿĦ":5453,"Ġëħ¸ëł¥":5454,"Ġì²ĺìĿĮìĹĲëĬĶ":5455,"ĠìĤ¬ëŀĮëĵ¤":5456,"ĠëĤĺìĻĶëĬĶëį°":5457,"Ġíģ¬ë¦¼ìĿ´":5458,"Ġì¡¸":5459,"Ġìľ¡íļĮ":5460,"ĠìłĢëł´íķĺê²Į":5461,"Ġê´Ģë¦¬ë¹Ħ":5462,"ì¢ĭìķĦ":5463,"ĠëıħìĦľ":5464,"ëŀĦëĿ¼":5465,"Ġìľ¡ì¦ĻìĿ´":5466,"ĠìĸĩìĿĢ":5467,"Ġë³Ħë¹Ľìĭł":5468,"Ġëķħì½©":5469,"Ķëĥī":5470,"Ġêº¼":5471,"ìļ¤":5472,"ëĭ¤ëĭ¥":5473,"Ġë§¡":5474,"ìĬĲ":5475,"Ġê°ĢìĬ´":5476,"Ġë¨¹ì§Ģ":5477,"ëłĲ":5478,"Ġì£¼ìħ¨":5479,"ĠìķĦë¬´ë¦¬":5480,"Ġìĺ¤ëŀ«":5481,"ĠëĤĺë¬´":5482,"ĠìķĪìª½ìľ¼ë¡ľ":5483,"ĠìłĢê¸°":5484,"íĸĪëĬĶëį°ìļĶ":5485,"ĠìłĦë¶ĢíĦ°":5486,"íĦ°ê°Ģ":5487,"Ġìłľë²ķ":5488,"Ġëª¨ëª¨":5489,"ìł¸ìŀĪ":5490,"ë²ĦìĬ¤":5491,"Ġìĺģìĸĳ":5492,"Ġìŀ¥ëĤľ":5493,"Ġìĸ´ëĶ":5494,"ê²ĥê°Ļ":5495,"Ġì¹ĺì¦Īë³¶ìĿĮë°¥":5496,"ĠêµŃë¬¼ìĿĦ":5497,"ì¦Ŀê¸Ī":5498,"ĠëłĪìĬ¨":5499,"Ġìŀ¡ìķĦ":5500,"Ġì½Ķìĸ´":5501,"ê´ĳìĦĿ":5502,"Ġê·¸ëŁ¬ëĤĺ":5503,"Ġì°©íķľ":5504,"Ġì·¨íĸ¥ìĹĲ":5505,"ìŀĲë¦¬ë·°":5506,"Ġìĺ¥ìĪĺìĪĺ":5507,"Ġê³Ħëĭ¨ìĿĦ":5508,"ĠíĿĳìŀĦ":5509,"íĺ¼ë°¥":5510,"ĠíĴįë¶Ģíķľ":5511,"ìłĦë¬¸ìłĲ":5512,"Ġê³łìĭľìĽĲ":5513,"Ġíı¬ìĿ¸íĬ¸":5514,"Ġì³Ĳ":5515,"ëĬĶê²Į":5516,"ìĸ´ë§Ī":5517,"ê°ĢìĬ´":5518,"ì§ĢìĻĢ":5519,"Ġê³¤":5520,"ì¹Ļ":5521,"ĠìĪĺì¤Ģ":5522,"Ġëĭ¤ë¦¬":5523,"Ġì£¼ìļĶ":5524,"ĠíķĺìĹ¬":5525,"ĠìĭľìĦ¸":5526,"Ġíķľì°¸":5527,"Ġëį¤":5528,"Ġë²Ĺ":5529,"ë£©":5530,"ìĺ¤ë°ĺ":5531,"ĠìłĦìŀĲ":5532,"ìĦ±ë¹ĮëĶ©":5533,"ì°¨ë¥¼":5534,"Ġìŀĺìĸ´ìļ¸":5535,"ê¸¸ìĿĦ":5536,"Ġê³³ëıĦ":5537,"ê²łëĭ¤ê³ł":5538,"ĠìŀĪìĹĪëĭµëĭĪëĭ¤":5539,"ĠëĤ´ìĸ´ì£¼":5540,"Ġíİ¸íķľ":5541,"Ġë°©ë¬¸íĸĪëĬĶëį°":5542,"Ġë°©ë¬¸ìŀĲë¦¬ë·°":5543,"ĠìĤ¬ì§ĦëıĦ":5544,"ĠëĿ¼ìĿ´":5545,"Ġë¨¹ìĿĦëķĮ":5546,"ĠìłģìĿ´":5547,"íķ¨ê³¼":5548,"ĠêµŃìĪĺ":5549,"ĠëĭŃëıĦë¦¬íĥķ":5550,"ê³³ìĿ´":5551,"Ġë¬¸ìĸ´":5552,"Ġë¶ĦìľĦê¸°ìĿĺ":5553,"íħĶëĿ¼":5554,"Ġê³µê°Ħìľ¼ë¡ľ":5555,"íİ¸ìĹĲ":5556,"ĠìĤ¬ìļ©íķĺëĬĶ":5557,"´ëĤľ":5558,"Ġê°Ķëĭ¤ê°Ģ":5559,"Ġëĭ¤ìĭľë´Ħ":5560,"ĠìĭľìĽĲíķĺê²Į":5561,"ëĦĪìĬ¤":5562,"Ġìĵ°ëĬĶ":5563,"Ġë¨¸ë¦¿":5564,"Ġë¶Ģëĭ´ìĹĨìĿ´":5565,"ĠìķĦìī¬ìļ´":5566,"ê·ľëª¨":5567,"ìĬ¤íħĢ":5568,"ĠíĤ¤ìĺ¤ìĬ¤íģ¬ë¡ľ":5569,"ĠëĬ¦ê²Į":5570,"Ġê³łê°Ŀëĭĺ":5571,"Ġë¶Ħê±°ë¦¬ìĹĲ":5572,"ëįĶëĿ¼êµ¬ìļ©":5573,"ĠìĪĺì§ĢìĥģíļĮ":5574,"ë±ħ":5575,"Ĩĵ":5576,"Łê°ĢëĿ½":5577,"ìĹ´ë":5578,"Ġë§ĳ":5579,"ìĦľëĬĶ":5580,"ì§Ģê¸°":5581,"ĠìŀĪì§Ģ":5582,"ìľ¨ìĿ´":5583,"ë¬¸íĻĶ":5584,"Ġì°¹":5585,"Ġíķµ":5586,"ĠëĤĺê³ł":5587,"Ġë§Īë¬´":5588,"ìĤ¬ëŀĮ":5589,"ĠìĨĮê°Īë¹Ħ":5590,"íİĺìĿ´":5591,"ĠìķĬìķĺëĭ¤":5592,"ĠëĲĺìĸ´ìĦľ":5593,"ëŀĳìĿ´":5594,"Ġê³µëıĻ":5595,"ĠëıĦìĽĢìĿĦ":5596,"ë²Ħë¦°":5597,"ìĨ¥":5598,"ĠëĳĲê³ł":5599,"ë¸Ķë¦¿":5600,"Ġë°ĺë°ĺ":5601,"ĠíĶ¼íĬ¸ëĭĪìĬ¤":5602,"Ġì°¨ìĿ´ê°Ģ":5603,"ĠìĤ¬ì§Ħìľ¼ë¡ľ":5604,"Ġì»¤ìĬ¤íħĢ":5605,"Ġê¹Ģê´ĳìĦĿ":5606,"íĽĦê¸°":5607,"Ġê³µê°ĦëıĦ":5608,"Ġê°Ģê²Įê°Ģ":5609,"Ġë©Ķëī´íĮĲìĿ´":5610,"Ġêµ¬ìĽĮìĦľ":5611,"ëĬĲëĤĮ":5612,"ĠìĹ°ìĦ¸ë¡ľìķĪê¸¸":5613,"Ġë°ĶìĤŃíķĺê³ł":5614,"ĠíĻįëĮĢìŀħêµ¬ìĹŃ":5615,"Ġê³¨ëª©ìľ¼ë¡ľ":5616,"Ġíķ«íķľ":5617,"ëĺ¥ì§ĳ":5618,"Ġëĸłìĺ¤":5619,"ì¤ĺìĦľ":5620,"ëĨĵê³ł":5621,"Ġíĸīë³µíķľ":5622,"Ġë°°ë¶Ģë¥´ê²Į":5623,"Ġëļľê»ĳ":5624,"ĠìľłëıĻìĿ¸":5625,"Ġìĸ´ì°ĮëĤĺ":5626,"ĠìŁģë°ĺ":5627,"ĠíħĮìĿ´íģ¬ìķĦìĽĥ":5628,"Ġë³Ħë¹ĽìĭłìĤ¬ë¦¬":5629,"íķľìĿĺìĽĲ":5630,"ĠìĺĢ":5631,"Ġë§Ľê³¼":5632,"Ġë¨¹ëĬĶëį°":5633,"ĠíķĺìĸĢ":5634,"Ġìĭľìŀ¥":5635,"Ġê³łìłķ":5636,"ë³´ëĭ¨":5637,"Ġì¶¥":5638,"ìļ´ì§Ģ":5639,"ìĭĿìĤ¬":5640,"ĠëįĶëįĶ":5641,"ĠìĹĨìĹĪ":5642,"ĠìĹĨìĿĮ":5643,"Ġêµ¬ìŀħ":5644,"ĠìĬ¤íĨł":5645,"ìķĪìĹĲ":5646,"ĠíĽĦíļĮ":5647,"ì§ľë¦¬":5648,"Ġìļ´íĸī":5649,"íĶĮëłī":5650,"ĠìĤ¬ì§Ħì°į":5651,"Ġë¨¹ìĿĦê¹Į":5652,"ĠíħĮìĿ´ë¸ĶìĿĢ":5653,"Ġë§¤ìŀ¥ìĹĲ":5654,"ĠìŀĳëħĦ":5655,"ĠìĹĦì²ŃëĤĺê²Į":5656,"Ġë¦¬ëª¨":5657,"ĠëłĪëĵľ":5658,"Ġë¨¸ë¦¬ê°Ģ":5659,"ĠíĶ¼ìŀĲëª°":5660,"ĠìĦľë¹ĦìĬ¤ë¥¼":5661,"Ġëª¸ìĿ´":5662,"Ġê°Ħëĭ¨íŀĪ":5663,"íļ¨":5664,"Ġê³±ëıĦë¦¬íĥķ":5665,"ĠëĦīëĦīíķĺê²Į":5666,"íĥ±ê¸Ģ":5667,"Ġìµľê·¼ìĹĲ":5668,"Ġë¹ĮëĶ©":5669,"Ġëĭ´ë°±íķľ":5670,"ĠìķĦë¬´íĬ¼":5671,"Ġìĸĺê¸°":5672,"ĠíĿ¥ë¶Ģ":5673,"ĠëĪĮëŁ¬":5674,"ĠëĤĺìģĺì§Ģ":5675,"Ġìĸ´ë§Īìĸ´ë§Ī":5676,"ëĴ¤":5677,"ĠìĬ¤íĥĢë²ħìĬ¤":5678,"¤ìĦ¬":5679,"íĮĢ":5680,"ìĿĳ":5681,"Ġê°¬":5682,"ê°Ģê³ł":5683,"Ġìķ¡":5684,"Ġìĥµ":5685,"ĠíķĺëĭĪê¹Į":5686,"ëĵľë¦¼":5687,"Ġê³łì¶":5688,"ë¹ĦìĹ£":5689,"Ġë§ĪìĬ¤íģ¬":5690,"ë§ĪìĿĦ":5691,"ìĦ±ê³¨":5692,"Ġì§Ħëĭ¨":5693,"ĠìĹĨìĹĪìĸ´ìļĶ":5694,"ìĿ´ëĿ¼ëıĦ":5695,"Ġíİ´":5696,"Ġìŀħê°Ģ":5697,"ĠëıĦìļ°":5698,"ĠíĥĢìĿ´":5699,"Ġíı¬ê¸°":5700,"Ġíı¬ë¹ĦìĹ£":5701,"Ġëĭ¨ë°±":5702,"Ġì°¸ê¸°ë¦Ħ":5703,"ëŀĢëĭ¤":5704,"Ġëĵľìĭľê³ł":5705,"Ġì°¨ë¶Ħ":5706,"Ġê°ĢëĬ¥íķĺëĭ¤ê³ł":5707,"ĠìķĦëĭĪë©´":5708,"ëĭ¬ëĿ¼ê³ł":5709,"Ġëĵ¤ìĸ´ê°ĢìŀĲë§ĪìŀĲ":5710,"Ġë°¥ìĿ´":5711,"ĠìĨĮìĬ¤ìĻĢ":5712,"Ġì¹ľêµ¬ëĵ¤":5713,"ĠìĹĦì²ŃëĤľ":5714,"íķ´ì£¼ìħĶìĦľ":5715,"Ġíķľë²ĪìĹĲ":5716,"ĠìĿµìĸ´":5717,"ĠìĿµìĪĻ":5718,"ì´Īì½Ķ":5719,"Ġì²Ńìĸĳ":5720,"Ġë¨¹ìľ¼ëł¤ê³ł":5721,"Ġì§Ģê¸Īê¹Įì§Ģ":5722,"Ġë¸Ķë¡ľê·¸ë¦¬ë·°":5723,"ìĭ¶ìĿĢ":5724,"ĠìķĦëĭĮê°Ģ":5725,"ĠìĤ¬ìĿ´ëĵľë©Ķëī´":5726,"ĠëĮĢíķĻêµĲ":5727,"Ġìŀ¥ìĨĮë¡ľ":5728,"Ġì¶©ë¶Ħíķľ":5729,"Ġê¹¨ëģĹíķĺê²Į":5730,"Ġê³łê¸īìĬ¤ëŁ¬ìļ´":5731,"Ġíĳľìĭľ":5732,"Ġê°ĳëĭĪëĭ¤":5733,"Ħ¤ìĥģ":5734,"ĠìĿ´ë¥¼":5735,"ĠìĹĲìĸ´ì»¨":5736,"Ġíĥ±ê¸Ģíĥ±ê¸Ģ":5737,"Ġíķĳíģ¬":5738,"Ġë°ĶëĤĺëĤĺ":5739,"ëī´":5740,"ìĿ´ìĻĢ":5741,"ìĦŃ":5742,"íķĺê²łìĬµëĭĪëĭ¤":5743,"ê²ĮìŀĦ":5744,"ê²Įíĭ°":5745,"ĠëĤŃ":5746,"Ġê²¬":5747,"Ġì¢ĭì§Ģë§Į":5748,"Ġì¹¸":5749,"ëĵľê°Ģ":5750,"ĠëĤĺë©´":5751,"ìŀĲê³ł":5752,"Ġê³łë¥¼":5753,"Ġê°ĻëįĶëĿ¼êµ¬ìļĶ":5754,"Ġë§¤ë²Ī":5755,"ë§Īì¹´ë¡±":5756,"ĠìĦľìļ¸ìĹĲìĦľ":5757,"ëł¤ë©´":5758,"ëĲĺì§Ģ":5759,"ĠìķĬìĬµëĭĪëĭ¤":5760,"ëŀĺìļĶ":5761,"Ġì¡°ìĦ±":5762,"Ġìĸĳì§Ģ":5763,"Ġëĵ¤ìĸ´ìŀĪëĬĶ":5764,"ê±¸ë¦¬":5765,"ë°©ë²ķ":5766,"ĠìļĶê±´":5767,"Ġë¨¹ìĸ´ë³¼":5768,"Ġê°Ħë§ĮìĹĲ":5769,"Ġíı¼":5770,"Ġìļ´ëıĻìĿĢ":5771,"Ġìļ´ëıĻíķĺëĬĶ":5772,"ĠìĿ´ìļ©íķĺëĬĶ":5773,"ìĹ°êµ¬":5774,"Ġê±¸ìĸ´ê°Ģ":5775,"ĠìĹĲìĿ´":5776,"ìľ¡ë©´":5777,"ĠìĤ¬ëŀĮìĿĢ":5778,"ìĦ¤ëłģíĥķ":5779,"Ġìĭłë¦¼ëıĻê¸¸":5780,"ĠëĪĦêµ¬ëĤĺ":5781,"Ġì¢ħë¥ĺë³Ħë¡ľ":5782,"Ġìŀ¡ëĤ´":5783,"ĠìłĢëħģìĿĦ":5784,"Ġêµ¬ìĽĮì§Ħ":5785,"Ġë³¶ìĿĮë°¥ìĿĦ":5786,"ĠìĭľìĽĲíķĺê³ł":5787,"ê°Ķëĭ¤":5788,"ĠìħĢíĶĦë¡ľ":5789,"ëĳĺ":5790,"ĠíĻĶìŀ¥ìĭ¤ëıĦ":5791,"Ġê°ĸì¶°":5792,"Ġíģ´ë¦Ń":5793,"ĠíĬ¸ëŁ¬":5794,"Ġìĸ´ëĬĲìłķëıĦ":5795,"Ġê¹¨ëģĹíķľ":5796,"Ġêµ¿êµ¿":5797,"Ġë§ŀì¶°ìĦľ":5798,"Ġë°ĿìĿĢ":5799,"ĠìĬ¤íģ¬ë¦°":5800,"İĦ":5801,"ìĿ´íģ¬":5802,"ì§ł":5803,"íķĺìĺĢ":5804,"ë©ľ":5805,"ìķĦëĭĪ":5806,"Ġìĭłì´Įìŀ¥":5807,"Ġë¶ī":5808,"ìĿ¸ìĿĺ":5809,"ìĿ¸ë¶Ħ":5810,"Ġì£¼ëª©":5811,"Ġì¹´ëĿ¼":5812,"ĠìĤ¬ë¦¬":5813,"Ġë¬´ëĤľ":5814,"ĠìłĢì²ĺëŁ¼":5815,"Ġê¸°íļĮ":5816,"ìĽĲìĿĦ":5817,"ìĭĿíĥģ":5818,"Ġë¶Ģê·¼":5819,"ìĪŃ":5820,"Ġì¡°ê±´":5821,"íĥĢìĿ´":5822,"Ġë¹Ħê°Ģ":5823,"ĠíĥĲ":5824,"Ġê³³ìĿ¸ëį°":5825,"Ġì¤ĳìĹĲìĦľëıĦ":5826,"ëłĪìĿ¸":5827,"Ġëĵ±ê°Īë¹Ħ":5828,"Ġì¹´íİĺìĹĲ":5829,"ĠëıĻìĿ¼":5830,"Ġìŀ¥ì¹ĺ":5831,"Ġìŀ¥ìłĲìĿ´":5832,"Ġì§ĳìĿ´":5833,"Ġì´Īë²Į":5834,"Ġëĭ¬ë¦¬":5835,"Ġìµľìķł":5836,"Ġë¬¸ìĦ±ê³¨":5837,"ĠëĤ´ë¶ĢëıĦ":5838,"ĠìŀĲë¦¬ëıĦ":5839,"ĠìŃĪìļ±":5840,"Ġì¦Ĳê¸°ëĬĶ":5841,"ìłĳìĭľ":5842,"ëĪĦ":5843,"ĠëģĿëĤ´":5844,"ì¡ĮìĬµëĭĪëĭ¤":5845,"ĠìĿ´ê³³ìĹĲìĦľ":5846,"ìĪľëĮĢíĥĢìļ´":5847,"ĠìĿ´ë¯¸ì§Ģ":5848,"Ġíı¬ìĬ¤íĮħìĿĦ":5849,"Ġì§ľìŀĶ":5850,"Ġëĳĺëĭ¤":5851,"Ġìĭľì¼ľìĦľ":5852,"ĠìĿ´ë¦ĦìĿ´":5853,"ĠìĭłìĦłíķĺê³ł":5854,"Ġë´¤ëĬĶëį°":5855,"íļŁì§ĳ":5856,"ĠìĪĺëıĦê¶Į":5857,"Ġì¢ĮìĦĿìĿ´":5858,"ĠìĪĺìļĶê°Ģ":5859,"ĠíĶĦë¡ľê·¸ëŀ¨":5860,"ëķĲ":5861,"ĠìĬ¤ì¿¼íĬ¸":5862,"íĶĦë¡ľíķĦ":5863,"Ġë·°íĭ°":5864,"ĠíĬ¸ëłĪìĿ´ëĭĿ":5865,"Ġê¹ľì§Ŀ":5866,"Ġë¥´ëĦ¤ìĥģ":5867,"Ġë°±ëħĦëĭ¹":5868,"ĠíĶĦëŀľì°¨ìĿ´ì¦Ī":5869,"Ġë©´ë°ľ":5870,"ĠíĿĳìŀĦìŀĲ":5871,"ëī":5872,"ìĮ¤":5873,"ëıĮìĿ´":5874,"ë¡¬":5875,"ë¡ľê°Ģ":5876,"ìķķ":5877,"íķľëĭ¤ë©´":5878,"Ġì§Ŀ":5879,"ìķĦìĿ´":5880,"Ġìĭłë¦¼ë³¸ìłĲ":5881,"Ġìĭłë¦¼ì¶ĺ":5882,"ë¶Ļ":5883,"ĠìĿ´ìĥī":5884,"ĠìĪĺìľ¡":5885,"Ġê·¸ëĤĺ":5886,"Ġìĺ¤ë§Īì¹´ìĦ¸":5887,"Ġê³łìĸĳ":5888,"ë³´ìŀĲ":5889,"ìłĲìĭ¬":5890,"Ġëį®":5891,"ĠìķĪìĹĲëĬĶ":5892,"Ġìłķê°Ī":5893,"Ġë§İì§Ģ":5894,"Ġê°Ļê³ł":5895,"ĠëįĶìĬ¤íĥĢ":5896,"Ġë¶ĢëĮĢì°Įê°ľ":5897,"ìłľê°Ģ":5898,"Ġìĥģì²´":5899,"Ġì¡°ìĭ¬":5900,"Ġìĸĳê³łê¸°":5901,"Ġìļ°ëĮĢê°Īë¹Ħ":5902,"ë¨¹ê¸°":5903,"ë£Įë¥¼":5904,"ĠíĽĦëĿ¼ìĿ´":5905,"Ġê°ķëł¥":5906,"Ġíĺ¸ìŀ¬":5907,"ĠëıĻë°ĺ":5908,"Ġë°ĺê°ĳ":5909,"ìª½ê°Īë¹Ħ":5910,"Ġì§ĳìľ¼ë¡ľ":5911,"íĮĮê²Įíĭ°":5912,"ĠìĹ¬ê¸°ìłĢ":5913,"ĠìĺĪìķ½íķĺê³ł":5914,"ĠëĭŃë³¶ìĿĮíĥķ":5915,"ĠëĤłìĿĢ":5916,"ĠìĹĲìĿ´ëĵľ":5917,"Ġê°ģë§ī":5918,"ĠëĬĲëĤĮìĿ´ëĿ¼":5919,"Ġê±´ë¬¼ìĿ´":5920,"ĠíķĦëĿ¼íħĮìĬ¤ëĬĶ":5921,"ĠìłĦì²´ìłģìĿ¸":5922,"Ġë²łìĿ´ê¸Ģ":5923,"Ġëª¸ìĹĲ":5924,"ĠíĻĶìŀ¥ìĭ¤ìĿ´":5925,"ĠëĨĵê³ł":5926,"Ġë³´ìĹ¬ëĵľ":5927,"Ġíİ¸ë¦¬íķľ":5928,"Ġë¨¹ìľ¼ëĭĪê¹Į":5929,"Ġíİ¸ìķĪíķĺê²Į":5930,"Ġë¶ĪíĮĲìĹĲ":5931,"Ġìŀħë§ĽìĹĲ":5932,"Ġìĩ¼íķĳëª°":5933,"ê²ģê²Į":5934,"Ġìĸ´ì©Ķ":5935,"ĠìĬ¤íĬ¸ëłĪì¹Ń":5936,"Ġë¹ĦìĬ·íķľ":5937,"ĠìłķíĻķíķľ":5938,"Ġì§ľìŀ¥ë©´":5939,"ĠëĤ´ëĤ´":5940,"±ĥìĤ´":5941,"Ġë¥´ëĦ¤ìĥģìĬ¤":5942,"íķĢ":5943,"ê°Ĵ":5944,"Ġë§¥":5945,"ìłĿ":5946,"Ġìķ±":5947,"ëĤĺë´ĲìļĶ":5948,"Ġì£¼ê¸°":5949,"ĠíķĺìħĶìĦľ":5950,"Ġíķĺëħ¸":5951,"Ġê²ģ":5952,"ëĵľë¡ľ":5953,"ĠìĭľíĤ¬":5954,"Ġíķľëį°":5955,"ĠìłķìĭĿ":5956,"ìĤ¬ìĿ´":5957,"Ġëĵ¤ìĹĪìĬµëĭĪëĭ¤":5958,"ë¶Ħëĭ¹":5959,"ìĨĮê³łê¸°":5960,"Ġê²ĥì²ĺëŁ¼":5961,"Ġê¹ĬìĿĢ":5962,"ë¯¸ëĤĺ":5963,"ëĦ¤ë§Ī":5964,"Ġê±°ëĿ¼":5965,"Ġë¹Ħë°Ģ":5966,"ĠìĹ°ì¤ĳ":5967,"ìľĦë¡ľ":5968,"ë°©ìĹĲ":5969,"ë¥´íĬ¸":5970,"ĠìķĮì°¨":5971,"ĠëĶ°ëģĪ":5972,"ĠíĶ¼íģ´":5973,"ë²Īì¶ľêµ¬":5974,"Ġê°ĢëĬ¥íķĺ":5975,"ĠêµŃëĤ´ìĤ°":5976,"ëķĮëĬĶ":5977,"ĠíĺĦëªħ":5978,"Ġëª»ë¨¹":5979,"ĠíĬ¹ìłľ":5980,"Ġë§ĽìŀĪëĬĶê±°":5981,"Ġë¦°":5982,"ĠìĿĮìĭĿìĿĢ":5983,"Ġì¡°ê¸Īë§Į":5984,"ê¼Ī":5985,"ĠĠĠĠĠĠĠĠĠĠ":5986,"ìĭłë¦¼ëıĻ":5987,"Ġëĭ´ê²¨":5988,"Ġê¸¸ìĹĲ":5989,"........":5990,"ë·°íĭ°":5991,"ë°°ê¸°":5992,"ĠìĿ¸ë¶ĦìĿĦ":5993,"ëĪĪìĹĲ":5994,"ĠìĭĿê°ĲëıĦ":5995,"ĠíŀĺìĿĦ":5996,"Ġë§µê¸°":5997,"ĠëĤ¨ë¶ĢìĪľíĻĺë¡ľê¸¸":5998,"ë°Ľê³ł":5999,"ĠëĶ°ëľ»íķĺê²Į":6000,"ĠíĻľëıĻ":6001,"ĠíĥĦíĥĦ":6002,"ìĤ¬ì§Ħê´Ģ":6003,"Ġê¿Ģë§Ľ":6004,"Ġì¦Ĳê¸°ê³ł":6005,"ĠìŀĲìĹ°ìĬ¤ëŁ½ê²Į":6006,"Ġê¸°êµ¬íķĦëĿ¼íħĮìĬ¤":6007,"Ġêµ½ëĬĶ":6008,"ĠíĿ¡ìĪĺ":6009,"Ġê°Ģê¹Ŀê³ł":6010,"ĠìĭłìĽĲë¡ľ":6011,"ĠíĺľíĥĿ":6012,"ĠëłĪìĿ¸ëĵľëŀįì»¤íĶ¼":6013,"ê°ĢìĹĲ":6014,"ìĬ¤íħĮ":6015,"ì£¼ìħ¨":6016,"ĠìĿ´íķ´":6017,"ìŀ¥ê³¼":6018,"ĠíķĺëĬĶëį°ìļĶ":6019,"Ġíķĺìĭľë©´":6020,"Ġíķľëĭ¤ê³ł":6021,"ìĦ¸ë¥¼":6022,"ĠìĿ¸ìĦĿ":6023,"ĠìłĦìĭł":6024,"Ġê²ĥìŀħëĭĪëĭ¤":6025,"Ġë§Ľì§ĳìĿ¸":6026,"Ġì²Ļ":6027,"ĠëįĶíĶ¼ìŀĲ":6028,"ĠìĪŁê°ĢëĿ½":6029,"ĠìĥĿìĦł":6030,"íİĺìĿ´ì§Ģ":6031,"Ġë©Ķëī´ìĿ¸":6032,"ĠìĬ¤íĶ¼":6033,"Ġë¹Ħìļ©":6034,"ĠìĦłë¶Ī":6035,"Ġìļ°ì¸¡":6036,"Ġì¢ĭìķĦíķĺ":6037,"Ġëĭ¨ìĪľ":6038,"ìĤ°ìĨĮ":6039,"Ġìĭ¶ëĦ¤ìļĶ":6040,"Ġìĭ¶ìĹĪëįĺ":6041,"Ġê·¼ë¦°":6042,"Ġë°©ë¬¸ìĿĦ":6043,"ĠìĦłíĥĿíķł":6044,"ĠìĹŃìĤ¼ìĹŃë§Ľì§ĳ":6045,"ĠëĿ¼ìĿ¸":6046,"Ġìłģíķ©":6047,"ĠíıĲ":6048,"ĠìĿ´ìļ©íķ´ìĦľ":6049,"ì§ģìĺģìłĲ":6050,"ĠíĿī":6051,"ìĬ¤íĥĢìĿ¼":6052,"Ġëª©ìłģ":6053,"ĠêµĲìľ¡":6054,"ĠëģĿëĤĺê³ł":6055,"ĠìłĢëłĩê²Į":6056,"Ġê°Ģê¹ĮìĿ´":6057,"ëĳł":6058,"ëŁīìĿ´":6059,"íĻ©ìĨĮê³±ì°½":6060,"Ġê³¨ëª©ìĹĲ":6061,"Ġëª¨ë¥´ê²ł":6062,"Ġë¶ĢëĵľëŁ½ê²Į":6063,"ĠíĳľíĺĦ":6064,"ë³´ëł¤":6065,"Ġë°ľê²¬íķľ":6066,"Ġë²ĦìĬ¤ìłķ":6067,"ĠìĬ¤ì¿¼íĬ¸ë¥¼":6068,"ĠíħĮíĹ¤ëŀĢë¡ľ":6069,"Ġì¥":6070,"ëĭĮ":6071,"ëĬĶê±°":6072,"ê³°":6073,"ê³łê¹ĥì§ĳ":6074,"íķĺëł¤ê³ł":6075,"ëĿ¼ë¯¸":6076,"Ġë§Ľìľ¼ë¡ľ":6077,"Ġê°Ģë²¼":6078,"ìķĦë¦¬":6079,"Ġìĭłë¦¼ì¹´íİĺ":6080,"Ġë¨¹ëĭ¤":6081,"ĠëĤĺëĭĪ":6082,"ìŀĲëĬĶ":6083,"ê³¼ìĿĺ":6084,"ĠíķľëĪĪìĹĲ":6085,"Ġë§İìķĺëĭ¤":6086,"ìĤ¬ë¬´ìĭ¤":6087,"ĠìĨĮë¦¬":6088,"ëħĶ":6089,"ìĥģê°Ģ":6090,"ĠìĽĲìĿ¸":6091,"ĠìĿ¼ìĭĿ":6092,"Ġë²ĪìĹĲ":6093,"ê»ĺìļĶ":6094,"ĠëĳĲêº¼":6095,"Ġëĵľë¦¬ê³ł":6096,"Ġì¤ĺ":6097,"ìĻĶëĭ¤":6098,"ĠíķłìĪĺ":6099,"Ġê°ĢëĬ¥íķ´ìļĶ":6100,"Ġì¶Ķì²ľíķ´":6101,"ë°ĶíĥĢ":6102,"Ġë¬¼ê±´":6103,"Ġë¬¼ìĶ¬":6104,"Ġë°¥ìĿ´ëŀĳ":6105,"íĹ¬ìĬ¤":6106,"Ġë¦¬ìĸ¼":6107,"ĠëĬĲëĤĮëıĦ":6108,"ĠìĿĺë¯¸":6109,"ë°±ìĪľëĮĢ":6110,"Ġê°Ķëįĺ":6111,"ĠìĻĶëĬĶëį°":6112,"ë´ĲëıĦ":6113,"Ġë¿Įë¦¬":6114,"Ġë°ĶìĤŃë°ĶìĤŃ":6115,"Ġê°ĸê³ł":6116,"Ġëª¨ìŀĦìŀ¥ìĨĮ":6117,"Ġìĥģëĭ´ìĿĦ":6118,"Ġëĭµê²Į":6119,"ĠíĽĮëŀĦëĿ¼":6120,"ĠìĬ¤íĬ¸ëłĪìĬ¤":6121,"ë§ĪëĿ¼íĥķ":6122,"Ġìŀħê°Ģìĭ¬":6123,"Ġìĭłë¦¼ì¶ĺì²ľì§ĳ":6124,"´Ĳ":6125,"ëıĦëĬĶ":6126,"Ġìĭłë©Ķëī´":6127,"ê¸°ê°Ħ":6128,"ë¦¼íĶĦ":6129,"Ġê·¸ë¦´":6130,"Ġê·¸ëŁ´":6131,"Ġì£¼ìĥģ":6132,"ĠìķĦíģ¬":6133,"ĠëĤĺìĿ´":6134,"Ġë³´ì¦Ŀê¸Ī":6135,"ĠìĽ¬":6136,"ĠìķĪë°©":6137,"ĠìķĪëħķ":6138,"Ġë¶ĦëıĦ":6139,"íĮ¡":6140,"Ġë§ĽìŀĪìĹĪìĬµëĭĪëĭ¤":6141,"Ġë§İëįĶëĿ¼êµ¬ìļĶ":6142,"ë¬´íľ´":6143,"ĠìľĦì£¼ë¡ľ":6144,"Ġë§Ľì§ĳìĿ´ëĿ¼":6145,"ĠìłľìĻ¸":6146,"Ġëª¨ìĹ¬":6147,"ĠëĲĺëĭĪ":6148,"Ġêµ¬ìĹŃ":6149,"Ġê³µìĭ¤":6150,"Ġë¹Ļ":6151,"Ġì¤ĳìķĻ":6152,"Ġê°ľìļ´":6153,"ê²łì§Ģ":6154,"ê²łëĭ¤ëĬĶ":6155,"ê²©ìĿ´":6156,"Ġë¯¸ì³¤":6157,"ê·¼ì²ĺ":6158,"ĠìĥĿê°ģíĸĪëĬĶëį°":6159,"Ġì°¨ê°Ģ":6160,"Ġê°ĲíĥĦ":6161,"ì¢Į":6162,"Ġë¶Ħëĵ¤ìĿ´ëĿ¼ë©´":6163,"Ġì¦Ĳê±°":6164,"Ġì¹´íĨ¡":6165,"Ġíı¬ìŀ¥íķ´":6166,"ĠëģĿê¹Įì§Ģ":6167,"ëł¸ìĬµëĭĪëĭ¤":6168,"Ġìĸ´ëĸ¨":6169,"Ġê¸°ëĮĢê°Ģ":6170,"ìĿµìĤ°":6171,"ë°ĽìķĦ":6172,"Ġìĸ´ëł¤ìļ´":6173,"ë³´ë¶Ħ":6174,"Ġìıł":6175,"ì¼ĢìĿ´íĶĦ":6176,"ĠíĻĪíİĺìĿ´ì§Ģ":6177,"ĠëŁ¬ëĦĪìĬ¤":6178,"ĠìķĶíĬ¼":6179,"ëį¸ë§ģ":6180,"ĠìĮĢìĮĢ":6181,"ĠíģĲë¸Į":6182,"Ġê°ĸì¶Ķê³ł":6183,"Ġê·Ģíķľì¡±ë°ľ":6184,"Ġë¬¸ìĦ±ê³¨ì¡±ë°ľ":6185,"Ġíķĺëħ¸ìĿ´":6186,"¤ìĺ¤ë°ĺ":6187,"ìµľ":6188,"ëĭ·":6189,"ìĹĲë§Į":6190,"ê³łë£¨":6191,"ìļĶê±°":6192,"ê¸°ì§Ģ":6193,"ìľ¼ìĭľ":6194,"ëłĽ":6195,"ëĤĺë¦°":6196,"ìĹĪìĿĮ":6197,"Ġì¢ĭëĦ¤ìļĶ":6198,"ë¹Ħë¥¼":6199,"íĮģ":6200,"ĠìłĢìŀĳ":6201,"ĠìĿ¸êµ¬":6202,"ĠëĶ¤ìĦ¬":6203,"Ġì§Ģê¸Ģ":6204,"ĠìľĦìĹĲìĦľ":6205,"ĠìľĦìĬ¤íĤ¤":6206,"ĠëįĶë¶Ī":6207,"ĠìĽĲìĹĲ":6208,"ĠìĦľìļ¸ìĹŃ":6209,"ëĲĺë©°":6210,"ë§Ĳê³ł":6211,"ĠìĸĳìĿĢ":6212,"Ġëĵ¤ìĸ´ìŀĪìĸ´ìĦľ":6213,"Ġê´Ģì²ľ":6214,"ë¹¨":6215,"ì§ĪìĿĦ":6216,"Ġëĺ¥":6217,"ĠíĸĪëįĶëĭĪ":6218,"Ġìĸ´ë¨¸":6219,"ĠìĤ´ì½Ķ":6220,"íĺ¸ë°ķ":6221,"ĠìĥĪë¡Ńê²Į":6222,"Ġëĭ¬ëŀĺ":6223,"ĠìĤ¼íķ©":6224,"ëķĮë§Īëĭ¤":6225,"ĠëĭŃëĺ¥ì§ĳ":6226,"ĠëªħìĿ´ëĤĺ":6227,"ĠíĻķë³´":6228,"Ġì²ĺìĿĮìĹĶ":6229,"íķ´ì£¼ëĬĶ":6230,"íķ´ì£¼ìĭł":6231,"Ġëĭ´ëĭ¹":6232,"Ġë©Ķë¦¬":6233,"Ġê³¼ìłķ":6234,"ĠìĦ±ëĭ¹":6235,"Ġì¶ľìŀħêµ¬":6236,"ĠíĴįìĦ±":6237,"Ġë°ĺì°¬ìĿĢ":6238,"ĠìĹ°ìĦ¸ë¡ľëĭ¤ê¸¸":6239,"Ġì¦Ŀìłķ":6240,"Ġë¶Ģë¶ĦìĿĦ":6241,"Ġë¨¸ìĭł":6242,"íķ´ëĵľë¦¬ê³ł":6243,"Ġëľ¨ëģĪíķľ":6244,"Ġëĵłëĵłíķĺê²Į":6245,"Ġë§ĪëĿ¼ìĥ¤ìĺ¤ë°ĺ":6246,"ìĺ¤ëİħë°Ķ":6247,"ĠìłĦì£¼ìĿµìĤ°":6248,"Ġë¦¬ëª¨ëį¸ë§ģ":6249,"ĠíĿ¥ë¶Ģë³´ìĮĪ":6250,"ĠìĹ¬ê¸°ìłĢê¸°":6251,"ĠëįĶë¶Īìĸ´":6252,"¾¹":6253,"ĠìīĲ":6254,"Ġë·Ķíİĺ":6255,"íķ´ë¬¼":6256,"Ġíį½":6257,"ë¡ľìļ°":6258,"ëĵĢ":6259,"ĠìĿ´ê±¸":6260,"ìŀ¥ëıĦ":6261,"ëĤĺëĿ¼":6262,"Ġê·¸ê²Į":6263,"Ġëĭ¤ìĪĺ":6264,"ĠìķĦëĭ´":6265,"ĠìĤ¬ìĿ´ëĭ¤":6266,"Ġìĺ¤ëįĶ":6267,"ëĵľìĭľ":6268,"Ġìĭľì¯¤":6269,"ìĻĢëıĦ":6270,"Ġë§Īì°¬":6271,"Ġë¶ĦìĿĢ":6272,"ìĤ¬ëĬĶ":6273,"Ġê°Ļìķĺëĭ¤":6274,"ĠìĿ¸ìłĳ":6275,"ë§Īë¦¬":6276,"íŀĺ":6277,"Ġì§Ģë¦¬":6278,"íĦ°ë¥¼":6279,"ìĥģíĥľ":6280,"ì°¨ë¦¼":6281,"ĠìĹĨì£ł":6282,"Ġì¶ĶìĽĮ":6283,"ì½ķ":6284,"ë³¸ê°Ģ":6285,"ĠìľĦì¹ĺìĹĲ":6286,"Ġëĺ¥ì§ĳ":6287,"ĠìķĮìķĺ":6288,"Ġìľłë¦¬":6289,"ê´ĢìłĪ":6290,"Ġë§ĲìĿ´":6291,"Ġê°Ģê²©ìľ¼ë¡ľ":6292,"ëĲľëĭ¤ê³ł":6293,"Ġì¤Ģê³µ":6294,"íĿ¬ëĦ¤":6295,"ĠìĤ¬ìĿ´ê³µ":6296,"ë³µíķ©":6297,"Ġê°ĶìĿĦ":6298,"ĠìłĢëħģìĭľê°Ħ":6299,"Ġëľ»":6300,"ĠëĬĲëģ¼íķĺì§Ģ":6301,"Ġì¢Įì¸¡":6302,"Ġê¶ģê¸Īíķ´ìĦľ":6303,"ëįķìħĺ":6304,"Ġë°ĶìĤŃíķľ":6305,"ê³µê°ĦìĿ´":6306,"ĠíĬĢê¹Ģìĺ·":6307,"ëłĮì¦Ī":6308,"Ġíİ¸ë¦¬íķĺê²Į":6309,"ĠìķĦì§ģëıĦ":6310,"ĠíĥĪëª¨":6311,"Ġëĭµëĭµ":6312,"Ġìĭłê²½ìĿĦ":6313,"Ġì¦īìĭľ":6314,"Ġì§§ìĿĢ":6315,"Ġíķ¸ëĵľíı°":6316,"ĠìĬ¤íĶĦë§ģ":6317,"ĠìĹ°ì¤ĳë¬´íľ´":6318,"Ġë§Īì°¬ê°Ģì§Ģ":6319,"Ġíĩ´":6320,"ìĸ´ë¡ľ":6321,"ìĦľëıĦ":6322,"ì§ĢìĿĺ":6323,"ì§Ģê¸Ģ":6324,"ëĿ¼ë©ĺ":6325,"ìĬ¤íħĮìĿ´íģ¬":6326,"ë©´ìĿĦ":6327,"ìķĦë²Ħ":6328,"ĠìĿ´ìĹĲ":6329,"ëĤĺë¬´":6330,"Ġëĭ¤ìĿ´":6331,"ìŀĪìĹĪìĸ´ìļĶ":6332,"ĠìķĦíĶĦ":6333,"ì¹ĺë§Ī":6334,"Ġìĭľìĭľ":6335,"Ġë³´ëĭ¤ëĬĶ":6336,"íĸĪëĭ¤ê³ł":6337,"ìĭłíı¬ì°¨":6338,"ë¶Ħìĸĳ":6339,"ĠëĮĢíĮĮ":6340,"Ġë°Ķê¿":6341,"ë°¥ìĿ´":6342,"ĠëĬĲê¼Ī":6343,"Ġê´Ģëł¨":6344,"ìłĢìĶ¨":6345,"ìķĪëĤ´":6346,"ë¨¹ìĸ´ëıĦ":6347,"Ġíİ¸íķĺê³ł":6348,"ê°ľë°ľ":6349,"ĠíĽĦì¶Ķ":6350,"ĠíĨ¤":6351,"Ġì°¾ìĿĢ":6352,"íķĺê¸°ë¡ľ":6353,"ĠìłģìĿĢ":6354,"íĿ¡":6355,"ĠìĿ´ìļ©íķľ":6356,"ĠìĿ´ìļ©íķĺë©´":6357,"íļĮëľ¨":6358,"Ġì£¼ì°¨ëĬĶ":6359,"ìĥīìĿ´":6360,"Ġë³´ìĿ´ìĭľëĤĺìļĶ":6361,"ĠíŀĺìĿ´":6362,"Ġì¶Ķê°Ģíķ´ìĦľ":6363,"ĠìĻ¸ìĹĲ":6364,"Ġìļ°ë¦¬ìĿĺ":6365,"Ġê°Ķìĸ´ìļĶ":6366,"ìĽłìĬµëĭĪëĭ¤":6367,"ĠëĨĢëĿ¼":6368,"Ġì¶ľìŀħ":6369,"ĠíĽĪ":6370,"Ġì¹ľìłĪíķľ":6371,"Ġëľ¯":6372,"ì¹´ëłĪ":6373,"Ġë³´ìĹ¬ìĦľ":6374,"Ġë²½ìĹĲ":6375,"ĠëĦ¤ìĿ¼ëĤĺë¦°":6376,"Ġë©ĶìĿ¸ë©Ķëī´":6377,"Ġë°©íĸ¥ìľ¼ë¡ľ":6378,"Ġìĸ´ëłµì§Ģ":6379,"ĠëĵľìħĶë³´ìĦ¸ìļĶ":6380,"Ġìŀĩëª¸":6381,"ĠìĿ´ìģĺê²Į":6382,"Ġìĭ±ìĭ±íķľ":6383,"ĠìĺĪë»ĲìĦľ":6384,"ì²´ëª¨":6385,"Ġì¸¡":6386,"ĠíĿĺëŁ¬":6387,"ĠìĹŃíķłìĿĦ":6388,"Ġëª¨ëª¨ìķ¼":6389,"ìª¼":6390,"íĲģ":6391,"ê³¨ìĿ´":6392,"ê³łìĭľ":6393,"ë§ĺ":6394,"Ġê°Ģë³¼":6395,"Ġë¨¹ë°©":6396,"ëĤĺëª¬":6397,"Ġíķĺì²´":6398,"ĠëĤĺë¨¸":6399,"ĠìľĻ":6400,"ê±°ê°ĻìķĦìļĶ":6401,"Ġë³´ìľł":6402,"ìĿĮë£Į":6403,"ĠìķĪëĲĺëĬĶ":6404,"íĮ©":6405,"ĠìĨĮë§¥":6406,"ĠìĿ¸ìļ©":6407,"ìĺ¤íĶ¼ìĬ¤":6408,"ĠëĮĢëĭ¨":6409,"ìĨĮë¥¼":6410,"ĠìķĬìķĺëĬĶëį°":6411,"ĠìĹĨëĭ¤ëĬĶ":6412,"Ġë°©ìĭĿ":6413,"Ġë°©ìĨ¡":6414,"ìłľë¡ľ":6415,"Ġêµ¬ê°ķ":6416,"ĠìĿ¼íĸī":6417,"êµŃë¬¼":6418,"Ġì£¼ë¬¸íķĺëĬĶ":6419,"Ġê°ľê°Ģ":6420,"Ġê°ľë¥¼":6421,"Ġì¢ĭìķĦíķł":6422,"ĠìĦ¸ëł¨":6423,"Ġìĭ¶ëĭ¤ë©´":6424,"Ġê·¼ëł¥":6425,"ëªħìĿ´":6426,"Ġê°ĢëĬ¥íķ´ìĦľ":6427,"ĠìĨĲíĨ±":6428,"ĠìµľìĨĮ":6429,"Ġê¹ĢìĹĲ":6430,"Ġëĵ¤ìĸ´ê°ĢëĭĪ":6431,"ĠìĿ´ìļ©ìĿ´":6432,"ĠëªħìĿ´ìĦľ":6433,"Ġìķ¼ëģ¼":6434,"Ġì¢ħìĿ´":6435,"ĠìĪľìĤ´":6436,"ĠêµŃë¬¼ëıĦ":6437,"Ġì»¤íĶ¼ìĻĢ":6438,"Ġë§¤ìļ´íĥķ":6439,"Ġìĺ¬ëĿ¼ìĺ¤":6440,"Ġê¸ĪìļĶìĿ¼":6441,"Ġì¢ĭìĿĦëĵ¯":6442,"ĠëĪĦíħĶëĿ¼":6443,"ë´¤ëĭ¤":6444,"Ġê¹Ģì¹ĺê°Ģ":6445,"ìĽłëĬĶëį°":6446,"ëħ¸ë¦ĩ":6447,"Ġê´Ģë¦¬ê°Ģ":6448,"ĠíĻķìĿ¸íķł":6449,"ĠìķĦëĭĮëį°":6450,"Ġìŀ¬ë£Įê°Ģ":6451,"ĠìĽĲëŀĺëĬĶ":6452,"Ġì£¼ë§ĲìĹĲ":6453,"Ġíİ¸ë¦¬íķĺê³ł":6454,"Ġìĭľì¼°ìĸ´ìļĶ":6455,"ìĭľìĦ¤ìĿ´":6456,"Ġê¹¨ëģĹíķĺê³ł":6457,"ĠìĦľê°ķëĮĢìĹŃ":6458,"ĠìłĦìļ©ë©´ìłģ":6459,"ĠíĢĦë¦¬íĭ°ê°Ģ":6460,"Ġë½Ģ":6461,"ĠíıīìĨĮìĹĲ":6462,"ĠëĵľìħĶë³´":6463,"ë§İìĿĢ":6464,"Ġêº¾":6465,"ĠíļĮìĽĲëĭĺëĵ¤ê»ĺìĦľ":6466,"Ġë°Ģíģ¬íĭ°":6467,"Ġëħ¸ë¦ĩëħ¸ë¦ĩ":6468,"ë¸Ķë¡ľê·¸":6469,"Ġì»¤ìĬ¤íħĢìĥĲëŁ¬ëĵľ":6470,"Ġìĭłì´Įìŀ¥êµ°":6471,"ĻëĭĪëĭ¤":6472,"ĠìĮ":6473,"ëĭ¤ëŀĳ":6474,"íķĺê¸´":6475,"ë¡ľëĭĪ":6476,"ë¡ľë§Ī":6477,"íķľëĭ¤ëĬĶ":6478,"ë¬µ":6479,"ĠëĭĪ":6480,"ë³´ë¥¼":6481,"Ġë§ĽìĹĨ":6482,"ìķĦì§Ģ":6483,"Ġë¨¹ê¸°ëıĦ":6484,"ìĹĪëĦ¤ìļĶ":6485,"ĠìĪĺìĽĶ":6486,"ì°¾":6487,"Ġëĭ¤ìĨĮ":6488,"ĠìķĦìĺĪ":6489,"ë§ĮìĽĲ":6490,"Ġê¸ģ":6491,"Ġìĭľíĭ°":6492,"ĠëĤĺëī":6493,"ê³¼ëıĦ":6494,"Ġìĭłë¦¼ìĹŃìĿĢ":6495,"Ġíķľìĥģ":6496,"ìĦ¸ê¶ĮìĿ´":6497,"Ġìĭłì´ĮìĹŃìĿĢ":6498,"ĠìłķìĪĺ":6499,"ĠìłĦìĭľ":6500,"ĠëĮĢìĻķ":6501,"íĺĪ":6502,"Ġìłľìľ¡":6503,"ìłģìĿ´ê³ł":6504,"ëŀĺë°©":6505,"ìłľíķľ":6506,"ê¸¸ìĿ´":6507,"ĠëıĦë³´ë¶Ħ":6508,"ìķĪíĹ¤ìĸ´":6509,"ë¥´ì§Ģ":6510,"ìĤ°ìĭľ":6511,"ĠìľłìĿ¼":6512,"ĠìľłìĤ°ìĨĮ":6513,"Ġìŀ¥ìĸ´":6514,"Ġê°ĦìĭĿ":6515,"Ġìĸ´ë¥":6516,"ĠëĿ¼ìŀĦ":6517,"Ġì´Īë¡Ŀ":6518,"Ġìļ´ëıĻìĿ´":6519,"Ġìļ´ëıĻíķł":6520,"ĠìĨĲìĥģ":6521,"ĠíķĺëĤĺëĬĶ":6522,"ë¦°ëĭ¤":6523,"Ġìĭ¤íĮ¨":6524,"Ġê±¸ëł¤":6525,"Ġíıīë²Ķ":6526,"ĠìĤ¬ìŀ¥ëĭĺìĿĺ":6527,"ĠíĽĦê¸°ìŀħëĭĪëĭ¤":6528,"Ġíķ´ì£¼ìħĶìĦľ":6529,"Ġê±°ë¦¬ê°Ģ":6530,"Ġë³¶ìĿĮë°¥ëıĦ":6531,"ĠìĿ¸íħĮë¦¬ìĸ´ëıĦ":6532,"Ġì¤Ħìĸ´":6533,"Ġê¸°ëĭ¤ë¦¬ê³ł":6534,"Ġìĭ¬ìĭ¬":6535,"ĠìĦ¸íĬ¸ë¡ľ":6536,"ëĳĶ":6537,"ĠíĻĶìŀ¥ìĭ¤ìĿĢ":6538,"ĠìĻľëĥĲ":6539,"ĠìĺĪìģĺê³ł":6540,"íķĺìĭľê¸¸":6541,"ëłĮì§Ģ":6542,"ĠìĹħì²´":6543,"ĠíľĺíĶ¼":6544,"Ġëĸłìĺ¬":6545,"ì¤ĺìļĶ":6546,"Ġë¹Ħì£¼ìĸ¼ìĿ´":6547,"Ġì¢ĮìĦĿëıĦ":6548,"Ġê³łì¶Ķìŀ¥":6549,"ĠëĨĢëŁ¬ìĻĢíĶĮ":6550,"ëĩ¨":6551,"Ġêµ³ìĿ´":6552,"Ġë³¸ê²©ìłģìľ¼ë¡ľ":6553,"Ġë§ĳìĿĢ":6554,"ĠëŁ¬ëĦĪìĬ¤íķĺìĿ´":6555,"ì²´ëª¨ìŀĦ":6556,"íĵ¨":6557,"Ġëº":6558,"íķĺëł¤":6559,"ìĿĦê¹Į":6560,"ĠìŀĪê²łìĬµëĭĪëĭ¤":6561,"Ġë§ĽëĤĺê²Į":6562,"Ġê°ĢëıĦ":6563,"Ġë¨¹ê¸°ìĹĲ":6564,"ëŁ¿":6565,"Ġíķĺìĭł":6566,"ì¹ĺìķĦ":6567,"Ġì¢ĭì§Ģ":6568,"ëĮĢìļĶ":6569,"ëĮĢë¥¼":6570,"Ġìĺ¤ë¹ł":6571,"ĠìĿ´ë¸Į":6572,"Ġë©Ī":6573,"Ġë§ĽìŀĪìĹĪê³ł":6574,"ë£°":6575,"Ġë§¤ì§ģ":6576,"ĠìłĦêµŃ":6577,"ĠìĹ¬ìŃ":6578,"ĠìĹ¬ìłĦíŀĪ":6579,"ë°¥ìĿĦ":6580,"ĠìĿ¼ìłķ":6581,"Ġë©Ķëī´ìĹĲ":6582,"ĠíĸĪëĬĶëį°ìļĶ":6583,"Ġë°©ë¬¸íķł":6584,"íı¬ìĬ¤íĦ°":6585,"ëª¨ëĭĺ":6586,"Ġë§ĲìķĦ":6587,"ĠìĻĢëıĦ":6588,"íķĻìĽĲ":6589,"Ġìĺ¬ëĿ¼ê°ĢëĬĶ":6590,"Ġê¸¸íļĮëľ¨":6591,"ĠìĺģìĹħìĭľê°ĦìĿĢ":6592,"ë¹µì§ĳ":6593,"ĠìĿĮë£ĮëıĦ":6594,"ĠìĦ±ë¯¼":6595,"ĠíĴįê²½":6596,"Ġë£¸ìĿµìĬ¤":6597,"Ġëª¸ìĿĦ":6598,"Ġê¶ģê¸Īíķĺìĭł":6599,"Ġë³´ìĹ¬ìļĶ":6600,"ĠíĥĪìĥī":6601,"ĠíĥĪì¶ľ":6602,"ĠìĶ¹íŀĪëĬĶ":6603,"Ġë¹¼ê³ł":6604,"Ġë¶Ģì¡±íķľ":6605,"ĠëĴ·ê³łê¸°":6606,"Ġìĸ´ì©Į":6607,"ĠìĿ¸ìĬ¤íĥĢê·¸ëŀ¨":6608,"ì½ľëĿ¼":6609,"Ġë¨¹ìŀĲê³¨ëª©":6610,"ë¥´ë¥´":6611,"ĠëĳĲë¦¬ëĭŃë°ľ":6612,"Ġë¨¸ë¦¿ê²°":6613,"íĶĮëłīìĬ¤":6614,"Ġì£¼ìĥģë³µíķ©":6615,"ĠìĹ¬ìŃ¤":6616,"íį½":6617,"íķ«":6618,"ĠìĹ½":6619,"ĠìĹĶ":6620,"ì¹¨ìĿ´":6621,"íķ´ìŀ¥êµŃ":6622,"ë©´ìĿ´":6623,"Ġê·ł":6624,"ì§ĳìĹĲ":6625,"Ġë¨¹ëĭ¤ë³´ëĭĪ":6626,"ĠìĿ´ìķĪíĹ¤ìĸ´":6627,"ĠíķĺíĬ¸":6628,"ìŀĪìľ¼ëĭĪ":6629,"Ġìĺ¤ìĿ¼":6630,"Ġìĺ¤ê²¹ìĤ´":6631,"ë³´ëĭĪê¹Į":6632,"ë¹Ħê°Ģ":6633,"ìĻĢëĬĶ":6634,"Ġë¶ĦìĿ´ë©´":6635,"ĠìłķìĦĿ":6636,"íĸĪëĦ¤ìļĶ":6637,"ĠëĮĢíĺĦëıĻ":6638,"Ġì§Ģì¼ľ":6639,"Ġëª¨ëį¸":6640,"Ġëª¨ëĳł":6641,"ĠìĪ²":6642,"ìłĦìĿĦ":6643,"ìłĦìļ©":6644,"ìĪ²ê¸¸":6645,"ĠìĥģìĹħ":6646,"Ġë©Ķëī´ëĵ¤":6647,"ê¸¸ìĹĲ":6648,"Ġë¹Ħì¹ĺ":6649,"ĠìĹ°ëł¹":6650,"Ġíı¬íģ¬":6651,"ĠìļĶê¸Ī":6652,"Ġë¬´ìĿ¸":6653,"Ġë¯¸êµŃ":6654,"Ġìľłíĸī":6655,"Ġëĵľë¦´":6656,"ìħ¨ìľ¼ë©´":6657,"Ġë°ĺëĮĢ":6658,"ĠìĤ´ìĤ´":6659,"Ġìĭľê°ĦìĿĢ":6660,"íĺ¸íħĶ":6661,"ĠìĽĶìĹĲ":6662,"Ġë§īê±¸ë¦¬":6663,"íıĲ":6664,"ĠìĪłì§ĳìĿ´":6665,"ĠìĤ¬ìļ©íķł":6666,"Ġê¸¸ìĿ´":6667,"Ġíı¬ìŀ¥íķ´ìĦľ":6668,"Ġì»´":6669,"ë´¤ìĬµëĭĪëĭ¤":6670,"Ġë³¶ìĿĮë°¥ìĿĢ":6671,"Ġìĸ´ëĸł":6672,"ĠìĿĮë£Įë¥¼":6673,"Ġíı¬ìĬ¤íĦ°":6674,"Ġë³´ê¸°ë§Į":6675,"ĠìŀĲìĦ¸íķĺê²Į":6676,"ë¬´ëĶĶ":6677,"ĠíĹĪë²ħ":6678,"ĠíķĻìĽĲ":6679,"Ġíķ©ê²©":6680,"ĠíĮĶê¿Ī":6681,"Ġì¼ĢìĿµ":6682,"ì©į":6683,"Ġì°°ë¦¬":6684,"ëĵľë¦¬ê²łìĬµëĭĪëĭ¤":6685,"ìĨĲëĭĺ":6686,"Ġìĺ¤ëİħíĥķ":6687,"ĠìĿ¸ìĥĿê³łê¸°":6688,"ĠìľĦíķ´ìĦľëĬĶ":6689,"ĠíĨµì¦ĿìĿ´":6690,"Ġê¾¸ë©°ìł¸":6691,"ĠìķĦìĤŃíķľ":6692,"Ġì¹¼ì¹¼íķľ":6693,"Ġì§ĢìĨįìłģìľ¼ë¡ľ":6694,"íĶĦëłĪìĨĮ":6695,"Ġê³µëıĻì£¼íĥĿ":6696,"ĠíĬ¸ëŁ¬íĶĮ":6697,"Ġì§Ģê¸Ģì§Ģê¸Ģ":6698,"ĠìĦ±ë¯¼ìĸĳê¼¬ì¹ĺ":6699,"Ġë£¸ìĿµìĬ¤ì¼ĢìĿ´íĶĦ":6700,"Ġì¯¤":6701,"Ġìķ¤":6702,"ì§Ģë©´ìĦľ":6703,"´ëķĮ":6704,"´ë¶Ģ":6705,"ëĿ¼ë§Ī":6706,"ìĭľëĦ¤ë§Ī":6707,"ìĬ¤ìĹĲ":6708,"ĠìĦ¬":6709,"êµ¬ë¡ľ":6710,"Ġê°Ģë£¨":6711,"ìķĦì°Į":6712,"ĠìĪĺë¶Ħ":6713,"Ġëª½":6714,"ĠìĤ¬ëĬĶ":6715,"ĠìĤ¬ê³ł":6716,"Ġìĺ¤ìĿ´":6717,"Ġìĺ¤ê¸°":6718,"Ġë§Īëĵ¤":6719,"ìħĢ":6720,"ĠìķĪìĤ°":6721,"ë£½":6722,"íĸĪìĹĪëĬĶëį°":6723,"ĠìłĦê¸°":6724,"íŀĲ":6725,"Ġê²ĥë³´ëĭ¤":6726,"Ġë§Ľì§ĳìĿĢ":6727,"Ġëª¨ìŀĲ":6728,"ĠìĽĲì£¼":6729,"Ġì§Ħíķĺê³ł":6730,"Ġì§ĦìĹ´ë":6731,"Ġêµ¬ê°Ħ":6732,"Ġêµ¬ìĦĿ":6733,"ĠìĿ¼ìĸ´ëĤĺ":6734,"ĠìĺĪìĪł":6735,"ĠëıĦëĳĳ":6736,"ĠìĦłë¦ī":6737,"ë¹Ķ":6738,"ìĤ´ìĿĦ":6739,"Ġë¯¸ëĤ¨":6740,"Ġì¹´íİĺìĹĲìĦľ":6741,"ì£µ":6742,"ĠìķĮìķĦìĦľ":6743,"ĠìĪłëıĦ":6744,"ĠìĪłìĪł":6745,"Ġì¤įëĭĪëĭ¤":6746,"Ġëĭ¤ìĸĳíķ´ìĦľ":6747,"ĠìĤ¼ê²¹":6748,"íĿĳ":6749,"ĠëĭŃê°ĢìĬ´":6750,"íĴĢ":6751,"Ġìĭ¤ëł¥":6752,"Ġëħ¸ëŀĢ":6753,"Ġëª»íķľ":6754,"ë¶Īíĺ¸":6755,"ĠìŀĲë¦¬ìŀ¡":6756,"Ġê¹ĶëģĶíķ´ìĦľ":6757,"Ġë¨¹ëĬĶê²Į":6758,"ĠìŀĪìĸ´ìķ¼":6759,"Ġë³¶ìķĦì£¼":6760,"íķ´ì£¼ìĭľëĬĶ":6761,"Ġê³¨ê³łë£¨":6762,"Ġì¹´ìļ°":6763,"Ġíķľë²ĪìĶ©":6764,"ĠëĲĺìĸ´ìŀĪìĸ´ìĦľ":6765,"Ġë¹µìĿ´":6766,"ìĭłì´Įì¹¼êµŃìĪĺ":6767,"ĠìķĦëĭĪëĿ¼ìĦľ":6768,"Ġë¨¸ë¦¬ì¹´ë":6769,"Ġì¶©ê²©":6770,"Ġíĳ¸ì§Ĳíķĺê³ł":6771,"ìĨĮìĬ¤ìĹĲ":6772,"ìĨĮìĬ¤ê°Ģ":6773,"ĠíĶĮëŀĺ":6774,"Ġì¦Ŀìĥģ":6775,"Ġëª¨ë¥´ê²łì§Ģë§Į":6776,"Ġëľ¨ê±°ìļ´":6777,"ë¨¸ëĭĪ":6778,"Ġì¶ĶìĸµìĿĺ":6779,"Ġë§Īì¹ĺê³ł":6780,"Ġíĩ´ê·¼íķĺê³ł":6781,"Ġê¸°ì¤Ģìľ¼ë¡ľ":6782,"Ġìĸ¼íģ°íķľ":6783,"ĠìĬ¹ê°ķ":6784,"Ġì²¨ë¶Ģ":6785,"Ġíķ´ë³¼":6786,"ĠìłģìłĪíķľ":6787,"ĠìĥĿìĥĿìłķë³´":6788,"Ġìĺģíĸ¥ìĿĦ":6789,"ìĪ¯ë¶ĪëĭŃê°Īë¹Ħ":6790,"ìĹ°êµ¬ìĨĮ":6791,"Ġë¶īìĿĢ":6792,"Ġë¨¸ë¦¬ì¹´ëĿ½":6793,"ë½":6794,"ŃìĤ°ìĭľ":6795,"Ġìª¼":6796,"íķĺìħĶëıĦ":6797,"ìĸ´ì§Ħ":6798,"ìĬ¬ë":6799,"Ġìĭłìĭłíı¬ì°¨":6800,"ĠìĿ´ìĪĺ":6801,"ĠìĪĺìĿµ":6802,"ë¬¸ìĿĺ":6803,"íĬ¸ë¦¬":6804,"ĠìľĹ":6805,"ìŀĲë¡ľ":6806,"ë³´ìĭł":6807,"ìĦ¸ìĺ¤":6808,"ìļ©ìĦłìĥĿ":6809,"Ġë§İìĿĦ":6810,"Ġë§İìķĺëĬĶëį°":6811,"ĠìĨĮìŀ¬":6812,"ĠìĿ¸ë°ĶëĶĶ":6813,"íħĶë¡ľ":6814,"ĠëĮĢë§Į":6815,"ĠëĮĢíĻĶ":6816,"Ġì§ĢëıĦë¡ľ":6817,"ĠìĹŃìĹĲìĦľ":6818,"ìłķìľ¡ìĭĿëĭ¹":6819,"ĠìĿ¼íļĮ":6820,"Ġê±°ìĺĪìļĶ":6821,"Ġë¹ħ":6822,"ĠìĹ°ìŀ¥":6823,"íĶĦëłĪìĬ¤":6824,"Ġë¨¹ìĸ´ë³´ëĭĪ":6825,"Ġìĭ¶ìĬµëĭĪëĭ¤":6826,"ë°ĺìłĲ":6827,"Ġì§ĳìĿĦ":6828,"Ġì»¤ìĦľ":6829,"ĠìķŀìĦľ":6830,"Ġë¬¼ëĥīë©´":6831,"Ġëĵ¤ìĸ´ê°Ģê¸°":6832,"ê³³ìĿĢ":6833,"ì¢Ģ":6834,"ĠëªħìĿ´":6835,"ĠíħĮìĿ´ë¸Ķê³¼":6836,"Ġë§ŀì¶Ķ":6837,"ìĿ´ëĭ¤ë³´ëĭĪ":6838,"íĹĺìĿ´":6839,"ĠìĪľíĻĺ":6840,"´ë¥ŃìĤ°ìĭľ":6841,"Ġë©Ķê°Ģ":6842,"Ġì²´ê³Ħ":6843,"Ġë§Įëĵ¤ìĸ´ìĦľ":6844,"ĠíĨłìĬ¤íĬ¸":6845,"Ġë§ĪìĿĮìĿĦ":6846,"Ġê·Ģì°®":6847,"Ġëĸ¨":6848,"Ġê³¼ìŀĲ":6849,"Ġìĺ¬ëł¤ìł¸":6850,"ĠìĿĮë£ĮëĬĶ":6851,"Ġíĸ¥ê¸ĭ":6852,"ĠìĥģíĥľìĹĲìĦľ":6853,"Ġë°ķìŀ¬":6854,"Ġìķłë§¤":6855,"Ġê°ĸì¶ĺ":6856,"Ġì²«ë²Īì§¸":6857,"Ġê·¸ëłĩê³ł":6858,"Ġíĭ°ëĿ¼ë¯¸":6859,"ĠìĹ°ìĦ¸ëĮĢíķĻêµĲ":6860,"íĻĶëĲľ":6861,"ĠíĮĮìĿ´íĻĢ":6862,"ìķŀìĹĲ":6863,"íĬĢê¹ĢìĿ´":6864,"Ġëĭ¬ì½¤íķľ":6865,"Ġíģ´ëŀĺìĭĿ":6866,"Ġê¹įëĳĲê¸°":6867,"Ġë°°íĽĦìĪĺìļĶ":6868,"Ġê°¬ìĦ±":6869,"ĠíĺĦëªħìĭĿíĥģ":6870,"ĠëªħìĿ´ëĤĺë¬¼":6871,"ëĭ¤ëŀĳìĸ´":6872,"´ë¥ŃìĤ°ìĭľëıĦìĤŃë©´":6873,"ê¿į":6874,"ìĹī":6875,"ìĿ´ëĮĢ":6876,"ìĿ´ëįĶëĿ¼êµ¬ìļĶ":6877,"ìĭľì§Ģ":6878,"ìĬ¤ìĭľ":6879,"ìĿĺìĭ¤":6880,"Ġê°Ģë§¥":6881,"ì£¼ë°©":6882,"Ġìĭłë¦¼ìĪłì§ĳ":6883,"Ġê·¸ëĤł":6884,"ê¹Įë´Ĳ":6885,"Ġíķľëĭ¤ëĬĶ":6886,"ĠìĿ´ëŀĺ":6887,"ĠìķĪëĤĺ":6888,"ë¶Ģë¦¬":6889,"ĠìŀĲë¦¬ëĬĶ":6890,"ĠìĨĮë¹Ħ":6891,"ì¦Į":6892,"ĠìŀĪëĬĶê²Į":6893,"ëł¤ìķ¼":6894,"Ġê±´ë¥ŃìĤ°ìĭľëıĦìĤŃë©´":6895,"ëĲĺìĹĪëĭ¤":6896,"ì°¨ìĹŃ":6897,"ĠìĹĨìĹĪëĬĶëį°":6898,"Ġì¡°íĻĶ":6899,"Ġê³µìĹ°":6900,"ĠìŀħìĹĲìĦľ":6901,"ĠìĹ°ì¶ľ":6902,"Ġì¤ĳíĻĶ":6903,"ĠíĻĶìļĶìĿ¼":6904,"ĠëĤ´ìĹĲ":6905,"ìł¸ìļĶ":6906,"Ġì°¾ëĭ¤ê°Ģ":6907,"ĠìĦ¸ìĭ¬":6908,"ĠíĸĪê³ł":6909,"Ġíĺ¸ë¶Īíĺ¸":6910,"ê°ĲëıĦ":6911,"Ġìĸ´ëĳĲ":6912,"ĠìĿ´ëłĩ":6913,"ëĥĦ":6914,"ĠíĶ¼ìķĦëħ¸":6915,"Ġì°¨ëł¤":6916,"Ġì¶Ķì²ľíķĺê³ł":6917,"ĠìĹ¬ê¸°ëıĦ":6918,"Ġë°Ľìķĺ":6919,"ì¡°íķ©":6920,"íķ©ëĭĪëĭ¹":6921,"Ġëª»íķĺëĬĶ":6922,"Ġë¶Ħëĵ¤ìĿĦ":6923,"Ġëĭ¤ìĿĮëĤł":6924,"ĠìĪľìĤŃ":6925,"ĠìĦ¤ëłģíĥķ":6926,"ìŀ¬ë£Į":6927,"íķ´ì£¼ìĭľ":6928,"íĳ¼":6929,"ëģĿ":6930,"ĠìĨįìĹĲ":6931,"Ġê³ĦëŀĢíĽĦëĿ¼ìĿ´":6932,"Ġë¿ľ":6933,"Ġì°¾ìķĦìĺ¤":6934,"ĠìłĢëł´íķĺê³ł":6935,"Ġë³µë¶Ģ":6936,"Ġê´ľì°®ìĿĦ":6937,"ĠëĤľìĿ´ëıĦ":6938,"Ġìŀħêµ¬ê°Ģ":6939,"ĠíĴįë¯¸ê°Ģ":6940,"Ġìĥģíĥľë¥¼":6941,"ĠíĸīìĤ¬":6942,"Ġìļ©ìļ©ìĦłìĥĿ":6943,"íķĺìĭłëĭ¤ë©´":6944,"ë¿ľ":6945,"ĠìĨĮê¸Īë¹µ":6946,"ê½ĥì§ĳ":6947,"Ġê²īë°Ķ":6948,"ĠíĻĢë¦¬":6949,"ë²łìĿ´ì»¤ë¦¬":6950,"Ġì»¨ëĶĶìħĺ":6951,"Ġì¦īìĦĿ":6952,"Ġë§µì°ĶìĿ´":6953,"Ġê³µìĺģì£¼ì°¨ìŀ¥":6954,"Ġì¹łë¦¬":6955,"Ġê¹Ģê´ĳìĦĿìĭłì´Įì¹¼êµŃìĪĺ":6956,"ĠëįĶëįĶìļ±":6957,"Ġíį½íį½":6958,"Ġê¸¸íļĮëľ¨ëĭ¤":6959,"¤Ħ":6960,"Ġë±ĥìĤ´":6961,"Ġë§ģ":6962,"ëıĦëĦĽ":6963,"ê°Ģë©°":6964,"ëįľ":6965,"ê²ĮëıĦ":6966,"ê²ĮíĬ¸":6967,"ìľ¼ìĭľë©´":6968,"Ġê°Ģì§Ħ":6969,"Ġê°Ģë¦¬ë¹Ħ":6970,"ì°¹":6971,"Ġì£¼ë¯¼":6972,"Ġì£¼ìħ¨ëĭ¤":6973,"íĬ¸ìĿ¸":6974,"Ġìĺ¤ëıĻ":6975,"ê±°ê°Ļ":6976,"ìĪĺìĹħ":6977,"Ġëĵ¤ìĹĪëįĺ":6978,"ë¶Ħëĵ¤ëıĦ":6979,"ĠìľĦë¡ľ":6980,"ĠìĽĲìĤ°":6981,"ìļ°ë©´":6982,"ëĲĺë©´ìĦľ":6983,"ì°¨ê°Ģ":6984,"ĠíĮį":6985,"ĠìĹĨëĭ¤ê³ł":6986,"ĠëĲĺê²ł":6987,"ĠìŀĺëĿ¼ìĦľ":6988,"íĨ°":6989,"Ġêµ¬ì¶ķ":6990,"Ġìĥģëĭ":6991,"Ġì¡°íĻĶê°Ģ":6992,"Ġì£¼ë¬¸ìĿ´":6993,"Ġê³łê¸°ìĿĺ":6994,"Ġìļ°ë¦°":6995,"Ġìĸ´ìĦľ":6996,"Ġë¯¸ë¶Ħëĭ¹":6997,"ìŀĦìĹĲëıĦ":6998,"ìĺĢëĭµëĭĪëĭ¤":6999,"Ġìĭ¶ìĹĪìĸ´ìļĶ":7000,"Ġë°©ë¬¸íķĺê²Į":7001,"ĠëıĻê·¸":7002,"íĶĮëĿ¼ìĽĮ":7003,"Ġëĵľë¦½ëĭĪëĭ¤":7004,"íĮĲìĹĲ":7005,"ë¶ĢíĦ°ëĬĶ":7006,"ìĻĶìĬµëĭĪëĭ¤":7007,"ê²ĥìĿĦ":7008,"ĠíķĦëĳĲ":7009,"Ġì§ĳìĸ´":7010,"Ġì°įìĿĦ":7011,"íĮĮìĦľ":7012,"ë¥ĺê°Ģ":7013,"ì¡°ë¦¼":7014,"ĠëģĦ":7015,"Ġì¹ĺì¦Īë¥¼":7016,"Ġì¹ĺì¦Īì¼ĢìĿ´íģ¬":7017,"Ġëª»íķĺê³ł":7018,"ĠëĦĺëĦĺ":7019,"Ġíıīê·ł":7020,"ì±ĦìĨĮ":7021,"Ġì»¤íĶ¼ëıĦ":7022,"Ġë°±íĻĶìłĲ":7023,"ĠíĻįì½©":7024,"Ġì²´ìĿ¸":7025,"íĺĢìĦľ":7026,"Ġìķīìľ¼ë©´":7027,"ĠìĨĮê°ľíķł":7028,"Ġê±´ë¬¼ìĹĲ":7029,"ĠëĳĶ":7030,"ĠìĻĦìłĦíŀĪ":7031,"ĠëĬĲê»´ì¡Į":7032,"ĠíķĦìļĶê°Ģ":7033,"ĠíĶ¼ìŀĲë¥¼":7034,"ĠíĹ¬ìĬ¤ìŀ¥ìĿ´":7035,"Ġì¶ľê·¼":7036,"ĠëŃĲê°Ģ":7037,"Ġìķ¼ì±ĦìĻĢ":7038,"Ġê¼¬ëĵ¤":7039,"ĠìłĦë¬¸ê°Ģ":7040,"ê°Ķìĸ´ìļĶ":7041,"ĠíĴįë¯¸":7042,"Ġë§Įì¡±ìĬ¤ëŁ¬ìļ´":7043,"Ġë©´ìĿ´":7044,"ĠìĶ¨":7045,"ĠìķłìĬĲ":7046,"ĠìĥīìĿ´":7047,"ĠíĮĲë§¤íķĺëĬĶ":7048,"Ġë¶ĻìĹ¬":7049,"Ġê²½ìĿĺìĦłìĪ²ê¸¸":7050,"Ġëĵ¤ìĸ´ìĺ¤ëĬĶ":7051,"Ġì¹¼ë¡ľ":7052,"Ġë§¤ë¬¼ìĿĢ":7053,"Ġë§¨ëĤł":7054,"Ġë³´ëĿ¼ë§¤ê³µìĽĲ":7055,"Ġë¸ĮëĿ¼ì§Ī":7056,"Ġìĥģíģ¼íķľ":7057,"ĠìķĦíĺĦìłĲ":7058,"Ġë¬µìĿĢ":7059,"ĠìĨĮë¬¸ëĤľ":7060,"Ġìĸ¸ìłľëĵłì§Ģ":7061,"ĠìĦ¤ëłĪìŀĦ":7062,"ĠíĥĢì½Ķìķ¼ëģ¼":7063,"ë±ħìĿ´":7064,"ĠìĤ¬ìĿ´ê³µë³¸ê°Ģ":7065,"ìĬ¬ë¨¸ë¦¬":7066,"Ġê²īë°ĶìĨį":7067,"īĳ":7068,"ìĿ´ìĹĪëįĺ":7069,"ë¡ľìĦľ":7070,"ë¡ľì¼Ģ":7071,"Ġìĭłìĥģ":7072,"ĠìĭłëĮĢë°©":7073,"ë¦¬ê¸°":7074,"ĠìŀĪê¸°ìĹĲ":7075,"Ġë§Ľë³´ê³ł":7076,"êµ¬ë¦¬":7077,"Ġë¨¹ëįĺ":7078,"ë¬¸ìĿ´":7079,"ĠìķĦíĬ¸":7080,"ĠìĤ¬ìĭľë¯¸":7081,"ëĵľë¦¬ê³ł":7082,"ĠìĦľë¶Ģ":7083,"Ġë³´íĺ¸":7084,"Ġë§ĪìĭľëĬĶ":7085,"ĠìķĪë¨¹":7086,"Ġë§ĽìŀĪì§Ģë§Į":7087,"ìĽĲëıĦ":7088,"ìĭ¤ìĿĢ":7089,"Ġëĵ¤ëŁ¬":7090,"Ġë§Ľì§ĳìĿĺ":7091,"Ġë§Ľì§ĳìĿ´ëĿ¼ê³ł":7092,"Ġìłľíķľ":7093,"ĠìĽĲíķĺìĭľëĬĶ":7094,"ĠìĥĿê²¨ìĦľ":7095,"ëĲĺê¸°":7096,"ìĹ¬ëĵľë¦Ħ":7097,"ê¹Įì§ĢëıĦ":7098,"ĠìĥģëĮĢ":7099,"ĠìĥģìĦ¸":7100,"êµŃë°¥":7101,"Ġì¸µìĹĲìĦľ":7102,"Ġë¹Ħìľ¨":7103,"íĻĶìŀ¥":7104,"Ġíķ´ìŀ¥":7105,"ë°©ìĿ´":7106,"Ġê³Ħìķ½":7107,"íĭ´":7108,"ĠìĥĿê°ģíķ©ëĭĪëĭ¤":7109,"Ġë¨¹ìĸ´ì£¼ë©´":7110,"ĠìľłíĶĮëłīìĬ¤":7111,"Ġë§İìĿ´ëĵ¤":7112,"Ġíĺ¸ëĸ¡":7113,"ĠëĵľëĿ¼ìĿ´":7114,"Ġê°ĦëıĦ":7115,"Ġë°ĺê°Ģ":7116,"íĺ¸ëĸ¡":7117,"ĠëĿ¼ìĿ´ìĬ¤":7118,"ĠìłĲëıĦ":7119,"Ġíı´":7120,"ĠìĻĢìķ¼":7121,"íķ¨ëıĦ":7122,"ĠìĿ´ìļ©íķ´":7123,"Ġë§ĽìĿ´ìĹĪìĸ´ìļĶ":7124,"ĠìłķëıĦëĬĶ":7125,"íļĮìłĦ":7126,"ĠìŀĪëĭ¤ëĭĪ":7127,"ĠëĲľëĭ¤ë©´":7128,"ĠìŀĲë¦¬ìĹĲìĦľ":7129,"ĠìĽĶíĨł":7130,"ë³¼ê²ĮìļĶ":7131,"ĠìĻ¸êµŃ":7132,"ëĭĪê¹ĮìļĶ":7133,"íı¼":7134,"ĠëĪĪìľ¼ë¡ľ":7135,"Ġíĺ¼ìĪł":7136,"Ġëĭ´ìķĦì£¼":7137,"Ġíı¬ìŀ¥ëıĦ":7138,"Ġíķ´ì£¼ìĭľ":7139,"íķ´ë³´ìĦ¸ìļĶ":7140,"Ġê³łë¯¼ìĿĦ":7141,"Ġìļ´ìĺģíķĺëĬĶ":7142,"ìĽĶìĦ¸":7143,"ĠìķĦëŀĺìĹĲ":7144,"Ġëĭ¬ëĭ¬íķĺê³ł":7145,"Ġì§ĪíĻĺ":7146,"Ġê°ĲìŀĲíĥķ":7147,"Ġì½ĺìĦ¼":7148,"Ġë§ĽìŀĪìĸ´ë³´":7149,"Ġì§ģìĽĲë¶Ħê»ĺìĦľ":7150,"Ġì¹¨ëĮĢ":7151,"Ġíļ¨ê³¼ë¥¼":7152,"ĠëıĦìĭľëĿ½":7153,"ëķħ":7154,"ìĥĿíĻľì£¼íĥĿ":7155,"íĻĶëĲĺ":7156,"ì¤¬ìĸ´ìļĶ":7157,"ĠìĿ´ëĿ¼ê³ł":7158,"ĠìĻĢìĿ´íĮĮìĿ´":7159,"ĠëıħíĬ¹íķľ":7160,"ĠëĦĲì°į":7161,"Ġì°¹ìĮĢ":7162,"Ġìĭłì´Įìŀ¥êµ°ì§ĳ":7163,"Ġë¯¸ëĤ¨ì°¸ì¹ĺ":7164,"Ġê²īë°ĶìĨįì´ī":7165,"°íĶĦ":7166,"ëĿ":7167,"ŁĪ":7168,"ëĭ«":7169,"ëĭ¤ë°ľ":7170,"ìĹĲê²Ĳ":7171,"íķĺìħĶìķ¼":7172,"ëĤ©ëĭĪëĭ¤":7173,"ìĬ¤íĮĮ":7174,"Ġê°Ģëł¤":7175,"ìĺµìħĺ":7176,"ĠìĿ´íĥĪ":7177,"ìĹĪìĿĦ":7178,"Ġê·¸ëĭ¤":7179,"ĠìķĦëª¬":7180,"Ġì¢ĭëĭµëĭĪëĭ¤":7181,"Ġì¢ĭê²łìĸ´ìļĶ":7182,"ëĮĢíķĻêµĲ":7183,"ĠëĤĺê°ĢëĬĶ":7184,"ë³´ìĭ¤":7185,"Ġêµ´":7186,"Ġíķľê·¸ë¦ĩ":7187,"ĠìĿ´ë©":7188,"ĠìĨĮìĦ¸":7189,"ĠìĪ²ê¸¸":7190,"ĠëĬ¥":7191,"íİĺëĦĪ":7192,"Ġìĥģê¶ĮìĿ´":7193,"êµŃìĿ´":7194,"Ġê±°ëŀĺ":7195,"Ġë¹ĦëĭĲ":7196,"ĠëıĦíĨ°":7197,"Ġíĥĳ":7198,"ĠìĹ°ìŀİ":7199,"Ġê´ĢìłĪ":7200,"Ġê°ľìĶ©":7201,"Ġê³łê¸°ìĹĲ":7202,"Ġíİ¸ìĿ´":7203,"ìĤ°ìĹŃ":7204,"Ġíģ¬ê¸°ê°Ģ":7205,"Ġì°¾ìķĦìĦľ":7206,"ĠìķĮë§ŀ":7207,"íĶĮëŁ¬ìĬ¤":7208,"ĠíĹĮ":7209,"ëĤ´ê³ł":7210,"ê´ĢìĿ´":7211,"ë¸Įë¦¬":7212,"íĿĲ":7213,"ĠëĭŃê¼¬ì¹ĺ":7214,"ì¡°ê°ľ":7215,"Ġìķŀì¹ĺë§Ī":7216,"Ġê±´ì§Ģ":7217,"íĺķìĥĿíĻľì£¼íĥĿ":7218,"íĹĪ":7219,"Ġê¸°ë³¸ìłģìĿ¸":7220,"Ġë³´ìĿ´ëĦ¤ìļĶ":7221,"Ġì§Ħíĸīì¤ĳ":7222,"ĠìĸĳëħĲëıĦ":7223,"ê±°ë¦¬ê°Ģ":7224,"Ġë²łìĸ´":7225,"ëģĮ":7226,"Ġê¸¸ê±°ë¦¬":7227,"Ġì¢ĭìĿĦê²ĥ":7228,"Ġì¶ľë°ľ":7229,"ĠíħĮëĿ¼":7230,"Ġìĵ°ìĹ¬":7231,"ĠìĿ´ìĥģìľ¼ë¡ľ":7232,"Ġìĸ´ìļ¸ë¦¬":7233,"Ġìĥīëĭ¤ë¥¸":7234,"ĠëĬĺìĸ´ëĤĺ":7235,"Ġì°©ìļ©":7236,"Ġë°©ë²ķìĿĦ":7237,"ĠìĿ´ìķ¼ê¸°ë¥¼":7238,"Ġì£¼ìĭľëĬĶëį°":7239,"Ġë§¤ìļ´ë§ĽìĿĦ":7240,"ĠìĻĦë²½íķľ":7241,"ĠìķĦìĤŃìķĦ":7242,"ĠíĬ¸ëłĪìĿ´ëĦĪ":7243,"ĠíĨ¡íĨ¡ìĬ¤íĦ°ëĶĶ":7244,"ìĺ¤ëĬĺìĿĢ":7245,"Ġëį¤ë²¨":7246,"íĹ¬ìĬ¤ìŀ¥":7247,"Ġê·łíĺķ":7248,"ĠìĿ¼íļĮìļ©":7249,"ë®¤":7250,"ì¨":7251,"ìŀ¼":7252,"íķĺëĬĶëį°ìļĶ":7253,"ìļĶê°Ģ":7254,"ì§ĢëĿ½":7255,"ĠìłĬ":7256,"ĠìŀĪìľ¼ìĭł":7257,"´ëĮĢ":7258,"ìĭľíĭ°":7259,"ì´Ŀ":7260,"ë©´ìľ¼ë¡ľ":7261,"ì§ĳìľ¼ë¡ľ":7262,"Ġì£¼ìĭľë©´":7263,"Ġì£¼ìĭľê³ł":7264,"ìŀĪìĿĮ":7265,"ë§Įê°Ħ":7266,"ëĬĶëį°ëıĦ":7267,"íĶ½":7268,"Ġê³łë¥¸":7269,"Ġìĭłë¦¼ìĹŃì¡±ë°ľ":7270,"Ġë§ĪìħĶ":7271,"Ġë§Īìħ¨":7272,"Ġë©ĺ":7273,"Ġì¶ĺ":7274,"ìĤ¬ìļ©":7275,"Ġê¸°ë¡Ŀ":7276,"Ġê¸°ëħĲ":7277,"ĠìĿ¸ëĭ¹":7278,"ìĭłì¶ķ":7279,"ìĭ¤ë¡ľ":7280,"ĠíĺĪ":7281,"ĠëĮĢì¶©":7282,"Ġìłľìŀĳ":7283,"Ġë°Ķìģĺ":7284,"ëŀĳëıĦ":7285,"ĠìĿ¼ìĸ´":7286,"ĠìĬ¤íĮ":7287,"Ġëĵ¤ìĸ´ìŀĪê³ł":7288,"Ġì£¼ë¬¸íķ´":7289,"Ġìŀħê°ĦíĮĲ":7290,"Ġë¹Ħìĸ´":7291,"ĠìĹ°ëĤ¨":7292,"Ġì¤ĳìĭĿ":7293,"Ġíİ¸ìĿĢ":7294,"ĠíĽĦìĭĿìľ¼ë¡ľ":7295,"ê·¸ëŀĺ":7296,"ê·¼íķľ":7297,"ĠìĥĿê°ģíķĺê³ł":7298,"Ġë¨¹ìĸ´ë´Ĳìķ¼":7299,"ĠíĹ¬":7300,"ìħ¨ëĤĺìļĶ":7301,"ë¦Ħíķľ":7302,"Ġì¶Ķì²ľíķ´ìļĶ":7303,"ëª¨ëĵ¬":7304,"Ġë§Ĳì°¨":7305,"Ġë¶ĪëŁ¬":7306,"Ġê°Ģê²©íĳľ":7307,"Ġìłģê·¹":7308,"Ġëĭ¬ëĿ¼ê³ł":7309,"ĠíķĺëĤĺë¥¼":7310,"ĠíķĺëĤĺë§Į":7311,"ê°ķëĤ¨":7312,"Ġë¬¸êµ¬":7313,"ĠíĺĦê¸Ī":7314,"ĠëĶ±íŀĪ":7315,"Ġê½Ĥ":7316,"Ġê³µê°ĦìĹĲ":7317,"Ġê³µê°ĦìĿĢ":7318,"ê¼½":7319,"ĠĠĠĠĠĠĠĠĠĠĠĠ":7320,"ĠìĤ¬ëŀĮëıĦ":7321,"ĠìĤ¬ìļ©íķĺê³ł":7322,"Ġëª©íĳľ":7323,"Ġë³¼ë¥":7324,"ĠìłĲìĭ¬ìľ¼ë¡ľ":7325,"ëł¸ëįĺ":7326,"Ġìľ¡ìĪĺê°Ģ":7327,"ĠìŀĪìĿĦê¹Į":7328,"ĠìĿ´ê³³ìĹĲ":7329,"´ë°Ķ":7330,"ĠìĥĪìļ°ê°Ģ":7331,"Ġê¸°ëĮĢë¥¼":7332,"ëĿ¼ìĿ´ìĬ¤":7333,"Ġì¹ľìłĪíķĺìĭľê³ł":7334,"ĠìŀĦì°¨":7335,"Ġìĥīê¹Ķ":7336,"ĠìĤ¬ìĿ´ëĵľë¡ľ":7337,"Ġëļ«":7338,"Ġíĺ¼ë°¥íķĺê¸°":7339,"ê°Ģë£¨ê°Ģ":7340,"Ġë§ĲìĶĢëĵľë¦¬":7341,"ĠëĮĢíĳľë©Ķëī´":7342,"ĠíĶ¼ë¶Ģê´Ģë¦¬":7343,"Ġëķ¡ê²¨ìĦľ":7344,"Ġì¡°ìļ©íķĺê³ł":7345,"ĠìŀĲê·¹ìĿĦ":7346,"ĠìĭľìĦ¤ìĿ´":7347,"Ġìĭłì¶ķë¹ĮëĿ¼":7348,"ĠëĦĪë¬´ëĤĺëıĦ":7349,"Ġëħ¼íĺĦ":7350,"Ġëĵ£ê³ł":7351,"ĠìķĦë¦Ħëĭ¤ìļ´":7352,"Ġë²ĦìĬ¤ìłķë¥ĺìŀ¥":7353,"Ġê´Ģì²ľë¡ľ":7354,"Ġë§ģíģ¬":7355,"ĠìķĦìĤŃìķĦìĤŃ":7356,"¹ìĬ¤":7357,"ĠìĮ¤":7358,"ìĿ´ìĭł":7359,"ìŀĩ":7360,"ê¸°ìĹĲëĬĶ":7361,"ìĬ¤ëĬĶ":7362,"íķ´ì§Ī":7363,"ë©´ìĹĲ":7364,"Ġê°Ģê¸°ë¡ľ":7365,"ĠìĿ´ìĻ¸":7366,"ĠìĪĺë²ł":7367,"Ġíķĺìħ¨ìĸ´ìļĶ":7368,"ìŀĪëįĺ":7369,"ĠìķĦíĭ°":7370,"ì¹ĺì§Ģ":7371,"ĠìĤ¬íķŃ":7372,"Ġìĺ¤ìĭł":7373,"ĠìĭľìłĪ":7374,"ĠìĭľëģĦ":7375,"Ġë³´ìĭľëĬĶ":7376,"Ġë³´ìĺĢìĸ´ìļĶ":7377,"Ġíķľìłķ":7378,"ìłĲìĹĲ":7379,"ìłĲëıĦ":7380,"ìĦ¸ê³Ħ":7381,"Ġë§Īì£¼":7382,"Ġë²¨":7383,"Ġë¬ĺ":7384,"Ġê°Ļê¸°ëıĦ":7385,"íĺ¹":7386,"ĠìĽĲìľ¼ë¡ľ":7387,"ĠìķĬëĭ¤":7388,"Ġë§ĮëĤł":7389,"ĠìĹĨìĹĪëĭ¤":7390,"Ġë°©ìĿ´":7391,"Ġë°©ì¹ĺ":7392,"Ġì¡°ë§Įê°Ħ":7393,"Ġê³µìĽĲ":7394,"ĠìĹŃìĤ¼ë§Ľì§ĳ":7395,"ê±±":7396,"Ġë¬´ê¶ģ":7397,"ĠíĽĦìĭĿ":7398,"Ġëĭ¨íĺ¸ë°ķ":7399,"Ġëĭ¨ì²´ëª¨ìŀĦ":7400,"íĶĦë¦¬":7401,"ê·¼ìłĳ":7402,"ĠìĥĿê°ģëĤł":7403,"ĠìľłìŀĲ":7404,"ĠìľłíĬľ":7405,"Ġì¢ĭìĿĢëį°":7406,"Ġì½¤":7407,"Ġë°ĺìĦ¸ìĺ¤":7408,"Ġì»¤ëĭ¤":7409,"ê³Ħê°Ģ":7410,"ĠìĨĲìľ¼ë¡ľ":7411,"Ġëĭ¬ê±":7412,"ĠìĻĢìļ°":7413,"Ġìµľìłģ":7414,"ĠëĲ¨":7415,"Ġì£¼ì°¨ìŀ¥ìĿ´":7416,"ĠëħĦëıĦ":7417,"ì½ĶìķĦ":7418,"ĠíĶĦëłĮ":7419,"ĠĠĠĠĠĠĠĠĠĠĠ":7420,"Ġëĭ´ìĤ°":7421,"Ġëĭ¤ëħĢìĺ¤":7422,"ĠìĤ¬ìŀ¥ëĭĺê»ĺ":7423,"Ġë³ĦëıĦ":7424,"Ġìĭłë¦¼ìłĲìĿĢ":7425,"Ġìłľê³µëĲĺëĬĶ":7426,"Ġëĭ¤ëħĢìĻĶëĭ¤":7427,"Ġìŀ¬ë£Įëĵ¤ìĿ´":7428,"ë°ĽìĿĢ":7429,"íĪ¬ë£¸":7430,"Ġíķ©ëĭĪëĭ¹":7431,"Ġë¶Ģëĭ´ìĬ¤ëŁ½":7432,"ĠíĮ¨ìĬ¤":7433,"Ġëķ¡ê¸°":7434,"ĠìĦ¤ëªħìĿĦ":7435,"ìĬ¤ëŁ¬ìĽĮ":7436,"ëĨĵìĿĢ":7437,"ëĤ¬ìĸ´ìļĶ":7438,"Ġë¹Ħë¹Ķëĥī":7439,"Ġë¨¹ê³łìĭ¶ìĿĢ":7440,"Ġíļ¨ê³¼ê°Ģ":7441,"Ġìĭ¹ìĭ¹":7442,"ĠìĿ´ë£¨ìĸ´ìł¸":7443,"ĠìĻĦë²½íķĺê²Į":7444,"Ġì§Ģìĥģì¸µ":7445,"ĠìĹĲìĬ¤ì»¬":7446,"Ġë³´ëĤ´ê³ł":7447,"ĠëļĿëĶ±":7448,"ĠìŀĲìľłë¡Ńê²Į":7449,"ĠìķĦëĬĳíķľ":7450,"Ġì¹Ńì°¬":7451,"ĠíĻĶëł¤íķľ":7452,"Ġìĺ¤ëŀ«ëıĻìķĪ":7453,"ĠìķĮì°¨ê²Į":7454,"Ġë¿ľë¿ľ":7455,"ĠìķłìĬĲë¦¬":7456,"ĠëĮ":7457,"ìĸ´ì§Ģ":7458,"ìĸ´íļĮ":7459,"ĠìĭłëĿ¼ë©´":7460,"ëĵŃ":7461,"ë¦¬ë¡ľ":7462,"ë°Ķë²łíģĲ":7463,"ìķĦìķĦ":7464,"ì£¼ê·¼ìłĳ":7465,"ìĺĨ":7466,"ĠìĿ´ëĬĶ":7467,"ĠìĪĺìļ©":7468,"ĠìĪĺíĺľ":7469,"Ġê·¸ì¤ĳ":7470,"Ġíķĺìħ¨":7471,"ĠìĤ¬ì¼Ģ":7472,"íĸĦ":7473,"ĠìĦľë¹Ļ":7474,"ĠíķľíĮĲ":7475,"ìĻĢìĿ´":7476,"Ġë§Īëĭ¤":7477,"ĠìłķìĦ±":7478,"Ġë§ĽìŀĪëĬĶëį°":7479,"ëĦ£":7480,"ĠìłĢëŀĳ":7481,"ĠìĨĮíĺķ":7482,"Ġê°Ļìķĺ":7483,"ë§ĪìĤ¬":7484,"ĠìłĦëĤł":7485,"ĠëĮĢì¶ľ":7486,"ìĨĮê°Īë¹Ħ":7487,"ĠìĹ¬ëŁ¿":7488,"Ġë°ĶíĭĢ":7489,"ĠìĽĲìĿ´":7490,"Ġë¶Ģë¥´":7491,"ĠìĪ¯":7492,"ëĲĺìĸ´ìĦľ":7493,"Ġë§Įìķ½":7494,"ĠíĮĿ":7495,"ĠëĲĺìļĶ":7496,"ìĦłìĿ´":7497,"ë§Ĳë¡ľ":7498,"Ġêµ¬ìĪĺ":7499,"Ġì¸µìĿ´":7500,"Ġê³µìļ©":7501,"Ġë¹Ħë¹Ħ":7502,"ëĶ¸":7503,"Ġìĺ¬ë°Ķ":7504,"Ġë¬´ìĦł":7505,"ĠìĥĿê°ģíķĺë©´":7506,"Ġë¨¹ìĸ´ì£¼":7507,"ëĭ¨ê³Ħ":7508,"íĥķìľ¼ë¡ľ":7509,"ĠëĤ¨ìĦ±":7510,"Ġê²½ìŁģ":7511,"Ġì°¨ì§Ģ":7512,"ê²ĥìĿĢ":7513,"ìĺģë¹ĮëĶ©":7514,"Ġê°ĲíĬĢ":7515,"Ġë°ĽìķĦìĦľ":7516,"ĠìĨĲì§Ī":7517,"ĠëĭŃëĭ¤ë¦¬":7518,"Ġë¶ĦìľĦê¸°ëĬĶ":7519,"Ġë¶ĦìľĦê¸°ìĹĲ":7520,"Ġëĭ¹íĻ©":7521,"ĠìĸĳëħĲì¡±ë°ľ":7522,"Ġë°±ë°ĺ":7523,"ĠëĦĵê²Į":7524,"Ġì¹´ìĿ´":7525,"ĠìĿĺìĤ¬":7526,"Ġíķ´ì£¼ìĭľê³ł":7527,"Ġìŀ¡ìĿĢ":7528,"Ġê±°ë¦¬ë¡ľ":7529,"ĠìłĲìĭ¬ìĹĲ":7530,"ëł¸ëĬĶëį°":7531,"ĠëıĪê°ĢìĬ¤":7532,"Ġëı¼ìĦľ":7533,"ĠìłĢëł´íķ´ìĦľ":7534,"ìĻ¸ë¡ľ":7535,"íħĮìĿ´íĨł":7536,"ĠìĭĿê°ĲìĿĦ":7537,"ĠìĭĿëĭ¹ìĿ´":7538,"Ġìĵ°ê³ł":7539,"ĠìĶ»":7540,"ë°ĽëĬĶ":7541,"Ġëªĩê°ľ":7542,"Ġì¡°íķ©ìĿĢ":7543,"ìĭ¸ë¡±":7544,"Ġëľ¨ëģĪ":7545,"Ġëıħë¦½":7546,"Ġë´¤ìĸ´ìļĶ":7547,"Ġì°©ìĦĿ":7548,"Ġê·¸ëłĩëĭ¤ê³ł":7549,"ĠìĹ¼íĨµ":7550,"Ġì±ħìĥģ":7551,"Ġëķ¡ê¸°ëĬĶ":7552,"Ġëĭ¨ê³Ħë¡ľ":7553,"Ġëĵłëĭ¤":7554,"Ġìĺģìĥģìľ¼ë¡ľ":7555,"Ġì¡°ëªħìĿ´":7556,"ĠëĥĦë¹Ħ":7557,"Ġê³±ìĬ¬ë¨¸ë¦¬":7558,"Ġìĺ¥íĿ¬ëĦ¤":7559,"Ġê¼¼ê¼¼íķľ":7560,"Ġíľ´ìĭĿ":7561,"ĠìĿ¸íĶĦëĿ¼ê°Ģ":7562,"Ġë»Ķ":7563,"ìŀĺíķĺëĬĶ":7564,"Ġë¶Ģíĥģëĵľ":7565,"Ġê°Ĳì¹łë§ĽìĿ´":7566,"Ġë³´ëĵľê²ĮìŀĦ":7567,"Ġë³´ëŁ¬":7568,"Ġìĺ¤íĶ¼ìĬ¤íħĶë¡ľ":7569,"ĠìłĦë°ĺìłģìľ¼ë¡ľ":7570,"Ġì²Ńìĸĳê³łì¶Ķ":7571,"Ġì¹´ëĿ¼ë©ĺ":7572,"ìĪŃìķĦ":7573,"ĠëıĦëĳĳê³łê¸°":7574,"Ġë°ķìŀ¬ìĦ±ìĿĺ":7575,"ì±":7576,"ŀĳ":7577,"ë¡ľë¡Ŀ":7578,"ê°Ģê¸°":7579,"ĠìĭłëĤĺê²Į":7580,"ĠìŀĪê²ł":7581,"íķ´ì§Ģê³ł":7582,"Ġê°Ģë³´ê³ł":7583,"ìķĦë©Ķë¦¬ì¹´ëħ¸":7584,"ĠìĿ´ë¡ľ":7585,"ĠìĿ´ë¦¬":7586,"ëĤĺê¸¸":7587,"ëĤĺìĺ¨":7588,"Ġëĭ¤ëħĶ":7589,"ì¹ĺê¸°":7590,"ë§Įìľ¼ë¡ľëıĦ":7591,"ĠëĤĺì¤ĳ":7592,"Ġêµµ":7593,"Ġíķľê°Ģ":7594,"Ġìĭłì´ĮìĹŃê³¼":7595,"ĠìķĪìĹĲìĦľ":7596,"ĠìķĪì¢ĭìķĦ":7597,"ë¶Ģë¶ĦìĿ´":7598,"ìĿ¼ê¹Į":7599,"ìĤ¬ìĭľë¯¸":7600,"Ġë§¤ì²´":7601,"íĸĪëĭ¤ëĬĶ":7602,"ĠëĮĢëŀµ":7603,"Ġê¹ĢìĿ´":7604,"ëĲĺìĹĪìĬµëĭĪëĭ¤":7605,"íģ¬ëłĪíİĺ":7606,"ĠìĹĨìľ¼ë©´":7607,"ĠëĲĺëįĶëĿ¼ê³łìļĶ":7608,"Ġë°©ìĿĮ":7609,"Ġë©Ķëī´ëĵ¤ëıĦ":7610,"ĠëıĦìĤŃë©´":7611,"ë¹¼":7612,"ë¨¹ìľ¼ëŁ¬":7613,"ĠìĭĿê¸°":7614,"ĠìĭĿë¹µ":7615,"ĠìĭĿíĥģ":7616,"ìĺĢì§Ģë§Į":7617,"Ġë°©ë¬¸íķĺë©´":7618,"ĠëĵľìĦ¸ìļĶ":7619,"ĠëĵľëłĪìĬ¤":7620,"Ġìŀ¥ìĭĿ":7621,"Ġë§ĲìĿ´ì£ł":7622,"ĠìĹ¬ê¸°ê¹Įì§Ģ":7623,"ê¸ĢëĿ¼ìĬ¤":7624,"ĠíķĺëĤĺê°Ģ":7625,"ĠëªħëŀĢ":7626,"íļĮê´Ģ":7627,"Ġëĭ¤ìĿĮìľ¼ë¡ľ":7628,"ĠëĦĺìĸ´ê°Ģ":7629,"ĠìĽĶê¸Ī":7630,"Ġíıīíĺķ":7631,"íķ´ì£¼ìĭľë©´":7632,"Ġë³¸ìĿ¸":7633,"ĠëĪĪì¹ĺ":7634,"ĠêµĲíĨł":7635,"ĠëĪĦë£½":7636,"Ġë§Įëĵ¤ê¸°":7637,"ĠìłĲìĭ¬ìĿĦ":7638,"Ġêµ¬ìĽĮì£¼":7639,"Ġë³¶ìĿĮë°¥ê¹Įì§Ģ":7640,"Ġìĺ¤íĶ¼ìĬ¤íħĶìĿ´":7641,"Ġìĺ¤íĶ¼ìĬ¤íħĶìĿĺ":7642,"Ġìĺ¤ëŀľë§Į":7643,"ĠìķĦìĿ´ëĵ¤":7644,"ĠìĥĲëŁ¬ëĵľê°Ģ":7645,"Ġê³ĦìĨįíķ´ìĦľ":7646,"Ġìķ¼ì±ĦëıĦ":7647,"ĠìŀĲìĦ¸ë¡ľ":7648,"Ġì±Ħê´ĳ":7649,"ĠíĻķìĿ¸íķĺê³ł":7650,"Ġìļ´ìĺģíķĺê³ł":7651,"íķ´ëĳĲ":7652,"Ġê°Īë¹Ħíĥķ":7653,"Ġê²ĢìĤ¬":7654,"Ġìī½ì§Ģ":7655,"Ġëħ¹ì°¨":7656,"Ġìŀ¥ìĨĮë¡ľëıĦ":7657,"Ġë´īì²ľëıĻ":7658,"Ġë§ĮëĤĺìĦľ":7659,"Ġê²¨ìļ¸ìĹĲ":7660,"Ġì²łìłĢ":7661,"ĠíĶ¼ë¶Ģê°Ģ":7662,"ĠíĬĢê¸´":7663,"ë§Įíķľê³³":7664,"ĠíĤ¤ìĺ¤ìĬ¤íģ¬ìĹĲìĦľ":7665,"ĠíķĺìĭľëįĶëĿ¼êµ¬ìļĶ":7666,"ĠíĿ¡ìŀħ":7667,"ì§ĢìķĬê³ł":7668,"ĠĠĠĠĠĠĠĠĠĠĠĠĠĠĠĠĠĠĠĠĠĠĠĠĠĠĠĠĠĠĠĠ":7669,"Ġì§Ńì¡°":7670,"Ġë°ĶëĶĶì½Ķ":7671,"Ġìłľì£¼ëıĦ":7672,"Ġê·¸ë¦ĩìĹĲ":7673,"ĠìĦłíĺ¸íķĺëĬĶ":7674,"Ġë°©íĥĪì¶ľì¹´íİĺ":7675,"Ġì¡°ê°ľì°ľ":7676,"Ġìļ°ìĪĺíķľ":7677,"ĠëĶĶì§ĢíĦ¸íı¬ìĬ¤íĦ°":7678,"Ġê°Ĳì¹łë§Ľ":7679,"Ġìĸ´ë¦°ìĿ´":7680,"Ġê¶ģíķ©ìĿ´":7681,"Ġì£¼ê¸°ìłģìľ¼ë¡ľ":7682,"Ġì§Ģë¦¬ìĤ°":7683,"ĠìĥģëĮĢìłģìľ¼ë¡ľ":7684,"ì¾Į":7685,"ë¡ľë¶ĢíĦ°":7686,"ê°ĢëıĦ":7687,"Ġìĭłì²´":7688,"ĠìĭłìĤ¬ë¦¬":7689,"íķľê±°":7690,"íķ´ìł¸ìĦľ":7691,"Ġë§Ľë³´":7692,"êµ¬ìļ©":7693,"ì£¼ìĿĺ":7694,"ëĵ¤ë§Į":7695,"ìŀ¥ìĸ´":7696,"ìĹĪëĭ¤ê³ł":7697,"ìĻĶëĦ¤ìļĶ":7698,"ë§ĮìĿĦ":7699,"ëıĻìĿĦ":7700,"ìĻĢìĥģ":7701,"Ġë§Īì¹´":7702,"ìĿ¼ìĿĢ":7703,"Ġê¸°ê°Ģ":7704,"Ġëĵ¤ëł¤":7705,"Ġëĵ¤ëłĢ":7706,"Ġì§Ģìłķ":7707,"íĺĳ":7708,"ìĥģìľ¼ë¡ľ":7709,"ĠìľĦìĹĲëĬĶ":7710,"ĠìŀĪëĬĶê±°":7711,"Ġë°Ķì§ĢëĿ½":7712,"Ġë¶Ģëª¨ëĭĺ":7713,"ìļ°ëĬĶ":7714,"ì°¨ëıĮ":7715,"Ġë§ĮëĤľ":7716,"Ġë§Įì²ľìĽĲ":7717,"ĠíĻĶë":7718,"Ġê³µìĭĿ":7719,"Ġìŀħê³ł":7720,"ĠìŀħìłĲ":7721,"Ġë¹Ĺ":7722,"íĻĶê³±ì°½":7723,"ĠìĹ°íĿ¬":7724,"ëłĪìĺ¤":7725,"ìĭ¬ìĿ´":7726,"Ġê³łê¸°ìĭ¸ë¡±":7727,"ĠëĤ´ìĽĲ":7728,"Ġíİ¸ìŀħëĭĪëĭ¤":7729,"Ġë¬´ìłľíķľ":7730,"ĠìĦ¸ìĽĮ":7731,"Ġë°©ë¬¸íĸĪìĸ´ìļĶ":7732,"ì¤ĳê°ľ":7733,"Ġë°ĺì£½":7734,"ëĥĪ":7735,"ëĤ´ëĬĶ":7736,"Ġê°ĢëĬ¥íķĺëĭĪ":7737,"ĠëĶĶíħĮìĿ¼":7738,"Ġì´Īë°ĺ":7739,"ĠìĨĲìĿĦ":7740,"ĠëĭŃëª©ìĤ´":7741,"Ġë¬¼ìĿĦ":7742,"ĠìĿ´ìļ©íķĺê¸°":7743,"Ġë§ĽìĿ´ìĹĲìļĶ":7744,"ìĹ°ìĿĺ":7745,"Ġë³´ìĿ´ëĬĶëį°":7746,"ĠìĸĳëħĲìĹĲ":7747,"ĠëĶĶìłĢíĬ¸ê°Ģ":7748,"Ġë³¸ìĹ°ìĿĺ":7749,"Ġê³¨ë°ĺ":7750,"Ġíĳ¸ëĶ©":7751,"Ġê±´ë¬¼ë¡ľ":7752,"ĠìĤ¼ê²¹ìĤ´ìĿ´":7753,"ĠìŀĪìľ¼ëĭĪê¹Į":7754,"Ġê°Ģê¹ĮìĽĮ":7755,"ĠìĿ¸ë¶ĦìĹĲ":7756,"´ë°©":7757,"Ġìķ¼ì±Ħê°Ģ":7758,"Ġë§Īíı¬íĻĶê³±ì°½":7759,"Ġìĺ¤íĶĪíķľ":7760,"ĠíĻķìĿ¸íķ´":7761,"ì¼Ģìĸ´":7762,"ĠíĶĮëŀ«":7763,"Ġê±´ê°ķìĿĦ":7764,"Ġë§Īì§Ģë§īìĹĲ":7765,"ĠìĿĢíĸī":7766,"ĠíĬ¸ëłĮ":7767,"Ġìº¬":7768,"Ġê½ĥëĭ¤ë°ľ":7769,"Ġìĸ´ëĬĲìĥĪ":7770,"Ġë´¤ìĿĦ":7771,"ĠíĦ±":7772,"ĠìĥĿíĻľìĿĦ":7773,"ìĿ´ìĹĪê³ł":7774,"Ġì·¨íĸ¥ê»ı":7775,"Ġëįľìĸ´":7776,"Ġì¿łíı°":7777,"ìŀĸìķĦ":7778,"Ġì¹ĺìķĦë°ĶíĥĢ":7779,"Ġê¿ĢíĮģ":7780,"ìĬĪíİĺëĦĪ":7781,"ĠìĻ¸ê´Ģë¶ĢíĦ°":7782,"ĠëĤ®ìĿĢ":7783,"Ġë©Ķë°ĢìĪ¯ë¶ĪëĭŃê°Īë¹Ħ":7784,"Ġë¶ĢëĵľëŁ¬ìĽĮìĦľ":7785,"Ġëĵłëĵłíķľ":7786,"Ġíİ¸ìĿĺìĭľìĦ¤":7787,"ĠìĦľìļ¸ëĮĢíķĻêµĲ":7788,"ĠìĨĮê°ľíķ´ëĵľë¦´":7789,"ĠìĦ¼íĦ°íķĦ":7790,"Ġì²´íĹĺê¶Į":7791,"ĠíĺľìŀĲ":7792,"Ġë°°ë¶ĪëŁ¬ìĦľ":7793,"Ġíģ¼ì§ģ":7794,"ĠíĶĦëĿ¼ìĿ´ë¹Ĺíķľ":7795,"Ġìļķìĭ¤":7796,"ë©Ķëī´ë¥¼":7797,"Ġê»įëį°ê¸°":7798,"ĠëıħìĦľìĭ¤":7799,"Ġê³łì¶§":7800,"Ġëĭ¨ë°±ì§Ī":7801,"Ġì¹¸ë§ī":7802,"ĠìĹĲìĬ¤ì»¬ëłĪìĿ´":7803,"Ġì¹´ìĿ´ë§ī":7804,"ë·Ķíİĺ":7805,"ĢìĦĿ":7806,"ìĹĺ":7807,"ì§ĵ":7808,"ìĹĲìĿ´":7809,"ëıĦìĭľ":7810,"ëıĦê·¸":7811,"ê°Ģëĵł":7812,"ĠìĭłìĦ¸ê³Ħ":7813,"ìľĻ":7814,"Ġëĭĺ":7815,"ìĬ¤ì½Ķ":7816,"ì¹µ":7817,"ë©´ëıĦ":7818,"Ġê°Ģìĭľë©´":7819,"Ġê°Ģì¸ł":7820,"Ġë³´ë©°":7821,"ì§ĳìĿĺ":7822,"ĠìĿ´ìĤ¬":7823,"ĠìĪĺë°ĸìĹĲ":7824,"ìĥĮëĵľìľĦì¹ĺ":7825,"ë¬¸ìĿĦ":7826,"Ġëĭ¤ì±Ħ":7827,"ìŀĪìĹĪëĬĶëį°":7828,"Ġìĺ¤ë¦¬":7829,"ĠìĭľëıĦ":7830,"ĠëĤĺê°Ī":7831,"Ġìĭłë¦¼ìĹŃê³¼":7832,"Ġíķľì°½":7833,"ìĦ¸ë¸ĮëŀĢìĬ¤":7834,"Ġë§Īìłľ":7835,"Ġë²¤":7836,"ë¶ĢìľĦ":7837,"ì¶¤":7838,"ĠìĿ¸ê°Ģ":7839,"ĠìĿ¸íķľ":7840,"íĸĪìĿĮ":7841,"íĸĪëįĶëĭĪ":7842,"íħľ":7843,"ë§ĪìłĢ":7844,"Ġì§Ģêµ¬":7845,"ĠìľĦíĹĺ":7846,"Ġìłľê²©":7847,"Ġë°ĶìĿ´":7848,"ìłģìĿ´ì§Ģ":7849,"ĠìĹĨìĹĪëįĺ":7850,"ĠëĲĺëįĶëĿ¼êµ¬ìļĶ":7851,"ĠìĿ¼ì£¼":7852,"ĠìĬ¤íħĮìĿ´":7853,"Ġíİ¼":7854,"Ġì¤ĳìĭĿëĭ¹":7855,"Ġì¹ĺê³ł":7856,"Ġì¹ĺìĹ´":7857,"Ġì¢ĭìķĦíķĺì§Ģ":7858,"ĠìĭĿë¬¼":7859,"ĠìľĦì¹ĺê°Ģ":7860,"ìŀĦìĿĦ":7861,"Ġì°¾ê²Į":7862,"ìĺĢìĿĮ":7863,"ĠëĳĲë£¨":7864,"ĠëĳĲê»į":7865,"ĠíĸĪëĭµëĭĪëĭ¤":7866,"íĶĮëłĪìĿ´":7867,"ĠëĵľëĿ¼ë§Ī":7868,"Ġê°Ħíİ¸":7869,"íı¬ë¨¸":7870,"ê²ĥê°ĻìķĦìļĶ":7871,"ĠìĥĪíķ´":7872,"Ġê°ĲìĨĮ":7873,"Ġì¶Ķì²ľíķľëĭ¤":7874,"ĠìłĲìĹĲìĦľ":7875,"ì¹´ëıĦ":7876,"ĠìĻĢê·ľ":7877,"ĠìĺĪìķ½ìĿ´":7878,"ĠìĺĪìķ½ìĿĢ":7879,"ĠêµŃëĤ´":7880,"ì¡°ê°ģ":7881,"Ġë°¥ìĿĢ":7882,"Ġìķ¼ìŀ¥":7883,"Ġëĭ¹ìĹ°":7884,"ëĭŃê°ķìłķ":7885,"ĠëĦĺì¹ĺëĬĶ":7886,"Ġ....":7887,"Ġì¦Ĳê²ģê²Į":7888,"Ġì¹ľêµ¬ëĵ¤ìĿ´ëŀĳ":7889,"Ġë³´ìĿ´ìĭľì£ł":7890,"ì½Ķì¸ł":7891,"íķ´ì£¼ìĭľê³ł":7892,"íı´":7893,"Ġë³¸íĻĶë¡ľ":7894,"Ġë²łëŀĢëĭ¤":7895,"ĠìĤ¬ëŀĮëĵ¤ëıĦ":7896,"Ġê³¨íĶĦ":7897,"ĠëĤĺìĻĶëĬĶëį°ìļĶ":7898,"ĠìķĪì£¼ë¥¼":7899,"Ġê³ĦëŀĢë§ĲìĿ´":7900,"Ġê°Ģì§Ģê°Ģ":7901,"Ġíĳ¸ëĵľ":7902,"Ġë§Įëĵ¤ê³ł":7903,"Ġì²ľêµŃ":7904,"ĠìĤ¼ê²¹ìĤ´ìĿĦ":7905,"Ġë³µê³ł":7906,"Ġë³µìĤ¬":7907,"ĠìĿ´ê³³ìĿĦ":7908,"ì¿Ħ":7909,"Ġìŀħêµ¬ìĹĲìĦľ":7910,"ĠìłĦë¬¸ìĿĺ":7911,"Ġìĥģíĥľê°Ģ":7912,"Ġìĺ¤íĶĪíķľì§Ģ":7913,"ìĨĮìĬ¤ë¥¼":7914,"Ġê¹»ìŀİìĹĲ":7915,"ĠìľĦì¹ĺíķ´ìŀĪìĸ´ìļĶ":7916,"Ġë¨¹ìĹĪìĿĦ":7917,"Ġë¶Ģë¶ĦìĿĢ":7918,"Ġë°°ëĭ¬ëıĦ":7919,"Ġë°°ëĭ¬ìĿĺ":7920,"Ġëª°ëĿ¼":7921,"Ġíĥľë¸Ķë¦¿":7922,"ĠëĦ¤ìĿ¼ìĥµ":7923,"ĠëĮĢíĳľìłģìĿ¸":7924,"ĠìłĪë¡ľ":7925,"ĠíĮ¨ìħĺ":7926,"Ġê²īìĿĢ":7927,"Ġê³ģëĵ¤ìĿ´":7928,"ĠìŃīìŃī":7929,"ĠìĦŀìĸ´":7930,"Ġíķ´ë´¤":7931,"Ġì£Ħ":7932,"Ġìŀħë§ĽìĿĦ":7933,"Ġëĵ±ìŀ¥íķľ":7934,"ĠíĿĳë°±":7935,"Ġì´īì´īíķľ":7936,"Ġì§Ńìª¼":7937,"Ġê¸°ëĭ¤ë¦¬ë©´ìĦľ":7938,"ìĿ´ìķ¼ê¸°":7939,"ë°¤ê±°ë¦¬":7940,"Ġê·ľëª¨ê°Ģ":7941,"ĠíĿĶíŀĪ":7942,"ĠìħĢíĶĦë°ĶìĹĲìĦľ":7943,"ĠìŀħìķĪìĹĲìĦľ":7944,"ëĶĶìłĢíĬ¸ì¹´íİĺ":7945,"ĠëĤĻì§Ģ":7946,"ë¥łìĿ´":7947,"Ġì£¼ìĿ¸ê³µ":7948,"íĮĮíĭ°ë£¸":7949,"ĠìĿĢìĿĢíķĺê²Į":7950,"ĠìĿ¼ë¶ĢëŁ¬":7951,"ĠìķĦê¸°ìŀĲê¸°íķľ":7952,"ì½Ķëħ¸":7953,"ĠìľłëıĻìĿ¸êµ¬ê°Ģ":7954,"Ġì§Ŀê¿į":7955,"Ġë§Īì°¬ê°Ģì§Ģë¡ľ":7956,"Ġëĭ¤ìĿ´ìĨĮ":7957,"ĠìľĻìĬ¤íĦ°ëĶĶ":7958,"Ġì»´íĵ¨":7959,"ĠìķĦëª¬ëĵľ":7960,"Ġë¬´ê¶ģíĻĶ":7961,"©ëĭĪëĭ¹":7962,"ª©":7963,"¹ł":7964,"ìīĲ":7965,"íĽ":7966,"ĳ¥":7967,"Ġëĩ":7968,"Ġê¾¹":7969,"Ġìĭ¼":7970,"íķĺìŀĲë§ĪìŀĲ":7971,"ëĭĪíĭ°":7972,"ì§Ģíķĺ":7973,"ë¬´ë¥¼":7974,"ìĭľê²½":7975,"ëŀĮìĿ´":7976,"êµ¬ëĭĪ":7977,"Ġê°Ģìĭľ":7978,"Ġê°Ģì¹ĺ":7979,"ìķĦíĮĮ":7980,"Ġìĭłì´Įì¹´íİĺ":7981,"ĠìĤ´ëł¤":7982,"ì£¼ë¥¼":7983,"ë¶ķìĸ´ë¹µ":7984,"ëł¬":7985,"ĠìĥĢ":7986,"Ġê·¸ëŀľëĵľ":7987,"ìŀĪìĹĪëĭ¤":7988,"ĠìķĦëĤĮ":7989,"Ġëįĺ":7990,"íĮį":7991,"ĠìłķëıĪ":7992,"ĠìŀĲê°Ģ":7993,"ĠìŀĲê¸°":7994,"ĠìĨĮëıĦ":7995,"ĠëĮĢë°©":7996,"Ġëª¨ëįĺ":7997,"Ġë¶Ģëĵ¤":7998,"ĠìĦľìļ¸ìĿĺ":7999,"Ġì§Ħìŀħ":8000,"ë¯¸ìķ¼ëģ¼":8001,"ĠìķĬìľ¼ë©´":8002,"Ġë§Įíķľ":8003,"íķłì§Ģ":8004,"Ġì¸µê¹Įì§Ģ":8005,"Ġì¸µìĹĲëĬĶ":8006,"Ġê±°ëĿ¼ê³ł":8007,"Ġëĵ¤ìĸ´ê°ĳëĭĪëĭ¤":8008,"ĠìŀħëĭĪëĭ¹":8009,"ĠìĹ°ìĿ¸":8010,"Ġê³ĦìħĶìĦľ":8011,"Ġëĵ±ìĤ°":8012,"Ġíİ¸ìĿ´ìĹĲìļĶ":8013,"Ġë¬´ë¦¬":8014,"ĠíĽĦíĽĦ":8015,"Ġìĸ´ë¦´":8016,"ë²ĦìĦ¯":8017,"Ġë°°íĦ°":8018,"Ġë°°ê²½":8019,"Ġë¯¸ëĶĶ":8020,"Ġì¹´íİĺëĬĶ":8021,"Ġìŀ¬ê°ľë°ľ":8022,"ĠìĦ¸ê³Ħ":8023,"Ġë¨¹ìĸ´ë³´ëĬĶ":8024,"Ġê·¼ë¬´":8025,"Ġê·¼ë°©":8026,"ê°ĲìĦ±":8027,"Ġë°©ë¬¸íķĺëĬĶ":8028,"Ġë°©ë¬¸íĸĪëĭ¤":8029,"Ġë°Ķë¡ľë°Ķë¡ľ":8030,"ĠìĹŃìĤ¼ìĹŃìĹĲ":8031,"Ġë¸Ķë£¨ìĬ¤":8032,"Ġë°ĺì§Ŀ":8033,"Ġìĭľê°ĦëıĦ":8034,"Ġì»¤ë¦¬":8035,"ë°ĶìĿ´":8036,"ë°Ķëĭ¥":8037,"ĠìłĲìĿĦ":8038,"ì²ŃìĨĮ":8039,"Ġë¨¹ìĿĦì§Ģ":8040,"Ġê°Ģê²©ìĿĦ":8041,"ĠëĤĺìĺ¤ëĬĶëį°ìļĶ":8042,"ĠíĨµì°½":8043,"Ġì¹ĺì¦ĪëıĦ":8044,"Ġëħ¸ì¶ľ":8045,"ĠíĺĦì§Ģ":8046,"ĠëĤłë°¤":8047,"íĤ¤ì§Ģ":8048,"Ġëĭ¹ìĭľ":8049,"ìĥīìľ¼ë¡ľ":8050,"Ġì§ĢíķĺìĹĲ":8051,"Ġëį°ëł¤":8052,"ĠìŃĪê¾¸ë¯¸ê°Ģ":8053,"ĠìķĪì£¼ëĬĶ":8054,"Ġíĺ¸ìĦłìĿĦ":8055,"ëĵ±íı¬":8056,"ĠëĪĦë¦¬":8057,"Ġì°įìĸ´ë¨¹ëĬĶ":8058,"Ġì²ŃëħĦ":8059,"íķĺëĭ¤ë³´ëĭĪ":8060,"Ġì°¸ì¹ĺë¥¼":8061,"ĠìĥĲëŁ¬ëĵľë°Ķ":8062,"ë°°ëĭ¬":8063,"ĠíķĦëĿ¼íħĮìĬ¤ë¥¼":8064,"Ġê°ĢëĵĿê°ĢëĵĿ":8065,"ĠìĦ±ìĿ¸":8066,"Ġì§Ģê¸ĪëıĦ":8067,"ĠíĭĪ":8068,"Ġë§µì§Ģ":8069,"ĠìĪľëĮĢë³¶ìĿĮ":8070,"ìĨĮìĬ¤ìĻĢ":8071,"ĠìĻľìĿ´":8072,"Ġìķ½ê°ĦìĿĺ":8073,"Ġê·¸ëŁ¬ëĭĪ":8074,"Ġìĭľì¼°ìĬµëĭĪëĭ¤":8075,"ĠíĴĢìĺµìħĺ":8076,"Ġë¶ĢìľĦê°Ģ":8077,"ĠìĦľê°ķë¡ľ":8078,"Ġíļ¨ìľ¨":8079,"Ġìŀ¬ë¯¸ëıĦ":8080,"Ġìĸ´ëĶĶìĦľ":8081,"ë³´ëŁ¬":8082,"Ġìĺ¤ë¥¸ìª½ìĹĲ":8083,"Ġë¿Įëł¤ìł¸":8084,"ĠìĬ¬ìĬ¬":8085,"ĠìĿ´ìĸ´ì§ĢëĬĶ":8086,"Ġì¤ĳìĭ¬ìľ¼ë¡ľ":8087,"íľ´ìĿ¼":8088,"ĠìĿ¸íĶĦëĿ¼ë¥¼":8089,"ĠìķĦë§ĪëıĦ":8090,"ìĬ¤íĨłë¦¬":8091,"ĠíŀĪíŀĪ":8092,"ĠìłķíĻķíķĺê²Į":8093,"ĠìĿµíĺĢìĦľ":8094,"Ġìŀħì£¼ë¯¼":8095,"ĠìĿ´ëĿ¼ëĬĶ":8096,"Ġë©ĭì§Ħ":8097,"Ġëĵľë¦¬ê²łìĬµëĭĪëĭ¤":8098,"Ġì°¨ëıĮë°ķìĿ´":8099,"ĠíļĮìĽĲê¶ĮìĿĦ":8100,"ĠíĥĿë°°":8101,"ëŃĲ":8102,"Ġë³´ìĿ¼ëŁ¬":8103,"ìıł":8104,"ĠëŁ°ì¹ĺ":8105,"ĠëĽ°ìĸ´ëĤľ":8106,"ĠìĽ¨ìĿ´íĬ¸":8107,"ëĵľë¦¼íĶ¼ë¶Ģ":8108,"Ġê·¸ëĤĺë§Ī":8109,"ê³°íĥķ":8110,"Ġìıłìıł":8111,"ĠìĤ¼íķ©ëĭ¹":8112,"ĠíĮįíĮį":8113,"»Ĳ":8114,"ĦëįĶ":8115,"Ł½":8116,"ìĿ´ë¡ľ":8117,"ìĿ´ìĺĢìĸ´ìļĶ":8118,"íķĺê²ł":8119,"íķĺìĦ¸ìļ©":8120,"ìĸ´ì§ĢëĬĶ":8121,"ê¸°ëķĮë¬¸ìĹĲ":8122,"ë¦¬ë©´":8123,"ë¦¬ìłģ":8124,"ë¦¬íĥĢ":8125,"ĠìĺĲ":8126,"ìĹŃìľ¼ë¡ľ":8127,"ë¥µ":8128,"ëŀĹ":8129,"Ġê°ĢëĿ¼":8130,"Ġê°Ģë§Ī":8131,"Ġë¨¹ëĭ¤ë³´ë©´":8132,"ĠìķĦìĿ¸":8133,"ëĮĢëĬĶ":8134,"ëıĻëĦ¤":8135,"ëĵľëłĪ":8136,"ĠìĭľëĤĺëª¬":8137,"ĠëĤĺë§Į":8138,"Ġê³łìĤ¬ë¦¬":8139,"ê³¼ìŀĲ":8140,"ë³´ìķĺìĸ´ìļĶ":8141,"ĠíķľëĳĲ":8142,"ìłĲìĹĲìĦľ":8143,"ĠìĿ´ë»Ĳ":8144,"Ġìĭłì´ĮìĹŃìĿĦ":8145,"ë§Īì¼ĵ":8146,"ìĥģëĭ´":8147,"íģ¬ë¡ľ":8148,"ìĪį":8149,"Ġêµ¬ë¡ľ":8150,"ĠìĿ¼ìĿĦ":8151,"Ġê³³ìĿ¸ëį°ìļĶ":8152,"íĻĶê³¼":8153,"ĠìĦłê¸ĢëĿ¼ìĬ¤":8154,"Ġë²Īì§Ģ":8155,"ë°©ìĿĦ":8156,"ĠìĭĿìłĦ":8157,"ëĳĲê·¼":8158,"íĶĦíĬ¸":8159,"Ġë¯¸ìĹŃ":8160,"Ġì¹´íİĺë¡ľ":8161,"ĠìķĮëłĪìĬ¤":8162,"Ġìĭ¶ìĹĪëĭ¤":8163,"ĠìĦłíĥĿíķľ":8164,"ì¤ĳìĿ¸":8165,"ĠíĮĮìķħ":8166,"Ġê°ĢëĬ¥íķĺë©°":8167,"ê´Ģë¦¬ë¥¼":8168,"Ġë¶ĪìĿ´":8169,"Ġê°Ģê²©ëĮĢê°Ģ":8170,"Ġë°Ľìķĺìĸ´ìļĶ":8171,"ë¥ĺëıĦ":8172,"ìĭľê°ĦìĿ´":8173,"ìĭľê°ĦìĹĲ":8174,"Ġìĭ¤ê±°":8175,"Ġê±¸ë¦°":8176,"íĺķìľ¼ë¡ľ":8177,"ĠëħĦìĹĲ":8178,"ĠëĦĺê²Į":8179,"ĠìĪľíķľ":8180,"Ġíıīê°Ģ":8181,"Ġë§īìĥģ":8182,"ĠíĶĦëĿ¼":8183,"Ġì»¤íĶ¼ê°Ģ":8184,"íķ´ì£¼ìħ¨ìĸ´ìļĶ":8185,"Ġì§ĦíĸīíķĺëĬĶ":8186,"´ë³´ëĭ¤":8187,"Ġì¼ľ":8188,"Ġë°±ì¢ħ":8189,"ĠìĤ¬ìļ©íķ´ìĦľ":8190,"ĠëĲĺìĸ´ìŀĪëĬĶ":8191,"ĠìĤ¬ìŀ¥ëĭĺëıĦ":8192,"ĠìħĶ":8193,"Ġì«Ļ":8194,"Ġìĭľìŀĳíķ©ëĭĪëĭ¤":8195,"ĠëĪĦêµ¬":8196,"Ġë¹µìĿĦ":8197,"Ġì°įìĸ´ë¨¹ìľ¼ë©´":8198,"Ġíķ´ì£¼ëĬĶ":8199,"Ġíķ´ì£¼ìĭľë©´":8200,"Ġìŀ¡ì±Ħ":8201,"ëĲ¨":8202,"Ġê²½ìļ°ëıĦ":8203,"Ġì°¸ì¹ĺíļĮ":8204,"Ġê³¼ìłķìĿĦ":8205,"Ġìĺ¬ëł¤ì£¼":8206,"ĠìĺĨìĹĲëĬĶ":8207,"ĠìĿĮë£ĮìĻĢ":8208,"ĠìĿĮë£ĮìĪĺ":8209,"Ġë¡ľìĬ¤":8210,"ĠìĿ´ê³³ìĿ´":8211,"Ġê³±ì°½ìĿ´":8212,"íĺĦëĮĢ":8213,"ëĨį":8214,"ê°Ģì§Ģê³ł":8215,"íķ´ë³´ëĭĪ":8216,"Ġìŀ¬ë£Įë¥¼":8217,"Ġì¶Ķì²ľëĵľë¦¬ê³ł":8218,"Ġê¸°ë¦Ħê¸°ê°Ģ":8219,"Ġëª¨ë¥´ê³ł":8220,"Ġê½ĥì§ĳ":8221,"Ġëľ¨ê±°":8222,"ë¨¸ìĭł":8223,"ìķ¤ìª½ê°Īë¹Ħ":8224,"ĠìĬ¤íĥĢìĿ¼ìĿĺ":8225,"Ġì¹ĺìķĦë¥¼":8226,"ĠëĤłìĶ¨ìĹĲ":8227,"Ġì¦Ĳê¸°ê¸°":8228,"ĠìĻķìĦ±":8229,"Ġìĺ¥ìĥģ":8230,"Ġíķ´ë¨¹":8231,"Ġë¹ĦêµĲìłģ":8232,"ìĩł":8233,"ĠìŀĪìľ¼ë¯Ģë¡ľ":8234,"Ġì¶ĶìĸµìĿ´":8235,"Ġë°ĶëĶĶíĶĦë¡ľíķĦ":8236,"ĠìķĦìĿ´ìĬ¤ìķĦë©Ķë¦¬ì¹´ëħ¸":8237,"ĠëıĦìĭľíĺķìĥĿíĻľì£¼íĥĿ":8238,"Ġë§Ĳê³łëıĦ":8239,"Ġë§ĪìĤ¬ì§Ģë¥¼":8240,"Ġë§İìķĺê³ł":8241,"ĠíĿĶëĵ¤":8242,"ëĤ´ë¶Ģ":8243,"Ġë§ĽìŀĪìĹĪìĿĮ":8244,"´ëł¤ê³ł":8245,"ĠëĳĲíĪ¼íķľ":8246,"íķĺìĿ´ë³¼":8247,"ĠíĺķìĦ±ëĲĺìĸ´":8248,"ĠìĪłìķĪì£¼ë¡ľ":8249,"ĠìĬµê´Ģ":8250,"ĠëĬĺìĸ´ëĤĺëĬĶ":8251,"ĠìĿĺë£Įì§Ħ":8252,"ĠìĦłë¶Īíı°":8253,"Ġê°Ģë²¼ìļ´":8254,"ìļĶê±°íĬ¸":8255,"Ġë°Ķê¿Ķ":8256,"ĠìĦ¬ìĦ¸":8257,"Ġê°Ģë§¥ì§ĳ":8258,"ĠìĽĲìĤ°ì§Ģ":8259,"Ġìĥģëĭ´ë°Ľ":8260,"Ġë¸ĮëĿ¼ì§Īë¦¬ìĸ¸":8261,"ĠìĦ¤ëłĪìŀĦìĤ¼ê²¹ìĤ´":8262,"Ġë³¼ë¥¨":8263,"Ġëĭ¬ê±Ģ":8264,"Ġë§ĪìłľìĨĮë°Ķ":8265,"ĠëĤłë°¤íı¬ì°¨":8266,"ëĵľë¦¼íĶ¼ë¶ĢìĹ°êµ¬ìĨĮ":8267,"¢°":8268,"¯Ķ":8269,"ë¢°":8270,"ìİĦ":8271,"Ľê°ķ":8272,"ìĿ´ëŀĢ":8273,"Ġíĵ¨":8274,"ë¦ħëĭĪëĭ¤":8275,"Ġìŀĥ":8276,"íķĺíķĺ":8277,"ìļĶê¸Ī":8278,"Ġê°¤":8279,"êµ½":8280,"ëĿ¼ëĭĪ":8281,"Ġê³¡":8282,"ìĹŃìĤ¬":8283,"ë©į":8284,"ìľ¼ìħ¨":8285,"ë©´ìĿĢ":8286,"êµ¬ë¥¼":8287,"Ġê°Ģë³¸":8288,"Ġëĭ¤ëĭĲ":8289,"Ġì£¼ìĭłëĭ¤":8290,"ìŀĪëĦ¤ìļĶ":8291,"Ġê²ł":8292,"ĠìĤ¬ëĭ¹":8293,"Ġíķ´ëĤ":8294,"ëĵľë¦´":8295,"ĠëĤĺëĵ¤ìĿ´":8296,"Ġë³´ìķĺ":8297,"ĠìĽ»":8298,"ëŁ¬ë¦¬":8299,"Ġë©¸":8300,"ìĤ¬ê³ł":8301,"ĠìĨĮìĭĿ":8302,"ĠìĨĮì¤ĳ":8303,"ĠìĨĮë¦¬ê°Ģ":8304,"ĠìĨĮì½ĶìķĦ":8305,"Ġê°ĻëįĶëĿ¼ê³łìļĶ":8306,"Ġëĵ¤ìĸ´ìļĶ":8307,"Ġë°ĶìĬ¤íģ¬":8308,"ĠìĥĿê²¨":8309,"ìļ°ë©´ìĦľ":8310,"Ġì§Ħìłķ":8311,"ĠíĮ½":8312,"ĠìĹĨìľ¼ëĭĪ":8313,"ĠìŀĺëĤĺ":8314,"ëŀĳìĿĢ":8315,"Ġêµ¬ìĿ´":8316,"Ġì¸µê³¼":8317,"Ġì¸µìĪĺ":8318,"Ġì¡°ìĦł":8319,"ĠìŀħìĿ´":8320,"Ġë¹Ħì¦Ī":8321,"ĠìŀĪìĹĪì§Ģë§Į":8322,"Ġì¢ĭìķĦë³´":8323,"ì¼°":8324,"ìĺĢëĬĶëį°ìļĶ":8325,"ĠìĥĿê°ģëıĦ":8326,"ĠìĥĿê°ģíķĺëĬĶ":8327,"Ġìĭ¶ìľ¼ìĭł":8328,"ĠìĪłìĿĢ":8329,"Ġìĺģë¡±":8330,"Ġìŀ¥êµŃ":8331,"ĠëĶ°ë¥¸":8332,"Ġì§ģì£¼ê·¼ìłĳ":8333,"Ġì°¨ë¡Ģ":8334,"ëĤ´ê³¼":8335,"ë¸Įë£¨":8336,"ëª¨ëĵľ":8337,"ĠëĿ¼ê³µë°©":8338,"Ġì¢ĭìķĺìĿĮ":8339,"Ġíı°":8340,"Ġìµľìĭł":8341,"ĠìĤ¼ëª¨":8342,"ĠìĿ´ìļ©íķĺìĹ¬":8343,"ĠìĿ´ìļ©íķĺìĭ¤":8344,"ĠíĥĢë¡ľ":8345,"êµĲìŀĲ":8346,"Ġê±¸ë¡ľ":8347,"Ġë°¥ìĹĲ":8348,"Ġê±´ëį°":8349,"Ġì£¼ì°¨ê°Ģ":8350,"íĺķìĻ¸":8351,"ĠëĤ´ë¶Ģë¥¼":8352,"ĠìĹĲíĶ¼":8353,"ĠêµŃë¬¼ìĿĢ":8354,"ĠìĤ¬ëŀĮëĵ¤ìĿĢ":8355,"Ġê³¨ë±ħìĿ´":8356,"Ġíķľë²ĪëıĦ":8357,"Ġì°¾ìķĦê°ĢëĬĶ":8358,"......":8359,"ĠëģĿìĹĲ":8360,"Ġê³¼ê±°":8361,"ĠìĥĲëŁ¬ëĵľëıĦ":8362,"ĠìĥĲëŁ¬ëĵľìĻĢ":8363,"ëħ¸ë§Ĳ":8364,"ĠìķĦëĭĻëĭĪëĭ¤":8365,"Ġë³µìŀ¡":8366,"ĠëıĮëıĮ":8367,"Ġì¶ľìĹ°":8368,"Ġìŀħêµ¬ë¶ĢíĦ°":8369,"ĠìŀĲìĦ¸ê°Ģ":8370,"ì¼ĢíĮħ":8371,"Ġë³ĢíĻĶ":8372,"Ġë°ĶìĤŃíķĺê²Į":8373,"ĠìĿ¼ë°ĺìłģìĿ¸":8374,"Ġê¸°ë¦Ħì§Ħ":8375,"ĠíĮĶê³ł":8376,"Ġëħ¹ìķĦ":8377,"ìķ¤ëħ¸ë§Ĳ":8378,"ìĿĦëķĮëĬĶ":8379,"ë¿Į":8380,"Ġì±ħìĿĦ":8381,"ĠíĺĦìŀ¬ëĬĶ":8382,"ëĤ¬ëĭ¤":8383,"Ġë©Ģì§Ģ":8384,"ĠëĦīëĦīíķľ":8385,"Ġì§±ì§±":8386,"Ġë¹ĮíĬ¸ìĿ¸":8387,"Ġëĸ¨ìĸ´ìł¸":8388,"Ġëĭ¤ëĭĪëĬĶ":8389,"ĠíĻĺê²½ìĿĦ":8390,"Ġìĥ¤ìĽĮìĭ¤":8391,"Ġìĸ¹ìĸ´ìĦľ":8392,"Ġë¶ģìłģ":8393,"Ġìĭłì²Ńíķ©ëĭĪëĭ¤":8394,"ĠìħĭíĮħ":8395,"ê²Ģì§Ħ":8396,"ìĪĺìłľë²Ħê±°":8397,"ëļľë§ī":8398,"ĠìĤ´íİ´ë³´ë©´":8399,"Ġë§Īë¬´ë¦¬ëĬĶ":8400,"Ġëļľê»ĳìĿĦ":8401,"Ġíı¼ìķ¤ëħ¸ë§Ĳ":8402,"Ġë¦°ìĥĿ":8403,"ĠëĭŃê°ĢìĬ´ìĤ´":8404,"ĠìĥĿìĥĿìłķë³´íĨµ":8405,"ĠìĹ°ëĤ¨ëıĻ":8406,"ìŁĪ":8407,"íķľìĭĿ":8408,"ĠìŀĪê¸¸ëŀĺ":8409,"Ġë°´":8410,"Ġê°Ģìĭ¤":8411,"Ġê°ĢìłķìĭĿ":8412,"ìķĦìłĢìĶ¨":8413,"Ġìĭłì´ĮìĿĺ":8414,"ĠìĤĲ":8415,"ëĵ¤ê³ł":8416,"ĠìĪĺë§İìĿĢ":8417,"Ġê·¸ë§Į":8418,"Ġê·¸ë¦°":8419,"ĠíķĺìĻĢìĿ´":8420,"ĠìķĦë¡ľë§Ī":8421,"ĠìĤ¬ìłĦ":8422,"ëıĻìĿ´":8423,"Ġìĭľíĸī":8424,"Ġìĭľì¦Į":8425,"ĠìĿ´ë¤Ħ":8426,"Ġë¶ĦìĦĿ":8427,"ìĤ¬íķľ":8428,"ìĤ¬ìĿ´ì¦Ī":8429,"ĠìŀĲì·¨":8430,"ĠìĨĮë°Ķ":8431,"ĠìĨĮíĮĮ":8432,"ìĺ¤íĹ¤ìĸ´":8433,"Ġì§ĢìĽĲ":8434,"Ġë°Ķê¾¸":8435,"ĠìĥĿë¦¬":8436,"ëł¤ëĤĺ":8437,"ëĲĺìĹĪìĸ´ìļĶ":8438,"ĠìķĬê¸°":8439,"ĠëķĮê¹Įì§Ģ":8440,"Ġìĥģìķħ":8441,"Ġë©Ķëī´ìŀħëĭĪëĭ¤":8442,"ĠìĬ¤ì¼Ģ":8443,"ĠìĬ¤ë§ĪíĬ¸":8444,"ĠìŀħìĿĦ":8445,"Ġì¤ĳìŀħëĭĪëĭ¤":8446,"Ġì¢ĭìķĦíķ´ìļĶ":8447,"ì¼ł":8448,"Ġìĸ´íĶĮ":8449,"Ġë°°ìļ°":8450,"Ġë°°ìĽĮ":8451,"Ġë¯¸íĦ°":8452,"Ġë¨¹ìĸ´ì¤ĺìķ¼":8453,"Ġë°©ë¬¸íĸĪëįĺ":8454,"ĠëĨį":8455,"Ġì§ģê²°":8456,"ëĭ¤ëĬĶê±°":8457,"ĠíĹ·":8458,"íĨµëĭŃ":8459,"Ġë°ĺëĵľìĭľ":8460,"ĠìĤ´ê³ł":8461,"ĠíķłëķĮ":8462,"Ġê°ĢëĬ¥íķł":8463,"ĠìĥĪìĨ¡":8464,"ê´Ģìķħ":8465,"ëª¨ìĸĳ":8466,"´ë¬¸":8467,"ĠëĤĺìĺ¤ëĭĪ":8468,"ĠêµŃë£°":8469,"ĠíĥĢìĽĮ":8470,"Ġë§ĽìĿ´ëĭ¤":8471,"Ġëªħìĭľ":8472,"Ġì¹ĺì¦Īëĸ¡":8473,"Ġë°¥ê³¼":8474,"ĠíĬ¹ìĪĺ":8475,"Ġì£¼ì°¨ëıĦ":8476,"ĠìŀĲë¦¬ë¡ľ":8477,"Ġì¹ľêµ¬ëĵ¤ìĿ´":8478,"ìŀ¬ìĥĿ":8479,"Ġì§ĦíĸīìĿĦ":8480,"ĠìĸĳëħĲìĿĦ":8481,"ĠëĪĪìĿĦ":8482,"ĠìŃĪê¾¸ë¯¸ìĻĢ":8483,"Ġì¤Ģë¹Ħíķ´":8484,"ì¦ĿìĿ´":8485,"Ġìļ°ë¦¬ëĤĺëĿ¼":8486,"íķĺì§ĢìķĬ":8487,"Ġëĭ´ê¸´":8488,"ĠìķĪì£¼ëıĦ":8489,"Ġë©Ķëī´íĮĲìĹĲ":8490,"Ġë©Ķëī´íĮĲìŀħëĭĪëĭ¤":8491,"Ġì«Ģ":8492,"Ġë¹µê³¼":8493,"ĠìĨĮê°ľíĮħ":8494,"ì»´":8495,"ĠìĿ¸íħĮë¦¬ìĸ´ìĻĢ":8496,"ĠìĺĨìĹĲìĦľ":8497,"ìĬ¹ìĿ¸":8498,"Ġë§¥ì£¼ê°Ģ":8499,"´ëĿ¼ìļ°":8500,"Ġê³łìĨĮíķ¨ìĿ´":8501,"ĠëĤľëĭ¤":8502,"ĠíļŁ":8503,"Ġê´ĳìĹŃ":8504,"ĠìĿ´ìĥģìĿĺ":8505,"ĠíĪ¬ëªħ":8506,"Ġë©´ìłģ":8507,"ĠëĬĲëģ¼íķ¨ìĿĦ":8508,"Ġê¹»ìŀİì°ľëĭŃ":8509,"Ġì¦Ŀëªħ":8510,"ĠìĮĪì±ĦìĨĮ":8511,"ĠëĤ´ëł¤ìĦľ":8512,"Ġìºł":8513,"ĠíĮĶìĿĦ":8514,"Ġì¼Ģìĸ´ë¥¼":8515,"Ġê·¸ëłĩì§Ģ":8516,"Ġëĭ¨ì²´ë¡ľ":8517,"Ġìĭ±íģ¬":8518,"ĠìĭľìĪłìĿĦ":8519,"Ġì§ģìĽĲë¶Ħëĵ¤ìĿ´":8520,"ì«ĢëĵĿ":8521,"ì£¼ìĭľëĬĶëį°":8522,"ĠíĶĦë¡ľìłĿ":8523,"ĠìĦŀìĸ´ìĦľ":8524,"ĠìĺĪìłķìŀħëĭĪëĭ¤":8525,"íķ´ë³¸":8526,"ĠíķľêµŃìĿ¸":8527,"Ġê¸īíķĺê²Į":8528,"Ġëĵ¤ìĸ´ê°Ķìĸ´ìļĶ":8529,"Ġë£¨íĬ¸":8530,"ĠëıĻìŀĳìĿĦ":8531,"Ġëģ¼ê³ł":8532,"ìļ´ëıĻìĿĦ":8533,"Ġì£¼ìĿĺìĤ¬íķŃ":8534,"ĠìĨĮê°ľíķ´ëĵľë¦´ê²ĮìļĶ":8535,"ìŁģë°ĺ":8536,"Ġê¹Ķëł¤":8537,"Ġë¶Ģíĥģëĵľë¦½ëĭĪëĭ¤":8538,"ĠìļĶê±°íĬ¸":8539,"Ġì¹´ì¹´ìĺ¤íĨ¡":8540,"Ġë´īì²ľìĹŃ":8541,"ĠëĨĢëŀĲìĸ´ìļĶ":8542,"Ġë¶ĢìĤ°ìĺ¤ëİħë°Ķ":8543,"Ġë°°ì¹ĺëĲĺìĸ´":8544,"´ë©ĶëĿ¼":8545,"ĠëĮĢë¡ľë³ĢìĹĲ":8546,"ĠìĦ¸ë¸ĮëŀĢìĬ¤ë³ĳìĽĲ":8547,"Ġíķľë§ĪìĿĮ":8548,"´Ĳìķ¼":8549,"Ġë¬¸ìĦ±ê³¨ì¡±ë°ľì§ĳ":8550,"Ġê·¸ëĭ¤ìĿĮ":8551,"ĠìľłíĬľë¸Į":8552,"Ġë°ĶíĭĢëį°ìĿ´":8553,"Ġë°ĶëĶĶì½Ķëĵľ":8554,"ĠìķĦëĤĮìĹĨìĿ´":8555,"ĠìķĦìĿ¸ìĬĪíİĺëĦĪ":8556,"Ġë°±ì¢ħìĽĲ":8557,"ìĿ´ê¸´":8558,"ĠìĭŃ":8559,"íķĺì§Ħ":8560,"íķĺëĭ¤ë©´":8561,"ëĭĪëĭ·":8562,"ê°Ģë©´ìĦľ":8563,"ì§Ģêµ¬":8564,"ìĿĢíĸī":8565,"ìľĪ":8566,"ìĬ¤ëıĦ":8567,"ĠëĤ©ëĭĪëĭ¤":8568,"ì´¬ìĺģ":8569,"Ġìĭłë¦¼ëĭŃê°Īë¹Ħ":8570,"Ġìĭłë¦¼íļĮìĭĿ":8571,"ĠìĿ´ìª½":8572,"ëĵ¤ìĹĲ":8573,"ì²©":8574,"Ġëĭ¤ë¦¬ë¥¼":8575,"Ġíķĺìĭľê³ł":8576,"ĠìķĦëĭĪëĭ¤":8577,"ĠìķĦìĭ¤":8578,"Ġê²ª":8579,"Ġìĺ¤ì½Ķëħ¸":8580,"Ġìĭľê³¨":8581,"ĠëĦ¥":8582,"ìŀĲìĿĺ":8583,"ìŀĲì²´":8584,"Ġê³łê´ĢìłĪ":8585,"ê°ĦìĹĲ":8586,"ë²¤":8587,"ê±°ëĿ¼ê³ł":8588,"Ġíķľì¸µ":8589,"Ġíķľìª½ìĹĲ":8590,"ĠíķľìĿĺìĽĲ":8591,"Ġíķľì¼ł":8592,"ìĻĢìĤ¬ë¹Ħ":8593,"ìĪĺìĹĲ":8594,"ìħĶë":8595,"ìĤ¬ìĹħ":8596,"ìĤ¬ê±°ë¦¬":8597,"ĠìłĦê³¨":8598,"ë¶ĦìĿĢ":8599,"ìĨĮë§ī":8600,"Ġë°Ķê¸Ģ":8601,"Ġëª¨ëĭĪ":8602,"Ġëª¨ì°Į":8603,"Ġëª¨ë¥´ê²Į":8604,"ëįĶëĿ¼ê³ł":8605,"ĠìķĬëĤĺ":8606,"ĠìĹĨì§Ģ":8607,"ĠëĲĺëıĦë¡Ŀ":8608,"Ġìŀĺë¨¹ê³ł":8609,"Ġì¸µë¶ĢíĦ°":8610,"Ġëĵ¤ìĸ´ìĺ¨":8611,"ì½ĶëĦĪ":8612,"Ġì¤ĳìĿ¸":8613,"Ġíķ´ìĨĮ":8614,"Ġëĵ±ìľ¼ë¡ľ":8615,"ì§ľìŀ¥":8616,"Ġíģ¬ê¸°ë¡ľ":8617,"Ġë°°ëł¤":8618,"Ġë¯¸ì¹ľ":8619,"ĠìĥĿê°ģëĤĺ":8620,"Ġìľłë°ľ":8621,"ĠëĤ¨ê¸°":8622,"ëŀĢíŀĪ":8623,"ĠëĬĲëĤĢ":8624,"ë¸Ķë§ģ":8625,"íı¬ëıĦ":8626,"Ġì°¨ìĿ´":8627,"Ġê°ĢëĬ¥ìĦ±ìĿ´":8628,"Ġìĭľê°Ħíĳľ":8629,"Ġì°įê¸°":8630,"Ġì»¤ë®¤":8631,"Ġë§Ĳíķł":8632,"íķ¨ìĿĢ":8633,"ëĭ¬ìĿĺ":8634,"ĠíķĺëĤĺë¡ľ":8635,"Ġëħ¸ë¥¸":8636,"ĠíħĮìĿ´ë¸ĶìĿĦ":8637,"ĠëĤłëıĦ":8638,"Ġì¢ħíķ©":8639,"ĠìĽĶëĵľ":8640,"Ġì¹ľêµ¬ëıĦ":8641,"ĠìĪľìĦľ":8642,"ĠìĦ¤íĥķ":8643,"ĠìĹ´ìĸ´":8644,"Ġëĸ¡ìĿ´":8645,"Ġì»¤íĶ¼ëĬĶ":8646,"ĠëĶĶìłĢíĬ¸ë¥¼":8647,"ĠìŃĪê¾¸ë¯¸ìĤ¼ê²¹ìĤ´":8648,"Ġì¤Ģë¹Ħê°Ģ":8649,"ì¦ĿìĿĦ":8650,"ĠìĿ´ëıĻìĿ´":8651,"Ġë©Ķëī´íĮĲìĿĢ":8652,"ìĬ¤íĬ¸ìĹĲ":8653,"ê±¸ìĿĮ":8654,"Ġì²´ì¤ĳ":8655,"ĠëģĿìĿ´":8656,"Ġëĸ¼":8657,"ĠìĿ´ë²ĪìĹĲëıĦ":8658,"Ġê´ľì°®ìķĺ":8659,"Ġëĸ¡ë³¶ìĿ´ê°Ģ":8660,"Ġì¶ľì²ĺ":8661,"ì¹ĺì¦Īì¼ĢìĿ´íģ¬":8662,"Ġìķ¼ì±Ħë¥¼":8663,"ĠìĭĿê°Ĳê³¼":8664,"ĠíĮĲëĭ¨":8665,"ĠíĪ¬íķĺ":8666,"Ġë¿Įëĵ¯":8667,"ĠëĬĲëģ¼ëĬĶ":8668,"Ġë°ĺì°¬ìĿ´":8669,"Ġêµ¬ìĦ±ëĲľ":8670,"ĠìĹ°ìĦ¸ë¡ľëĤĺê¸¸":8671,"Ġìļ©ìĿ´":8672,"Ġëļ±":8673,"Ġìĭľì¼°ëĭ¤":8674,"Ġë¦¬ë·°ë¥¼":8675,"ì³ĲìĦľ":8676,"ĠêµĲíĨµë§Ŀ":8677,"Ġë¶Ģëĭ´ìĿ´":8678,"Ġë¶ĢìľĦë¥¼":8679,"Ġë°©ë²ķìľ¼ë¡ľ":8680,"ê°ĢëĬ¥íķľ":8681,"Ġì½©ëĤĺë¬¼êµŃ":8682,"Ġê°ķëĤ¨ìĹŃê³¼":8683,"Ġë§Īë¬´ë¦¬ë¡ľ":8684,"ĠìĺģìĥģìĿĦ":8685,"Ġì¡°ìļ©íŀĪ":8686,"ĠìĿĺìŀĲê°Ģ":8687,"ìĹ¼ìĥī":8688,"ĠìĸĳíĮĮìłĪìŀĦ":8689,"ĠíĥĢìŀħìĿĢ":8690,"Ġëĭ´ë°±íķĺê³ł":8691,"Ġê³µì§Ģê¸Ģ":8692,"ĠëĮĢë¶Ģë¶ĦìĿĺ":8693,"Ġë°Ľìľ¼ëŁ¬":8694,"Ġìĸ¹ìĸ´":8695,"Ġë´īì²ľë¡ľê¸¸":8696,"ĠíĶĮëłĪìĿ´íĮħ":8697,"Ġìłĳê·¼ìĦ±ëıĦ":8698,"ĠìĿĢìĿĢíķľ":8699,"Ġê±¸ìĸ´ê°Ģë©´":8700,"Ġê°ĸì¶°ìł¸":8701,"Ġíıīë²Ķíķľ":8702,"ĠëĳĲë¦¬ëĭŃë°ľìķ¤ìª½ê°Īë¹Ħ":8703,"ĠíĹĪë²ħì§Ģ":8704,"ĠìķĦíĭ°ìłľ":8705,"ĠëĵľëłĪìĬ¤ë£¸":8706,"ĠìĦ¼íĦ°íķĦëĵľ":8707,"ĠìĿ¼ì£¼ìĿ¼":8708,"ĠíĹ·ê°Ī":8709,"Ġì»¤ë®¤ëĭĪíĭ°":8710,"ìīĳ":8711,"Ġì¨":8712,"Ġì©":8713,"ëĬĶëĭ¤":8714,"íķĺêµ¬":8715,"íķĺìŀĲ":8716,"ì§ĢëĿ¼":8717,"ë¦¬íı¬":8718,"ĠìŀĪê¸´":8719,"ëĤ¼":8720,"ëĿ¼ìļ´":8721,"ìĭľê°Ģ":8722,"ìķĦëıĦ":8723,"ĠìĿ´íĥľ":8724,"ëĵ¤ê¹Įì§Ģ":8725,"ĠìĪĺëĬĶ":8726,"Ġê·¸ìķ¼":8727,"Ġê·¸ëłĪìĿ´":8728,"ìľ¼ë¡ľìĦľ":8729,"Ġëĭ¤ì°Į":8730,"Ġíķĺê¸°ë¡ľ":8731,"ĠìķĦëĭĺ":8732,"ì¹ĺë§Į":8733,"Ġìĺ¤ëıĮ":8734,"ìŀĲìĹ°":8735,"ê±°ë¦¬ëĬĶ":8736,"ê±°ìĺĪìļĶ":8737,"Ġìĭłë¦¼ìĹŃìĥ¤ë¸Įìĥ¤ë¸Į":8738,"ë¹Ħë¹Ķ":8739,"Ġëį¥":8740,"Ġëį©":8741,"Ġë§Īë¦¬":8742,"Ġìĭłì´ĮìĹŃìĿ´":8743,"ĠìķĪëĲľ":8744,"ìļ©ëıĦ":8745,"íĮł":8746,"Ġìłķìľ¡ë©´":8747,"Ġë§İì§Ģë§Į":8748,"Ġë§İìķĺìĬµëĭĪëĭ¤":8749,"ĠìłĢë²ĪìĹĲ":8750,"ĠìĿ¸ìĭ¤":8751,"ĠìĿ¸ëįķìħĺ":8752,"ĠìłĦìĹĲëĬĶ":8753,"ĠìłĦë³µ":8754,"ìĤ¼ì´Į":8755,"Ġëª¨ëĭĿ":8756,"ĠìĪĦëįĶ":8757,"Ġë§ĮìĹĲ":8758,"Ġë§ĮìĦ±":8759,"ĠìŀĺëĲĺìĸ´":8760,"Ġì¸µì¸µ":8761,"ĠìĬ¤íĬ¸":8762,"ĠìĬ¤íĭ°":8763,"ĠìĬ¤íĮĮê²Įíĭ°":8764,"ĠìĬ¤ë¬´ëĶĶ":8765,"Ġê³µì§ľ":8766,"Ġê´Ģê³Ħ":8767,"Ġìļ°ëł¤":8768,"Ġìļ°ìĦ±ë¹ĮëĶ©":8769,"ìĤ´ëıĦ":8770,"Ġíİ¸ìĿ´ëĭ¤":8771,"Ġë¬´íĻĶê³¼":8772,"ĠìľĦì¹ĺë¥¼":8773,"ë²Ħëł¸":8774,"Ġìĭ¶ëĭ¤ê³ł":8775,"Ġê°ķíĻĶ":8776,"Ġìŀ¥ìĤ¬":8777,"Ġíķłê²ĮìļĶ":8778,"íĭ°ì§Ģ":8779,"Ġê¼½":8780,"ĠìĤ¬ì§ĦìĹĲ":8781,"Ġì°įëĬĶ":8782,"Ġì°įìĹĪ":8783,"Ġë§ĲìĿĦ":8784,"Ġë°Ľê¸°":8785,"ë§¤ê¸°":8786,"ìĨįìĪľëĮĢíĥĢìļ´":8787,"ĠíħĮìĿ´ë¸Ķë¡ľ":8788,"ĠìŀĪëĭ¤ë³´ëĭĪ":8789,"Ġê±¸ë¦¬":8790,"Ġìķ¼ê³±":8791,"Ġì£¼ì°¨ë¹Ħ":8792,"ĠìłĳìĭľìĹĲ":8793,"ĠëħĦìłĦ":8794,"ĠìŀĲë¦¬íķĺê³ł":8795,"Ġì¡°ê¸ĪìĿĢ":8796,"íĴĪìĿĦ":8797,"ĠëĬĲëĤĮìĿĢ":8798,"Ġì¹´ê³µ":8799,"Ġì¤Ģë¹Ħë¥¼":8800,"ĠìĤ¬ìļ©ìĬ¹ìĿ¸":8801,"ĠìķĪì£¼ë§Ľì§ĳ":8802,"Ġê¸¸ê²Į":8803,"ĠìĿ´ëıĻíķł":8804,"ĠìĿµìĸ´ìĦľ":8805,"Ġìħ°íĶĦ":8806,"ìĬ¤íĬ¸ë¡ľ":8807,"ĠëģĿëĤĺ":8808,"ĠëģĿëĤľ":8809,"ĠëĨĴìĬµëĭĪëĭ¤":8810,"Ġì°½ì²ľ":8811,"Ġì°½ìĹħ":8812,"Ġê°ľìĿ¸ìłģìĿ¸":8813,"ĠëĬĲê»´ì¡Įìĸ´ìļĶ":8814,"Ġê¸°ëĭ¤ëł¸":8815,"Ġê°Ģê¹ĮìĽĮìļĶ":8816,"Ġì§Ģíķĺì²łìĿĦ":8817,"Ġìĸ¼ë§ĪìłĦ":8818,"ĠëĴ¤ì§ĳ":8819,"Ġì¹ľìłĪíķĺê³ł":8820,"Ġìĵ°ë¦¬":8821,"Ġë©´ëıĦ":8822,"ĠíĹĪë¦¬ê°Ģ":8823,"ĠìĨĮì£¼ë¥¼":8824,"Ġë°ĺì°¬ìľ¼ë¡ľ":8825,"ĠìľĦì¹ĺíķ´ìŀĪëĭ¤":8826,"Ġëªĩë²Ī":8827,"ìĬ¤íĦ°ëĦ¤":8828,"Ġë¶Ħìĸĳê°Ģ":8829,"Ġíĺ¼ìŀĲìĦľ":8830,"Ġì«Ħê¹ĥíķĺê³ł":8831,"ĠíĥĪìĿĺìĭ¤":8832,"ĠëıĦì°©íķł":8833,"Ġê°ľìĿ¸ìłģìľ¼ë¡ľëĬĶ":8834,"ĠìĭľíĤ¤ê³ł":8835,"ĠëĤ´ìļ©ìĿĢ":8836,"ĠëıĦë¦¼ì²ľë§Ľì§ĳ":8837,"ĠìĽĲë£¸íħĶ":8838,"Ġêµ°ëį°":8839,"ĠìĹĲìĬ¤íĶĦëłĪìĨĮ":8840,"ĠíĶĦëłĪìī¬":8841,"ì»¬ëŁ¬":8842,"ĠíŀĻíķľ":8843,"ĠìķĮëł¤ëĵľë¦´ê²ĮìļĶ":8844,"ĠìĦ¸íĥģê¸°":8845,"ĠìłĲìĭ¬ìĭľê°ĦìĹĲ":8846,"ĠìĦ¸ìĥģìĹĲ":8847,"ĠìĿ´ìĽĥì¶Ķê°Ģ":8848,"ĠíĶ½ìĹħ":8849,"Ġë¡¯ëį°ìĭľëĦ¤ë§Ī":8850,"Ġì½ķì½ķ":8851,"ëłĲëĿ¼":8852,"ĠëĶ°ëģĪëĶ°":8853,"Ġì²Ļì¶Ķ":8854,"Ġê·¼ë¦°ìĥĿíĻľ":8855,"Ġìłģíķ©íķľ":8856,"ĠìłĢìŀĳìŀĲ":8857,"Ġìĸ´ë¥¸":8858,"ĠìĬ¹ê°ķìŀ¥":8859,"ĠíĹĮíĮħ":8860,"Ġì»¤ëĭ¤ëŀĢ":8861,"Ġê·¸ìķ¼ë§Ĳë¡ľ":8862,"ìĹĮ":8863,"ìĿ´ìŀĲ":8864,"íķĺìĺĢëĭ¤":8865,"ìķĹ":8866,"ê°ĢëĦ¤":8867,"´ëł":8868,"ë¥´ë³":8869,"ë¥´ë©Ķ":8870,"Ġë§ĽëĤĺìļĶ":8871,"ĠìĿ´ë§ĪíĬ¸":8872,"ëĤĺìĿĺ":8873,"ĠìĪĺê°ķ":8874,"Ġëĭ¤ìĦ¯":8875,"Ġì£¼ìħ¨ëĬĶëį°":8876,"Ġíķĺê±°ëĤĺ":8877,"ìŀĪëĬĶëį°ìļĶ":8878,"Ġìĺ¤ê²Į":8879,"Ġìĺ¤ìĭľë©´":8880,"Ġìĺ¤ë¦¬ì§Ģ":8881,"Ġìĺ¤ëłĪìĺ¤":8882,"Ġìĭľëł¥":8883,"ĠìĭľëĮĢìĹĲ":8884,"ĠëĤĺì§Ģ":8885,"ìŀĲìĹĲ":8886,"ìŀĲìĭĿëĭ¹":8887,"ë²¤íĬ¸":8888,"Ġìĭłì´ĮìĹŃì¹´íİĺ":8889,"Ġìłķë³´ë¥¼":8890,"ë¶Ģëĵ¤":8891,"ë¬´íķľ":8892,"Ġê¸°ê¾¸":8893,"ĠìĿ¸ìĤ¬":8894,"ĠìĿ¸íĺķ":8895,"ìĭłëĭ¤ê³ł":8896,"ìĭłì²Ń":8897,"ìĭ¤ìĿĦ":8898,"íĦ´":8899,"Ġë§Ľì§ĳìĹĲ":8900,"Ġë°Ķíĥķìľ¼ë¡ľ":8901,"Ġë¶Ģìłķ":8902,"ĠìĦľìļ¸ìĹĲ":8903,"ìłĦìĦ¸":8904,"ì°¨ìĿ´":8905,"ĠìķĬìķĺìĬµëĭĪëĭ¤":8906,"ĠëĲĺê¸°":8907,"íķĺëĬĶê²Į":8908,"Ġêµ¬ë¶Ģ":8909,"Ġê³³ìĿ´ëĿ¼ê³ł":8910,"Ġì¤ĳê³ł":8911,"Ġíķ´ìŀ¥êµŃ":8912,"ë³Ħê³¡":8913,"ê²łëįĶëĿ¼êµ¬ìļĶ":8914,"ìĥĿê°ģ":8915,"ìĥĿíģ¬ë¦¼":8916,"ë°©ìĿĢ":8917,"ë°©íĸ¥":8918,"Ġê³ĦìłĪ":8919,"Ġìĺ¬ë¦°":8920,"Ġëĵ±ê°Īë¹Ħì°ľ":8921,"Ġíİ¸íŀĪ":8922,"ĠìĭĿëĭ¨":8923,"Ġëĭ¨ìķĦíĬ¸":8924,"Ġëĭ¨ì§ł":8925,"Ġë°°ê¼½":8926,"Ġì¹´íİĺëĿ¼ëĸ¼":8927,"Ġìĭ¶ìľ¼ë©´":8928,"ĠíĸĪìĹĪëĬĶëį°":8929,"Ġë°©ë¬¸íĸĪìĬµëĭĪëĭ¤":8930,"Ġì½Ķë":8931,"Ġìĺģë¦¬ìłģ":8932,"Ġëĵľìĭľ":8933,"Ġê°Ħê²©":8934,"ëªħìĿ´ìĦľ":8935,"ê²½ìĿĺ":8936,"Ġë°ĺëł¤":8937,"Ġë°ĺìĪĻ":8938,"ĠíĶ¼íģ¬":8939,"Ġíķłê¹Į":8940,"Ġì´Īê¸°":8941,"Ġëĭ¬ê³ł":8942,"íķ¨ìĹĲ":8943,"ëĲľìŀ¥":8944,"ĠíķĺëĤĺê°ĻìĿ´":8945,"ë¦°ëĤ´":8946,"Ġì¹ĺì¦ĪìĻĢ":8947,"Ġê±¸ë¦¬ëĬĶ":8948,"Ġë§ŀìķĦ":8949,"ĠëħĦìĿ´":8950,"ĠìĿĮìĭĿëıĦ":8951,"ĠìĿĮìĭĿëĵ¤ìĿ´":8952,"ì¹´íİĺìĿ¸":8953,"ĠíŀĮ":8954,"Ġì²ĺìĿĮìľ¼ë¡ľ":8955,"Ġì²ĺìĿĮë¶ĢíĦ°":8956,"ëĤľëĭ¤":8957,"íķ´ì£¼ìħ¨":8958,"Ġì§ĦíĸīìĿ´":8959,"Ġì§ĦíĸīëĲĺê³ł":8960,"ĠìłĢíĿ¬ëıĦ":8961,"Ġëį°ë¦¬ê³ł":8962,"ĠëĶĶìłĢíĬ¸ëıĦ":8963,"ĠëĪĪê¸¸ìĿĦ":8964,"Ġë§¤ìļ´ë§ĽìĿ´":8965,"ìĬ¤íĬ¸ë¦¿":8966,"Ġì²´ë¦¬":8967,"Ġíķ´ì£¼ìħ¨ìĸ´ìļĶ":8968,"Ġê°ĶëįĶëĭĪ":8969,"ĠìķīìĿĢ":8970,"êµ°ëį°":8971,"Ġë§ĪìĿĮìľ¼ë¡ľ":8972,"Ġê³³ìĿ´ìĹĪìĸ´ìļĶ":8973,"Ġê¸°ëĭ¤ë¦´":8974,"Ġê´ľì°®ìķĦ":8975,"Ġë§¥ì£¼ëıĦ":8976,"Ġë¨¹ìľ¼ëĿ¼ê³ł":8977,"Ġê³±ì°½ìĿĦ":8978,"Ġëĸ¡ë³¶ìĿ´ë¥¼":8979,"Ġê´ĳëªħ":8980,"Ġë³ĢíĻĶë¥¼":8981,"ĠìķĮëł¤ëĵľë¦¬":8982,"Ġì´Īë°¥ì§ĳ":8983,"Ġì¦ĿìĥģìĿ´":8984,"Ġìļ©ìĨĮë§ī":8985,"Ġë¶Ģë¶ĦìĹĲ":8986,"ĠìĿ´ë²¤íĬ¸ë¥¼":8987,"Ġíģ´ë¦¬ìĸ´":8988,"Ġê½ĥê²Į":8989,"ìĬ¤ëŁ½ê³ł":8990,"ĠíĶ¼ë¶Ģê³¼":8991,"Ġê³ĦëŀĢì°ľëıĦ":8992,"Ġì£¼ê±°íĺķ":8993,"Ġì¾Įìłģíķĺê³ł":8994,"Ġê°Ħìŀ¥ìĹĲ":8995,"Ġì°°ì¹µ":8996,"Ġì°Ĳë§Ľì§ĳ":8997,"Ġë©Ģíĭ°":8998,"Ġë¶Ģì¶Ķë¬´ì¹¨":8999,"ĠìĿ¼ë³¸ìĭĿ":9000,"Ġë§¤ëł¥ìĿ´":9001,"Ġë§¤ëł¥ìłģìĿ¸":9002,"ë§ŀì¶¤":9003,"Ġìĭłê²½ìĵ°":9004,"Ġë°Ŀê³ł":9005,"ĠìĥĪì½¤íķľ":9006,"ĠìºĲìĬ¤íĦ°ëĦ¤":9007,"Ġì½ĶìĬ¤ë¡ľ":9008,"Ġíı¬ëıĦìĽĲ":9009,"ĠëıĻì¹ĺë¯¸ë§īêµŃìĪĺ":9010,"ĠìķĪìĭ¬íķĺê³ł":9011,"Ġë¬¼ìĸ´ë³´":9012,"ĠíĶĦëłĪë¦¬":9013,"Ġë°©ë¬¸íĸĪìĿĦ":9014,"Ġë§Ŀê³ł":9015,"Ġìķ½ìĨįìĿ´":9016,"Ġíģ¼ì§Ģë§ī":9017,"ĠíĮĮíĭ°ë£¸":9018,"Ġìį°ìĸ´":9019,"Ġëª°ëŀĲëĬĶëį°":9020,"ĠìķĦëĬĳíķĺê³ł":9021,"Ġê¿Īëĭ¹":9022,"Ġë²½ë©´ìĹĲ":9023,"Ġë°©ë¬¸íķ´ë³´ìĦ¸ìļĶ":9024,"Ġìŀĺëª»ëĲľ":9025,"Ġë§ŀìĿĢíİ¸":9026,"ìĵ¸":9027,"ĠìĹīëį©ìĿ´":9028,"Ġê³łìĸĳìĿ´":9029,"ìħĢíĶĦ":9030,"ĠíĶĮëŀĺíĦ°":9031,"ĠìĨĮìĦ¸ì§Ģ":9032,"Ġì§Ģë¦¬ìĤ°ìĤ¼ê³Ħíĥķ":9033,"Ġê³łì¶§ê°Ģë£¨":9034,"Ġíİ¼ì³Ĳ":9035,"Ġìłķìľ¡ë©´ì²´":9036,"¸ì¦Ī":9037,"íķ´ë¥¼":9038,"ìĿ´ëĭĪê¹Į":9039,"íķĺì§ĢëĬĶ":9040,"Ġìĭłíĺ¼":9041,"ĠìŀĪëĤĺ":9042,"ĠìŀĪê±°ëĵłìļĶ":9043,"ĠìŀĪëĭµëĭĪëĭ¹":9044,"ìľ½":9045,"ĠìĹ´ë¬´":9046,"ëĤĮìĿ´":9047,"Ġë§ĽìŀħëĭĪëĭ¤":9048,"Ġìĭłì´Įë¡ľê¸¸":9049,"Ġìĭłì´Įë¯¸ìļ©ìĭ¤":9050,"Ġìĭłì´ĮëĦ¤ìĿ¼":9051,"Ġìĭłë¦¼ê³łê¹ĥì§ĳ":9052,"ìĺ´":9053,"ĠìĿ´ìĹĲìļĶ":9054,"ìĿ¸ì¤Ħ":9055,"Ġëĭ¤ìļ´":9056,"Ġëĭ¤ëĵľë¦¼íĶ¼ë¶ĢìĹ°êµ¬ìĨĮ":9057,"ĠìķĦë³´":9058,"ì¹ĺë¡ľ":9059,"Ġì¢ĭê²łìĬµëĭĪëĭ¤":9060,"ĠìĤ¬ê³¨":9061,"Ġìĺ¤ìĦ¸ìļĶ":9062,"Ġìĺ¤ëłĮì§Ģ":9063,"ìĹĲìĦľë§Į":9064,"Ġë³´ìŀ¥":9065,"Ġìĭłë¦¼ìĹŃìĮĢêµŃìĪĺ":9066,"ìłĲìľ¼ë¡ľ":9067,"ë¹Ħì¦Ī":9068,"ìĻĢìĿĺ":9069,"íİį":9070,"íĮ¥":9071,"íķĺê³łìŀĲ":9072,"Ġìłķê±°":9073,"ë¶ĢìĨį":9074,"Ġë§ĽìŀĪëĭ¤ëĬĶ":9075,"ìĤ¬ìŀ¥ëĭĺ":9076,"ĠìŀĲê²©":9077,"Ġê°ĻìĿĮ":9078,"Ġë§¤íĬ¸":9079,"ë§ĪìļĶ":9080,"ĠëĮĢìĹ¬":9081,"ë§ĽìĿĢ":9082,"ë§Ľìľ¼ë¡ľ":9083,"ìĨĮê°Īë¹Ħì°ľ":9084,"Ġë°Ķê²ĮíĬ¸":9085,"Ġëª¨ì§ľ":9086,"ĠìĽĲëį°ìĿ´":9087,"Ġë¶Ģë¶Ģ":9088,"Ġì§Ħíķĺê²Į":9089,"ìĪ²":9090,"ìłľëıĦ":9091,"Ġêµ¬ìļ¸":9092,"Ġì¶ĶìĽĮìĦľ":9093,"Ġìĥģì£¼":9094,"ĠìĸĳìĿĦ":9095,"Ġëĵ¤ìĸ´ìĺ¬":9096,"Ġëĵ¤ìĸ´ìĻĢìĦľ":9097,"ëĭĺê»ĺìĦľ":9098,"ĠìĦłìłķ":9099,"ĠëħĢìĦĿ":9100,"ìłĢë¶Ħ":9101,"ìľĦë¥¼":9102,"Ġê³ĦìĭľëĬĶ":9103,"ĠìļĶìĨĮ":9104,"Ġìĺ¬ëŀĲ":9105,"ĠëĤ´ê³ł":9106,"ĠëĤ´ìĻ¸":9107,"ê°ľë¥¼":9108,"Ġë¯¸ìĦ¸":9109,"Ġì¹´íİĺìĬ¤íĬ¸ë¦¿":9110,"Ġìĭ¶ìĹĪ":9111,"ĠëĤ¨ê²¼":9112,"Ġíĺ¸ë¡ľë¡Ŀ":9113,"íĸīìĤ¬":9114,"Ġìĸ´ëĳ":9115,"ĠíĮĮë§Ī":9116,"ê±´ê°Ģ":9117,"ê±´ê°ķ":9118,"íĭ°ìĬĪ":9119,"Ġì§ĳìĿĢ":9120,"ë°Ķê¸Ģ":9121,"ĠìĹ¬ê¸°ë¡ľ":9122,"Ġë¶ĪìķĪ":9123,"Ġë¶ĪëĭŃ":9124,"ĠêµŃë°¥":9125,"ì¡°ëĺĲ":9126,"Ġë¬¼íĭ°ìĬĪ":9127,"ìĹ°ìŀ¥":9128,"Ġìĭ¤ìļ©":9129,"ĠëĤłì§ľ":9130,"ĠíĬ¹ìĦ±":9131,"Ġë§¤ìŀ¥ìĿĦ":9132,"Ġê½ģ":9133,"Ġëĭ¤ìĿĮìĹĲëıĦ":9134,"Ġë°ľëĭ¬":9135,"Ġì»¤íĶ¼íģ¬ëłĪíİĺ":9136,"Ġìĺ¬ëĿ¼ìĻĢ":9137,"Ġì¹´ëĵľ":9138,"ĠëĦ£ìľ¼ë©´":9139,"Ġê¸ĢìĿĦ":9140,"ĠìŃĪê¾¸ë¯¸ë¥¼":9141,"Ġê°Ģì§ĢëŁ°":9142,"ĠíĻįìĿµ":9143,"ĠëłĪìĿ´":9144,"Ġíķ´ì£¼ìĭľëĬĶ":9145,"ĠëĨĴê²Į":9146,"Ġì²ľìŀ¥":9147,"ĠëĬĲê»´ìł¸ìĦľ":9148,"Ġìĸ¸ì£¼":9149,"Ġë¬´ë¼Ī":9150,"ìĸ´ì£¼ëĬĶ":9151,"Ġê°Ģìł¸ìĺ¤":9152,"Ġëį°ìĿ´íĬ¸ì½ĶìĬ¤":9153,"Ġê´ĳìŀ¥":9154,"Ġë©´ìĿĦ":9155,"Ġë°Ģëĸ¡":9156,"Ġë³Ģìĭł":9157,"Ġë°ĸìľ¼ë¡ľ":9158,"ĠìŀĶìĿĦ":9159,"Ġê²¨ìŀĲ":9160,"Ġê³łë¥´ëĵľëĬĶ":9161,"Ġëª¨ë¥´ëĬĶ":9162,"Ġë³´ëĤ¼":9163,"Ġë¬¼ë¡łìĿ´ê³ł":9164,"ĠíĴĢìĸ´":9165,"ĠìķĦì§ģìĿĢ":9166,"ìķ¤ë¶ģ":9167,"Ġë°©ë²ķìĿ´":9168,"Ġì¹ĺìķĦê°Ģ":9169,"Ġê³łê¸īì§Ħ":9170,"Ġíģ¬ë¡ľìĻĢìĥģ":9171,"ĠìĤ¬ìĿ´ì¦Īë¡ľ":9172,"Ġë¶Īíİ¸íķľ":9173,"ĠëįķìĹĲ":9174,"íį¼ìĬ¤":9175,"ĠìĤ¬ìĹħìŀ¥ìĿĢ":9176,"ĠìĹĺëłĪ":9177,"ĠìĪĻìĦ±íļĮ":9178,"ĠìĻ¼ìª½ìĹĲ":9179,"íģ´ëŀĺ":9180,"ĠìĺĪìłĦìĹĲëĬĶ":9181,"Ġê·¼ìľ¡ìĿĦ":9182,"Ġíķ´ë³´ê³ł":9183,"Ġë¶Ļìĸ´ìŀĪëĬĶ":9184,"ĠìĦłíĺ¸ëıĦê°Ģ":9185,"Ġì«ĢëĵĿì«ĢëĵĿ":9186,"Ġê´Ģìĭ¬ìĿ´":9187,"Ġë°°ê³łíĶĪ":9188,"Ġì§Ħë£Įë¥¼":9189,"Ġì²łíĮĲìĹĲ":9190,"ĠìĮĵìĹ¬":9191,"ĠíĮĮìļ´ëĵľì§Ĳ":9192,"Ġìľ¼ëľ¸ìķĪê²½":9193,"ĠíĨµíĨµíķľ":9194,"Ġë§Īë²¨ëĦ¤ìĿ¼":9195,"Ġë°Ģë¦¬ìĸ¸ë²Ħê±°":9196,"Ġìĸĳì§Ģë³ĳìĽĲ":9197,"Ġê¸°êµ¬íķĦëĿ¼íħĮìĬ¤ë¥¼":9198,"ĠëĤĺëīĺ":9199,"Ġì°°ë¦¬ìĤ¼ì´Į":9200,"´ë¶ĢíĦ°":9201,"Ġíĭ°ëĿ¼ë¯¸ìĪĺ":9202,"ë¸Įë¦¬ìĤ´":9203,"Ġìĺ¬ë°Ķë¥¸":9204,"Ġë°Ķê¸Ģë°Ķê¸Ģ":9205,"ĠìºĲìĬ¤íĦ°ëĦ¤ì¸ł":9206,"ĶìĦľ":9207,"Ġë®¤":9208,"ìĿ´ìħĺ":9209,"ìĿ´ëįĶëĿ¼ê³łìļĶ":9210,"ĠíĲģ":9211,"ê°±":9212,"Ġìŀī":9213,"ìĸ´ë°ĺ":9214,"ê¸ĢìĿ´":9215,"ìĦľë¹ĦìĬ¤":9216,"ëĭĪìķĦ":9217,"Ġìĭłìĺģë¹ĮëĶ©":9218,"ë¦¬ë©´ìĦľ":9219,"íķ´ì¡Į":9220,"Ġë§ĽìĿ´ëĿ¼":9221,"Ġê°ĢìĭľëĬĶ":9222,"Ġìĭłë¦¼ì§ģìĺģìłĲ":9223,"ĠìĿ´ë§Į":9224,"ĠìĥĽê°ķ":9225,"Ġê·¸ìĹĲ":9226,"Ġìĸĩê²Į":9227,"ĠíķĺìĿ´ëĿ¼":9228,"Ġíķĺê¸°ëıĦ":9229,"ĠìķĦë¦¬":9230,"ì¹ĺìĿĺ":9231,"Ġì¹´ë©ĶëĿ¼":9232,"Ķë¯¸":9233,"Ġìĺ¤ìĭľ":9234,"ëĵľëĿ¼":9235,"Ġê³łìĥĿ":9236,"ĠìĦľëĤ¨":9237,"ê±°ìļ¸":9238,"Ġìĭłë¦¼ìĹŃëĭŃë°ľ":9239,"ĠìĽħ":9240,"íİĢ":9241,"Ġìłķê²¨":9242,"Ġë§İìľ¼":9243,"Ġë§İëĭ¤ê³ł":9244,"ìĤ¬ëŀĳ":9245,"ĠìŀĲëª½":9246,"Ġë§¤ìĽĮ":9247,"íħĿ":9248,"Ġëĵ¤ìĿĦ":9249,"Ġëĵ¤ëįĶëĿ¼êµ¬ìļĶ":9250,"ì¦Ĳ":9251,"Ġì§Ģê°Ģ":9252,"ĠìĹŃìĦ¸ê¶ĮìĿ´":9253,"ìĨĮê¸Ī":9254,"ìķ¼íĤ¤":9255,"Ġë§Ľì§ĳëĭµê²Į":9256,"Ġë°Ķìģľ":9257,"Ġëª¨ì¹´":9258,"ĠìķĬìľ¼":9259,"Ġë§ĮíĻĶ":9260,"Ġìŀĺë¨¹":9261,"Ġë°©ìĹŃ":9262,"Ġêµ¬ìĿĺ":9263,"íķłìĿ¸":9264,"ĠìĬ¤íı¬":9265,"ĠìĬ¤íħĿ":9266,"Ġë¹Ħìľ¨ìĿ´":9267,"íĻĶìĽĲ":9268,"ëłĪìĭ±":9269,"ëłĪìĬ¨":9270,"ĠìļĶêµ¬":9271,"Ġë¬´ìĦľ":9272,"Ġíĺ¸íĿ¡":9273,"Ġìĺģëĵ±íı¬":9274,"Ġì§ģìŀ¥":9275,"Ġë°ĺê²¨":9276,"ëĤ¨ìŀĲ":9277,"Ġíķłì§Ģ":9278,"ĠíķłìķĦë²Ħ":9279,"Ġì°¨ìĬĪ":9280,"Ġê°ĢëĬ¥íķĺëĭ¤ëĬĶ":9281,"íĭ°ëĵľ":9282,"ĠìĤ¬ì§Ħê³¼":9283,"Ġê°Ĳê°ģ":9284,"ëĶĶì§ĢíĦ¸":9285,"ê³Ħíļį":9286,"Ġëĭ¬ì§Ģ":9287,"ë¥ĺë¥¼":9288,"ĠìķŀìĹĲëĬĶ":9289,"Ġë¬¸ìĿ´":9290,"êµĲëıĻ":9291,"ĠíĨµìľł":9292,"ĠìłķëıĦë©´":9293,"ìĪľìĿ´":9294,"Ġì£¼ì°¨ë¥¼":9295,"ĠëŃī":9296,"Ġëĭ¹ìŀ¥":9297,"Ġëĭ¤ìĿĮë²Ī":9298,"Ġìĭłì´ĮìłĲìĿĺ":9299,"Ġë³´ìĿ´ì§Ģ":9300,"ë§īìĮĪ":9301,"Ġê³µê°ĦìĹĲìĦľ":9302,"ìĿ´ëŀĳëıĦ":9303,"ìłĳìĭľìĹĲ":9304,"ĠëĦĵìĸ´":9305,"ĠìĿ´ëŁ°ê±°":9306,"Ġëĭ´ìĿĢ":9307,"ĠìĿµìľ¼ë©´":9308,"Ġê°ĶìĬµëĭĪëĭ¤":9309,"Ġë§¤ì½¤íķĺê³ł":9310,"ìĹĲê²ĮëĬĶ":9311,"Ġê¹Ģì¹ĺëıĦ":9312,"Ġê¹Ģì¹ĺìĻĢ":9313,"ĠëıĪì½Ķì¸ł":9314,"ĠìĤ¼ê²¹ìĤ´ëıĦ":9315,"ĠìĿ¸íħĮë¦¬ìĸ´ë¥¼":9316,"ĠìĥĲëŁ¬ëĵľë¥¼":9317,"Ġì°¸ê³łíķ´":9318,"ì¿µ":9319,"Ķë²¨":9320,"Ġê°Ģìł¸ê°Ģ":9321,"Ġê¸°ëĮĢíķł":9322,"ë´Ĳìķ¼ì§Ģ":9323,"Ġìłľê³µíķ´":9324,"Ġëį°ìĿ´íĬ¸ë¥¼":9325,"Ġíļ¡":9326,"ĠëĬĲëģ¼íķľ":9327,"ìĿ¸ì§ĢëĿ¼":9328,"Ġì¼ĢìĿ´íģ¬ê°Ģ":9329,"Ġì´Īë°¥ìĿĦ":9330,"Ġì¦Ŀë§Ĳ":9331,"ë°ĽìĿĦ":9332,"Ġë¨¹ìĹĪëĭµëĭĪëĭ¤":9333,"íķ´ë²Ħ":9334,"ĠëĶ°ëľ»íķĺê³ł":9335,"ĠìķĬìĿĢëį°":9336,"Ġë´ĲìļĶ":9337,"ĠìĹħë¬´ì§Ģ":9338,"ĠìĿ´ë¦ĦìĿĦ":9339,"ĠìĿ´ë¦ĦìĿĢ":9340,"ĠìĪĺìĹħìĿ´":9341,"Ġì£¼ì°¨ìŀ¥ìĿĢ":9342,"Ġë´¤ëįĺ":9343,"ì¹´ì¸łëĤĺë²ł":9344,"ì£¼ì°¨ìŀ¥":9345,"ë¦ŃìĬ¤":9346,"Ġëķ¡ê¸¸":9347,"ĠëĭŃë°ľìĿĦ":9348,"Ġê·ĢìĹ¬ìĽĮìĦľ":9349,"ĠìĥģìĬ¹íķĺê³ł":9350,"ìĿ¸ê°ĢìļĶ":9351,"ì¹¼íĶĦ":9352,"ĠìĹ¬ìĦ±ìłĦë¬¸":9353,"ê¿Ģ":9354,"Ġìĭłë¦¼ìĦłìĿ´":9355,"Ġìĺ·ìĿĦ":9356,"Ġìĺ·ê±¸":9357,"Ġêµ¬ì¡°ë¡ľ":9358,"ĠíĿ¡ìĹ°":9359,"ë»Ķ":9360,"ĠìķĦë¬´ê²ĥëıĦ":9361,"ĠëĤĺìĺ´":9362,"Ġíİ¸ìĿĺìłĲ":9363,"Ġë¹Ħë¹ĶêµŃìĪĺ":9364,"Ġì½Ķë¡ľëĤĺë¡ľ":9365,"ĠìĿ½ìĸ´":9366,"Ġëŀľ":9367,"ĠëļĿë°°ê¸°":9368,"ĠìķĮëł¤ëĵľë¦´":9369,"ĠìĻĢìĿ´ëĵľ":9370,"Ġì¢ģìĿĢ":9371,"Ġì¸Ħ":9372,"Ġìĭ«ìĸ´íķĺëĬĶ":9373,"ĠëĿ½ì»¤":9374,"ĠìĬ¤íĨłë¦¬":9375,"ĠìĿµìĸ´ê°ĢëĬĶ":9376,"ĠìĿµìĪĻíķľ":9377,"ë¥´ì§Ģìĺ¤":9378,"ĠìĦłë¦īìĹŃ":9379,"Ġíĸ¥ê¸ĭíķľ":9380,"ĠìĬ¤íĮ¸":9381,"ê·¸ëŀĺëıĦ":9382,"Ġëħ¼íĺĦë¡ľê¸¸":9383,"Ġë¶Ģëĭ´ìĬ¤ëŁ½ì§Ģ":9384,"Ġë¶Ģëĵ¤ë¶Ģëĵ¤":9385,"Ġíķ´ëĤ¨":9386,"ĠíĮ½ìĿ´ë²ĦìĦ¯":9387,"´ëĿ¼ìļ°ëĵľ":9388,"Ġìĵ°ë¦¬ë£¸":9389,"ë¬´íķľë¦¬íķĦ":9390,"ë¹Ħì¦ĪìĦ¼íĦ°":9391,"µ¸":9392,"ļĿ":9393,"Ġì¯Ķ":9394,"Ġë½ķ":9395,"ìĿ´ì¶Ķ":9396,"ìĸ´íĥķ":9397,"ë¡ľë§Į":9398,"ë¡ľìľĪ":9399,"ëıĦìĹĲ":9400,"Ġìĭłë¢°":9401,"ĠìŀĪì§ĢìļĶ":9402,"ìĹŃìĿ´":9403,"ë¥´ë°Ķ":9404,"ìĭľì¼°":9405,"ìĤ´ë":9406,"Ġë§Ľê¹Ķ":9407,"Ġì§ĵ":9408,"êµ¬ì¡°":9409,"Ġìĭłì´Įìľ¼ë¡ľ":9410,"Ġë¶ĵ":9411,"Ġë¨¹ìĸ´ìļĶ":9412,"Ġë¨¹ê±°ë¦¬":9413,"ĠìĪĺìļĶìĿ¼":9414,"Ġê·¸ë¦Ń":9415,"ì°Ĳ":9416,"Ġëĭ¤ì§Ĳ":9417,"Ġì°¢":9418,"Ġíķĺê¸°ìĹĲ":9419,"ìŀĪìĿĦ":9420,"ìŀĪëįĶëĿ¼êµ¬ìļĶ":9421,"ĠìķĦìĽĥ":9422,"ĠìķĦë¹ł":9423,"ì¹ĺìĹĲ":9424,"ë³´ëĵľ":9425,"ë³´ìķĺìĬµëĭĪëĭ¤":9426,"ĠìĦľìĿ´ì¶Ķ":9427,"Ġë³´ìĺĢëĭ¤":9428,"ĠíķľìłĲ":9429,"Ġëį§":9430,"íĮĶë¡ľ":9431,"Ġìłķë¬¸":9432,"Ġìłķìľ¡ìĭĿëĭ¹":9433,"Ġë§ĽìŀĪëĦ¤ìļĶ":9434,"Ġë§İì§ĢëĬĶ":9435,"ĠìĨĮê³±ì°½":9436,"ìĭłëĭ¤ë©´":9437,"ĠìłĦëĭ¬":9438,"ë¶Ħëĵ¤ìĹĲê²Į":9439,"Ġì§ĢìłĢë¶Ħ":9440,"ìķĺëĭµëĭĪëĭ¤":9441,"ìĥģê¶Į":9442,"Ġê²ĥë§Į":9443,"Ġê²ĥê³¼":9444,"Ġëª¨ìķĦ":9445,"Ġëª¨ëħĢ":9446,"Ġë§ĮëĤ¨":9447,"ĠìĹĨëĦ¤ìļĶ":9448,"ĠìĹĨìĹĪì§Ģë§Į":9449,"ë§ĲëŀŃ":9450,"ĠëķĮì¯¤":9451,"ĠìĬ¤íħĮ":9452,"ĠìĺĪë¯¼":9453,"Ġëĵ¤ìĸ´ìĻĢ":9454,"Ġìŀħëł¥":9455,"ĠëıĦë¯¸":9456,"ĠíĻĶìĿ¼":9457,"ĠìļĶë¦¬ë¥¼":9458,"ĠíĽĦìĹĲëĬĶ":9459,"ĠíĽĦëĭ¤ëĭ¥":9460,"Ġëĭ¨ëĭ¨":9461,"Ġë¯¸ìĨĮ":9462,"ĠëĤ¨ê¸°ê³ł":9463,"ĠëĵľëŁ¬":9464,"ĠëĵľëłĪìĭ±":9465,"Ġê²½ìŀĲìĭĿëĭ¹":9466,"Ġë°ĺìĺģ":9467,"ê°Īë¹ĦëĬĶ":9468,"ëĤ¨ì§ĳ":9469,"íı¬ëłĪ":9470,"ìª½ìĹĲìĦľ":9471,"Ġì°įìĹĪëĬĶëį°":9472,"íķĺê¸°ê°Ģ":9473,"ëĶĶìŀĲ":9474,"ĠëĶĶìĬ¤íģ¬":9475,"Ġë°Ľìľ¼ë©´":9476,"ë§¤ë§¤":9477,"Ġìļ´ëıĻë³µ":9478,"ĠìĨĲìĹĲ":9479,"ĠëĤĺìĺ¤ìŀĲë§ĪìŀĲ":9480,"ĠìĤ¼ìĦ±":9481,"íĿī":9482,"Ġìķŀìłĳìĭľ":9483,"ĠëķĮë¬¸ìŀħëĭĪëĭ¤":9484,"êµĲíļĮ":9485,"íĽĦìĹĲ":9486,"íĽĦìĿĺ":9487,"ĠíĨµë§ĪëĬĺ":9488,"ĠëĲ©ëĭĪëĭ¹":9489,"ĠëĶ±ëĶ±":9490,"Ġëĥħ":9491,"Ġë§¤ìŀ¥ëıĦ":9492,"ìĥīìĿĺ":9493,"ĠìĦ¤ìłķ":9494,"Ġì¢ĢëįĶ":9495,"ê¶ĮìĿĦ":9496,"ë³¼ê¹Į":9497,"Ġëį°ìĽĮ":9498,"ĠëĶĶìłĢíĬ¸ëĬĶ":9499,"ĠìĪłì§ĳìĿĦ":9500,"íĻĺìĺģ":9501,"Ġì¤Ģë¹Ħíķľ":9502,"Ġë¹łì§Ģë©´":9503,"ĠëĲĺìĸ´ìŀĪê³ł":9504,"Ġëª©ìļĶìĿ¼":9505,"Ġê³ĦëŀĢìĿĦ":9506,"Ġê³ĦëŀĢë§Ĳ":9507,"Ġì°¾ìķĦë³´":9508,"Ġì²´ìĸ´":9509,"ĠëĪĦìĽĮ":9510,"Ġë¹µëıĦ":9511,"Ġì°įìĸ´ë´¤ìĸ´ìļĶ":9512,"Ġíķ´ì£¼ìħĶìķ¼":9513,"ĠëĬĲëĤĮìĿ´ëĭ¤":9514,"ĠëĬĲëĤĮìĿ´ìĹĪìĸ´ìļĶ":9515,"ĠìĻĶìĿĦ":9516,"Ġê³¼ìĹ°":9517,"ĠìĤ¼ê²¹ìĤ´ìĿĢ":9518,"Ġê²°ë¡ł":9519,"Ġë³µíķ©":9520,"ĠëĨĢê±°ë¦¬":9521,"ĠìĿ´ê³³ìĿĺ":9522,"ì¿¤":9523,"ìĸ´ì£¼ìħĶìĦľ":9524,"Ġíĸ¥ëıĦ":9525,"ĠìĭĿëĭ¹ìĿĢ":9526,"ĠëįĶìļ±ëįĶ":9527,"Ġë°ĢíĤ¤":9528,"ĠìķĦëĭĮê°ĢìļĶ":9529,"Ġëª¸ë³´ìĭł":9530,"ìĬ¤íĦ°ëĶĶë£¸":9531,"Ġìĥīê°Ĳ":9532,"íķĺìĭľê¸°":9533,"ĠëĤ´ëł¤ê°Ģ":9534,"Ġì£¼ë°©ìĿ´":9535,"Ġì£¼ë°©ìĹĲìĦľ":9536,"Ġëª°ëł¤":9537,"ĠíĥľëĭĿ":9538,"Ġìī¬ë¦¼íĶĦ":9539,"ëı¼ìĦľ":9540,"ìŀĲë¦¬ìĹĲ":9541,"Ġë¨¹ìĸ´ìķ¼ì§Ģ":9542,"Ġìĭłê¸°íķľ":9543,"ĠìĹĦë§Īê°Ģ":9544,"ĠìĹĦë§Īëŀĳ":9545,"ëª¨ìŀĦê³µê°Ħ":9546,"Ġê·¼ìľ¡ìĿ´":9547,"ìĻĦë£Į":9548,"ĠìķĦìī½ê²ĮëıĦ":9549,"Ġë§İìķĺëįĺ":9550,"ĠìĹ¬ëĵľë¦ĦìĿ´":9551,"Ġë¹Ħë²¼ìĦľ":9552,"íĶ¼ë¶Ģê³¼":9553,"Ġíĺ¹ìĭľëĤĺ":9554,"Ġê³łìĭľíħĶ":9555,"Ġë¸ĮëĿ¼ìļ°ëĭĪ":9556,"ë©´ëĮĢ":9557,"ĠìĹ°ìĬµìĭ¤":9558,"ìĭľíĤ¤ëĬĶ":9559,"Ġëī´ì§Ħ":9560,"Ġë¸Ķë£¨ë²łë¦¬":9561,"ìĨįëĪĪìį¹íİĮ":9562,"Ġê¾¸ëįķíķľ":9563,"Ġìłľë¡ľíİĺìĿ´":9564,"Ġë¡¯ëį°ë°±íĻĶìłĲ":9565,"ìĩ¼íķĳ":9566,"Ġê±°ê¸°ëĭ¤":9567,"íı¬ìŀ¥ë§Īì°¨":9568,"Ġì¤ĳëıħìĦ±":9569,"ĠìĤ´íİ´ë³¼":9570,"ĠìłĦë°ĺìłģìĿ¸":9571,"Ġê³¤ëĵľëłĪ":9572,"ĠëĤŃëĤŃ":9573,"íĥĢìĿ´ìłĢ":9574,"Ġë°ĺê°ĳê²Į":9575,"ĠìķĦíģ¬ìķ¤ë¶ģ":9576,"Ġíķĺëħ¸ìĿ´ë§¥ì£¼":9577,"ĠëĤĺë¨¸ì§Ģ":9578,"Ġìķ¼ëģ¼ìĨĮë°Ķ":9579,"Ġìłľìľ¡ë³¶ìĿĮ":9580,"Ġëª¨ëį¸íķĺìļ°ìĬ¤":9581,"Ġì§ĦìĹ´ëĲĺìĸ´":9582,"ĠìŀĲë¦¬ìŀ¡ê³ł":9583,"ëĥĦìĥĪ":9584,"ĠìĦľë¶ĢìĦł":9585,"ëĿł":9586,"ë§ĪìĤ¬ì§Ģ":9587,"ĠìĹ°íĿ¬ëıĻ":9588,"íĺķìĻ¸ê³¼":9589,"Ġìķ¼ê³±ìĿĺ":9590,"Ġíı¬ëıĦìĽĲìĤ¼ê³Ħíĥķ":9591,"ĠìĹĺëłĪë²łìĿ´íĦ°":9592,"ĠíķĺìĿ´ëĿ¼ìĿ´íĬ¸":9593,"ªĦ":9594,"ë»¤":9595,"ìļ¥":9596,"ë¦´ëķĮ":9597,"ìĹĲìĿ´ëĵľ":9598,"ê²Įìļ©":9599,"ìĭľíĤ¬":9600,"ìĬ¤íĭ±":9601,"ìķĦìĥģ":9602,"Ġë¶Ĳ":9603,"ì£¼ë¨¹ë°¥":9604,"ĠìĿ´ì§ĳ":9605,"ĠìĿ´ëĭ¬ìĿĺ":9606,"ëĤĺìĻĢ":9607,"ĠìĪĺìŀħ":9608,"Ġê·¸ê±°":9609,"Ġê·¸ëł¤":9610,"Ġê·¸ê³³":9611,"ìĽ¨ìĿ´":9612,"Ġì£¼ê´Ģ":9613,"ĠìķĦê¹Ŀ":9614,"ì¹ĺìĤ´":9615,"Ġìĺ¤ëĶĶ":9616,"Ġë³´ê²Į":9617,"Ġë³´ìĭľ":9618,"ĠíķľëĭµëĭĪëĭ¤":9619,"Ġíķľëĭ¤ë©´":9620,"Ġíķľê°Ģì§Ģ":9621,"ìĻĢìĿ¸":9622,"ìĪĺë¦¬":9623,"Ġë©į":9624,"ĠìłķìĽĲ":9625,"ë¶Ģë¥¼":9626,"ìĤ¬ë¬´":9627,"ĠìĨĮëıħ":9628,"ĠìĿ¸ëį°ìļĶ":9629,"ìŀħì£¼":9630,"ìĺ¤ë¦¬":9631,"Ġëĵ¤ëįĶëĿ¼ê³łìļĶ":9632,"Ġì§Ģë£¨":9633,"Ġë°Ķì§Ī":9634,"Ġë°ĶëłĲ":9635,"Ġë¶Ģë¥´ëĬĶ":9636,"ĠìĥĿë§¥":9637,"ë¯¸ë¥¼":9638,"Ġë§ĮëĤĺëĬĶ":9639,"ĠëĦĪëĬĶ":9640,"ĠíĻĢìĿ´":9641,"Ġì¶ĶìĦ¸":9642,"ĠëķĮê¹Ķ":9643,"Ġìĥģê´Ģ":9644,"ĠìĬ¤ë¯¸":9645,"ĠìĬ¤íĮĢ":9646,"íĥĢëıĻ":9647,"Ġì£¼ë¬¸íķ´ë³´":9648,"ĠìŀħìĨĮ":9649,"Ġë¹Ħíķ´ìĦľ":9650,"ìĥĿì±Ħ":9651,"Ġìļ°ìļ¸":9652,"íħĮëĿ¼íĶ¼":9653,"Ġíİ¸ìĿ´ëĿ¼ìĦľ":9654,"ê°ľê°Ģ":9655,"Ġëĭ¨ê³¨ìĿ´":9656,"Ġìĸ´ì¨":9657,"íĭĪ":9658,"Ġì¹´íİĺìĿ¸":9659,"ĠìĦ¸ë¯¸ëĤĺ":9660,"ĠìķĮìĭ¸":9661,"Ġìľłìŀħ":9662,"ĠìľłìĦł":9663,"ĠíĸĪìĿĦ":9664,"Ġê°ķìķĦì§Ģ":9665,"Ġê°ķìĽĲëıĦ":9666,"ĠìĦłíĥĿìĿ´":9667,"íĶĮëłĪ":9668,"íĮĲìĿ´":9669,"Ġìĸ´ë°":9670,"ĠíĮĮìļ°":9671,"Ġíķłë¡ľìľĪ":9672,"ëĤ´ìŀĲ":9673,"Ġê°Ĳìĭ¸":9674,"Ġì¢ĭìķĺëĭµëĭĪëĭ¤":9675,"Ġì´Īì½ľ":9676,"ê¸Ģë¦¬":9677,"ĠíķĺëĤĺìĿĺ":9678,"ĠíķĺëĤĺìĿ¸":9679,"ê¹ĢìĹĨìĿ´":9680,"Ġìĭ¤ìŀ¥":9681,"Ġìĭ¤ìŀ¥ëĭĺ":9682,"Ġìĭ¤ë§Ŀ":9683,"ĠíħĮìĿ´ë¸ĶìĹĲìĦľ":9684,"Ġê±¸ìľ¼ë©´":9685,"Ġëª»íķł":9686,"ĠíĿł":9687,"Ġì£¼ì°¨ê³µê°Ħ":9688,"ĠëħĦê°Ħ":9689,"Ġì¢ħë¡ľ":9690,"Ġê¸°ë³¸ìķĪì£¼":9691,"Ġì¦Ĳê²¼":9692,"Ġë¦¬ì¡°ëĺĲ":9693,"ĠêµŃë¬¼ëĭŃë°ľ":9694,"ĠìĺģìĹħìĿĦ":9695,"Ġì§Ħíĸīíķł":9696,"ĠìĪłì§ĳìĹĲìĦľ":9697,"Ġìĺ¬ëĿ¼ìĺ¨":9698,"´ëĤł":9699,"ìį¸":9700,"Ġê¸¸ìĿĦ":9701,"ì´Īëĵ±íķĻêµĲ":9702,"Ġë¹µë¹µ":9703,"Ġëª¨ìĬµìĿ´ìĹĲìļĶ":9704,"Ġë¸Įë£¨":9705,"Ġì¢ħë¥ĺë¥¼":9706,"Ġë³ĦëıĦë¡ľ":9707,"ê³¨íĶĦ":9708,"Ġëĳ¥":9709,"Ġíģ¬ë¦¼íĮĮìĬ¤íĥĢ":9710,"Ġë³¶ìĿĮë°¥ìĿ´":9711,"ëĬĲëĤĮìĿ´":9712,"ĠìĿ¸íħĮë¦¬ìĸ´ëĬĶ":9713,"ĠëĬĲê»´ì§Ħëĭ¤":9714,"Ġìĸ¸ê¸ī":9715,"Ġì°¸ê³łíķ´ì£¼ìĦ¸ìļĶ":9716,"Ġë§¥ì£¼ë¥¼":9717,"ĠëıĮëł¤":9718,"Ġíĸ¥ê³¼":9719,"ĠëĤľìĿ´":9720,"Ġê¸°ëĮĢëĲĺëĬĶ":9721,"Ġë¹¨ëŀĺ":9722,"ë´ĲìĦľ":9723,"ê°ĶëĬĶëį°":9724,"ĠíĹĪëĭĪ":9725,"Ġìĺ¤íĶĪíĺķ":9726,"Ġë¯¹ìĬ¤":9727,"Ġë°Ģìĸ´":9728,"ì§¸ë¡ľ":9729,"Ġìĭ¸ë¨¹ìľ¼ë©´":9730,"Ġë°ķíĺĢ":9731,"Ġë¨¹ìĹĪëĦ¤ìļĶ":9732,"Ġë¨¹ìĹĪëĬĶëį°ìļĶ":9733,"ĠìĿ¼ë°ĺìłģìľ¼ë¡ľ":9734,"Ġìĭ¶ìĿĢëį°":9735,"Ġë¨¸ê¸Ī":9736,"Ġì¦Ĳê¸¸ìĪĺ":9737,"ĠíĹ¤ëĵľ":9738,"Ġëĭ¬ëĭ¬íķĺëĭĪ":9739,"Ġëª¨ìŀĦìĿ´":9740,"ĠíĥĦëł¥":9741,"ĠìĥĿíĻľìĿĺ":9742,"ìĿ´ìĹĪì§Ģë§Į":9743,"Ġì²łê±°":9744,"Ġìī¬ëĬĶ":9745,"Ġì½©ëĤĺë¬¼ëıĦ":9746,"Ġëĭ¨ê³ĦëĬĶ":9747,"Ġì£¼ê±°ìļ©":9748,"ĠìķĬëĬĶëĭ¤":9749,"ĠìŀĲê·¹ìłģìĿ´ì§Ģ":9750,"Ġêµ¬ê²½íķĺëĬĶ":9751,"Ġì§ģìŀ¥ìĿ¸ëĵ¤ìĿ´":9752,"Ġì£¼ìĭľëįĶëĿ¼êµ¬ìļĶ":9753,"ĠíĶĦë¡ľíķĦ":9754,"ëŀĦê¹ĮìļĶ":9755,"íħĲì¸ł":9756,"Ġìĵ±":9757,"Ġì´īì´īíķĺê³ł":9758,"ĠìĨĶì§ģíķĺê²Į":9759,"Ġê¼¼ê¼¼íŀĪ":9760,"Ġíľ´ê²Į":9761,"Ġê¾¸ì¤Ģíķĺê²Į":9762,"Ġë°Ķë¹ł":9763,"ĠìĹ¼ìĥīìĿĦ":9764,"Ġë¹Ħë¹Ķë§īêµŃìĪĺ":9765,"Ġë°°ë¶Ģë¥´":9766,"ĠìĹ¬ìľłë¡Ńê²Į":9767,"ĠìķĦì¹¨ìĹĲ":9768,"ĠìŀħìķĪìĹĲ":9769,"ĠìŀĳìĹħìĿĦ":9770,"ĠëĽ°ìĸ´ëĤĺ":9771,"ĠëļĿë°°":9772,"Ġíķľìª½ìĹĲëĬĶ":9773,"ĠíĬ¹ìĿ´íķĺê²Į":9774,"ĠëģĮê³ł":9775,"ëĩ¸":9776,"ĠíļĮìĽĲëĭĺëĵ¤ê»ĺ":9777,"Ġëĺĳê°ĻìĿĢ":9778,"Ġë¬´ê²Įë¥¼":9779,"ìĵ±":9780,"Ġìĺ®ê²¨":9781,"Ġë¯¸ëŀĺê°Ģ":9782,"Ġìĸ´ëĶľ":9783,"ĠëĿ¼ìĿ´íĶĦ":9784,"Ġëĸłìĺ¤ë¥´ëĬĶ":9785,"ìķĦëĭĪëĿ¼":9786,"Ġìĸ´ë¨¸ëĭĪ":9787,"íķ´ë¬¼ì¹¼êµŃìĪĺ":9788,"ĠìĦ¸ëł¨ëĲľ":9789,"Ġë§Īëĵ¤ëłĮ":9790,"Ġì¹´ìļ°íĤ¤":9791,"íĸĦë²Ħê±°":9792,"ĠëĪĦë£½ì§Ģ":9793,"Ġì»´íĵ¨íĦ°":9794,"ĠìħĶíĭĢ":9795,"ĠìĽ»ì»¤íĶ¼":9796,"Ġìºłíķĳ":9797,"ĠìĤ¬ìļ©ìĬ¹ìĿ¸ìĿ¼":9798,"Ġëª¨ì§ľëłĲëĿ¼":9799,"Ġíķĺëħ¸ìĿ´ë§¥ì£¼ë°¤ê±°ë¦¬":9800,"Ġìį¼":9801,"Ġìī´":9802,"ë¡ľëĵľ":9803,"ëĭĪê¹Ĳ":9804,"ĠìĭłëħĦ":9805,"ê¸°ê¹Įì§Ģ":9806,"ë¦¬ì½Ķ":9807,"ĠìŀĪëĭ¤ê°Ģ":9808,"ĠìŀĪê²łì§Ģë§Į":9809,"´ë¨¸ë¦¬":9810,"ìĹŃìĹĲ":9811,"ì¹«":9812,"ë©´ê³¼":9813,"ì£¼ë©´ìĦľ":9814,"Ġìĭłë¦¼ì¡±ë°ľ":9815,"Ġìĭłë¦¼íĺ¸ìłĲ":9816,"ìĿ¸ì¤ĳê°ľ":9817,"Ġìĥ¹":9818,"ìŀ¥ê°ĳ":9819,"Ġê·¸ìłĢ":9820,"ìĽ¨":9821,"ë¬¸ê³ł":9822,"ĠíķĺìĦ¸ìļĶ":9823,"Ġì¢ĭì£ł":9824,"Ġê¸´ë¨¸ë¦¬":9825,"Ġìĭľê³µ":9826,"ĠëĤĺê°ĢìĦľ":9827,"ë²³":9828,"Ġë³´ìĭľê³ł":9829,"Ġíķľìłģ":9830,"Ġíķľíİ¸":9831,"Ġìĭłì´ĮìĹŃë¡ľ":9832,"Ġë²Ķ":9833,"Ġë©°":9834,"Ġë§İìĿĮ":9835,"Ġë§İìľ¼ëĭĪ":9836,"ìĿ¼ìĭĿ":9837,"Ġê¸°ìļ¸":9838,"Ġê¸°ìļ´":9839,"ĠìĿ¸ë¶ĦìĿ´":9840,"Ġë§¤ìļ¸":9841,"ĠìłĦë§¤":9842,"ĠìłĦíĽĦ":9843,"ë¶ĦìĿĺ":9844,"ìķ¼ì±Ħ":9845,"Ġë§Ľì§ĳìŀħëĭĪëĭ¤":9846,"ìłķë§Ĳ":9847,"Ġëª¨ë¥¼":9848,"Ġëª¨ê³µ":9849,"ìļ°ê¸°":9850,"Ġì§Ħë¦¬":9851,"ĠíĮĶë":9852,"Ġìŀĺê²Į":9853,"Ġë°©ìĭĿìľ¼ë¡ľ":9854,"ĠëĦĪëª¨":9855,"íķłê¹Į":9856,"Ġìĥģì°¨ë¦¼":9857,"Ġë©Ķëī´ìĻĢ":9858,"ĠìĬ¤íĤ¨":9859,"ĠìĬ¤íĮĮìĿ´":9860,"ĠìĺĪì¸¡":9861,"Ġìĸĳìª½":9862,"ĠëĬĲë£¨":9863,"Ġë¹Ħìĺ¤ëĬĶ":9864,"ëĶľ":9865,"ìłĢëŁ°":9866,"Ġê°ľëĤĺ":9867,"ê²łì§ĢìļĶ":9868,"ĠíĬ¼":9869,"ìĤ´ê³¼":9870,"ë¨¹ìĿĢ":9871,"Ġë¬´ë§ĲëŀŃ":9872,"ĠíĽĦë°°":9873,"Ġì°¸ê¹¨":9874,"Ġíģ¬ê¸°ëıĦ":9875,"Ġì°¾ìķĺëĭ¤":9876,"ĠìĥĿê°ģìĹĲ":9877,"ĠìĥĿê°ģíķĺìĭľë©´":9878,"ì¤Į":9879,"ìķ½ìĿĦ":9880,"Ġë°©ë¬¸íķĺê¸°":9881,"Ġê²½íĹĺìĿ´":9882,"ëĤ¨ìĻĦ":9883,"ĠíķĦë§ģ":9884,"Ġì§ĳê²Į":9885,"Ġì°įì§Ģ":9886,"Ġë§Ĳíķ´":9887,"ĠíļĮë¥¼":9888,"Ġì´Īë³´ìŀĲ":9889,"ĠìµľìĦłìĿĦ":9890,"ĠìĤ¼ì´Į":9891,"Ġê¹ĢëĤ¨ìĻĦ":9892,"Ġë¬¼ìĿ´":9893,"ĠëģĪ":9894,"êµĲíķ©":9895,"Ġë¶ĦìľĦê¸°ìĹĲìĦľ":9896,"Ġëª»íĸĪì§Ģë§Į":9897,"ĠëĲľëĭ¤ëĬĶ":9898,"íĺķíĥľ":9899,"ĠëħĦë¶ĢíĦ°":9900,"ĠìŀĲë¦¬ë§Īëĭ¤":9901,"ë£¸ìĺ¤íĶ¼ìĬ¤íħĶ":9902,"Ġìĭłì´ĮìłĲìĹĲ":9903,"íĨłëŀĳ":9904,"ĠìĪľìĭĿ":9905,"Ġê°ķëĤ¨íĥĢìĽĮ":9906,"Ġëĸ¡ê¼¬ì¹ĺ":9907,"ê¼Ń":9908,"íķ´ì£¼ê³ł":9909,"ĠìĸĳëħĲê°Īë¹Ħ":9910,"ĠìĤ¬ëŀĮëĵ¤ìĿĺ":9911,"Ġê³¨ëĿ¼ìĦľ":9912,"Ġë§¤ìļ´ê±°":9913,"ĠëĤĺìĻĶëįĺ":9914,"Ġë¹łì§Ħ":9915,"Ġëĭ´ìĹĲ":9916,"Ġëĭ´ìķĦìĦľ":9917,"´ëĤ´":9918,"ĠíĻįë³´":9919,"ëĵ±ìĿ´":9920,"Ġìĭľìŀĳíķ´ìĦľ":9921,"ĠëĪĦëł¤":9922,"Ġê¹Ģì¹ĺëŀĳ":9923,"ì¸µìĿ´":9924,"ê²°ìłľ":9925,"ë©Ķëī´ëıĦ":9926,"ë²łíĬ¸":9927,"ĠëĤĺìĺ¨ëĭµëĭĪëĭ¤":9928,"ĠìķĦìĿ´ëĵ¤ìĿ´":9929,"ĠìĿ¸íħĮë¦¬ìĸ´ìĹĲ":9930,"ĠìĥĲëŁ¬ëĵľëĬĶ":9931,"ĠìĿĮë£Įê°Ģ":9932,"ĠíĻĺìĺģ":9933,"ĠëĬĲê»´ì§Ī":9934,"ì¡Įê³ł":9935,"Ġê´ľì°®ìķĺìĸ´ìļĶ":9936,"ĠíĶ¼ìŀĲê°Ģ":9937,"ĠíķĦëĿ¼íħĮìĬ¤ê°Ģëĵł":9938,"Ġê³±ì°½ê³¼":9939,"ĠëķĢ":9940,"ê¼¬ëĵ¤":9941,"ĠìĨĲëĭĺëĵ¤":9942,"Ġë³´ê¸°ìĹĲëıĦ":9943,"Ġë¸Ķë¡ľê·¸ìĹĲ":9944,"ĠìĦľë¹ĦìĬ¤ëıĦ":9945,"ĠëĬĲëģ¼ê³ł":9946,"Ġë£¸ìĿ´":9947,"ìĭłë¦¼ìĹŃìłĲ":9948,"Ġë°ķìĬ¤íĢĺìĸ´":9949,"Ġê¹»ìŀİê³¼":9950,"Ġì¼ĢìĿ´íģ¬ëıĦ":9951,"ĠìĮĪë¬´":9952,"Ġë§Īì§Ģë§īìĿĢ":9953,"ĠìĨĮê³łê¸°ëĬĶ":9954,"ĠìĨĮê³łê¸°ë¥¼":9955,"Ġìļ©ìĤ°":9956,"ĠìĿ´ìľłë¥¼":9957,"ëıĮìķĦ":9958,"ĠëĤ´ëł¤ê°Ģë©´":9959,"ĠëĸłìĦľ":9960,"Ġê·¸ëŁ¬ë©´":9961,"Ġíİ¸ë¦¬íķ©ëĭĪëĭ¤":9962,"Ġë§ĮëĤĺê¸°ë¡ľ":9963,"ĠíĥľêµŃ":9964,"ìĿ´ìĹĪëĬĶëį°ìļĶ":9965,"ĠìĬ¤íĥĢìĿ¼ë§ģ":9966,"Ġë¥ĺ":9967,"êµ¬ìĿ´ë¥¼":9968,"ĠìĶ¹ìĿĦ":9969,"Ġê·ľìłľ":9970,"ëĨĵìĿĦ":9971,"Ġì¦Ĳê¸°ìĭ¤":9972,"ĠìŀĲê·¹ìĿ´":9973,"ĠìĤ´íİ´ë":9974,"Ġìĺ¤ë¥¸ìª½ìľ¼ë¡ľ":9975,"Ġìĺ¤ëİħë°Ķ":9976,"ëĶ°ëĿ¼":9977,"ĠìĤ¬ëŀĳíķĺëĬĶ":9978,"ĠìķĮê³łë³´ëĭĪ":9979,"Ġë¹Įë¦¬":9980,"Ġë¹ĮëĿ¼":9981,"Ġêµ½ê¸°":9982,"ĠêµĲìłķìĿĦ":9983,"ëłĪìĬ¤íĨłëŀĳ":9984,"Ġì°¾ìľ¼ìĭľë©´":9985,"Ġìĸ´ì©ľ":9986,"ëļĿ":9987,"ëª¨ìŀĦìŀ¥ìĨĮ":9988,"ĠìĦłìĥĿëĭĺìĿ´":9989,"Ġíı¬íķ¨ëĲĺìĸ´":9990,"ĠìĦ¼ìĬ¤ìŀĪê²Į":9991,"ĠìħĢíĶĦë°Ķê°Ģ":9992,"ĠëĿĦëĬĶ":9993,"ĠíĿĲë¦Ħ":9994,"Ġìŀ¬ë°Įê²Į":9995,"ë¦¬ëıĦíĽĦ":9996,"Ġë»¥":9997,"ĠìĬĪíģ¬ë¦¼":9998,"Ġì°¨íĻįë£¸ìĭłì´ĮìłĲ":9999}